<s>	0
</s>	0
<unk>	0
<pad>	0
.	-3.50983
▁	-3.51203
?	-3.82298
,	-4.1091
을	-4.16351
는	-4.39003
가	-4.39037
를	-4.53889
이	-4.59175
은	-4.71394
에	-4.84817
도	-4.86496
▁수	-5.02168
의	-5.26654
▁안	-5.37214
▁그	-5.37385
▁내는	-5.40748
▁내	-5.41832
로	-5.41857
▁내가	-5.42003
고	-5.42237
지	-5.52964
서	-5.70661
▁것	-5.73886
예	-5.77464
▁이	-5.80099
게	-5.81186
으로	-5.81255
▁있는	-5.8779
다	-5.91334
▁거	-5.95013
▁더	-5.95113
만	-5.98382
▁오늘	-5.98392
한	-5.986
▁니	-6.00954
▁한	-6.03104
▁잘	-6.03398
▁제가	-6.08442
▁우리	-6.11174
▁지금	-6.12815
하고	-6.16888
에서	-6.17157
나	-6.25395
▁할	-6.26987
스	-6.28464
▁저는	-6.33444
할	-6.34122
▁다	-6.35618
기	-6.3869
▁있습니더	-6.38801
▁같이	-6.39777
데이	-6.41473
면	-6.41644
▁있어예	-6.42064
입니더	-6.43938
▁때	-6.45205
야	-6.546
▁기	-6.54811
히	-6.57851
▁마이	-6.57933
랑	-6.58126
▁혹시	-6.58254
▁요	-6.5848
인	-6.60013
과	-6.60284
▁억수로	-6.62474
▁여	-6.64472
▁예	-6.64757
믄	-6.64881
▁일	-6.6503
▁1	-6.65768
▁니가	-6.66939
하는	-6.6713
▁가는	-6.6954
▁2	-6.70084
▁진짜	-6.70369
▁좀	-6.70387
라	-6.70593
▁제	-6.70874
시	-6.70934
▁고	-6.71365
▁주	-6.73811
▁다른	-6.75559
▁그라믄	-6.77264
요	-6.7732
▁윽수	-6.78156
▁합니더	-6.78763
▁있습니꺼	-6.78802
▁저	-6.79311
▁게	-6.79553
해	-6.79675
▁하는	-6.79771
▁좋은	-6.80289
▁다시	-6.80816
▁니는	-6.8136
▁너무	-6.81766
▁우리는	-6.83367
▁시간	-6.83871
분	-6.86461
▁두	-6.86696
리	-6.86762
네예	-6.8933
와	-6.90598
▁내일	-6.91003
까지	-6.91065
▁못	-6.91913
▁당신	-6.93438
노	-6.93895
일	-6.94632
▁지	-6.95138
▁3	-6.95385
▁바로	-6.95444
▁몇	-6.96392
▁줄	-6.97972
▁우째	-6.98022
▁됩니더	-7.00447
자	-7.00453
▁하고	-7.00978
▁갈	-7.01502
상	-7.01869
▁뻐스	-7.02659
▁몬	-7.03166
▁쪼매	-7.03199
▁같다	-7.03414
▁와	-7.0584
습니더	-7.06036
▁주이소	-7.06037
는데	-7.06158
▁어떤	-7.06684
▁가	-7.0939
가꼬	-7.09579
▁사진	-7.0972
▁건	-7.10098
▁사	-7.10929
이랑	-7.11061
합니더	-7.15174
▁내한테	-7.16775
▁정도	-7.16904
▁영화	-7.17792
어	-7.17919
▁낸	-7.18459
▁친구	-7.20058
주	-7.20114
▁같아예	-7.20156
▁예약	-7.20376
▁그라모	-7.22254
수	-7.23702
▁있을	-7.23873
▁아	-7.25268
▁아직	-7.26416
▁됩니꺼	-7.26468
러	-7.27863
▁사람	-7.29002
▁시간이	-7.29109
▁쫌	-7.29795
▁당신은	-7.30063
▁그라고	-7.30714
▁전에	-7.31051
▁해	-7.32256
부터	-7.32305
던	-7.32592
▁10	-7.3266
▁하나	-7.32761
▁땜시	-7.33024
▁전	-7.33285
하	-7.33311
어예	-7.33366
▁여행	-7.34645
▁집에	-7.34712
▁사람이	-7.35084
▁말	-7.35269
▁많은	-7.35971
▁해야	-7.36542
▁여서	-7.3669
▁있다	-7.36702
▁생각	-7.36761
▁즈희	-7.37308
해야	-7.37443
▁당신이	-7.37931
▁5	-7.37971
▁차	-7.38999
▁우리가	-7.39536
▁윽수로	-7.39562
아	-7.3972
▁하	-7.40127
한테	-7.40604
▁영어	-7.40928
▁내도	-7.41798
꼬	-7.42184
▁다음	-7.42654
▁걸	-7.42996
▁있나	-7.4307
데	-7.43191
실	-7.43358
▁근데	-7.44203
제	-7.44266
네	-7.44427
하게	-7.44674
▁될	-7.44795
하지	-7.44834
▁많이	-7.44999
▁열	-7.45272
▁물	-7.45333
▁보고	-7.45552
▁전화	-7.45936
니	-7.45961
▁같은	-7.45964
▁어제	-7.46823
▁꼭	-7.47073
된	-7.47343
▁어	-7.47356
▁오	-7.47607
거	-7.48091
▁음식	-7.4949
대	-7.4961
심	-7.5026
▁살	-7.50405
▁짐	-7.50534
▁있는데	-7.5057
보다	-7.50576
라꼬	-7.50815
▁주문	-7.51173
는디	-7.51215
▁4	-7.51292
사	-7.51406
개	-7.51475
해가	-7.51732
들이	-7.52668
▁나	-7.52848
▁어데	-7.53076
▁오늘은	-7.53108
니까	-7.5361
▁연락	-7.53728
▁좋아하는	-7.54468
▁있을까예	-7.5467
진	-7.54723
▁한국	-7.55019
!	-7.55032
▁번	-7.55545
▁개	-7.56347
▁집	-7.56537
▁있십니더	-7.57018
▁이번	-7.57053
▁네	-7.57176
인데	-7.57364
▁보	-7.57553
▁요즘	-7.57598
▁큰	-7.5788
▁가야	-7.58278
에는	-7.58577
▁또	-7.58608
▁일이	-7.58688
▁을매나	-7.59456
라고	-7.59754
▁비	-7.60262
장	-7.60558
▁알고	-7.6112
▁볼	-7.61252
디	-7.61309
▁확인	-7.61574
▁뭐	-7.62062
▁중	-7.62498
▁있	-7.62508
▁싶어예	-7.6269
십니꺼	-7.63296
신	-7.63388
치	-7.6347
습니꺼	-7.63536
▁알	-7.63665
▁함	-7.63902
▁항	-7.6497
▁제일	-7.65117
까	-7.66178
들	-7.66244
▁올	-7.66409
번	-7.66702
월	-7.67059
도록	-7.67416
원	-7.68257
▁합니꺼	-7.68261
▁데	-7.6858
보	-7.68709
▁약	-7.69203
에스	-7.70021
▁그래도	-7.70326
▁따로	-7.70743
▁옷	-7.71385
▁그래	-7.71718
드라	-7.71942
▁먼저	-7.72003
▁온	-7.72052
년	-7.72369
▁제품	-7.72414
▁가지	-7.72578
지만	-7.72902
지예	-7.7298
▁동안	-7.73507
▁타고	-7.74026
▁그런	-7.7441
▁보내	-7.74742
하기	-7.74929
▁있데이	-7.74985
시간	-7.75408
▁방	-7.75671
까예	-7.75898
▁하는데	-7.76023
▁간	-7.76091
▁정	-7.76414
▁책	-7.76471
▁계속	-7.76659
라예	-7.7698
했습니더	-7.76994
긴	-7.77129
▁결제	-7.77287
▁공부	-7.77605
▁준비	-7.77623
▁말고	-7.77829
▁겁니더	-7.782
꺼	-7.78376
▁저녁	-7.78753
이나	-7.78956
▁무	-7.79025
▁그냥	-7.79038
▁되	-7.79048
▁야	-7.79522
▁젤	-7.79922
합니데이	-7.8065
▁여자	-7.81045
이라예	-7.81294
▁학교	-7.81408
▁될까예	-7.81687
▁중에	-7.81689
니더	-7.81755
했어예	-7.8204
▁시	-7.82398
▁길	-7.82851
▁본	-7.83504
▁이제	-7.83938
▁이거	-7.84633
▁난	-7.85068
▁타	-7.8512
길	-7.85355
▁운동	-7.85642
▁날	-7.85923
에게	-7.86233
▁남자	-7.86302
질	-7.86485
▁곳	-7.87469
시에	-7.87858
으면	-7.88172
▁기다리	-7.8834
▁없어예	-7.88348
비	-7.88425
드	-7.89377
▁싶은데	-7.89413
▁지가	-7.89676
▁가가	-7.90537
▁호텔	-7.90856
▁원	-7.90988
▁카드	-7.91319
트	-7.91451
▁되는	-7.9197
▁없는	-7.91999
▁지하철	-7.92332
▁수업	-7.93397
▁자	-7.93471
▁바	-7.93596
하면	-7.93686
▁30	-7.94047
▁왜	-7.94188
십니더	-7.94218
명	-7.94239
엔	-7.94349
▁기다	-7.94407
▁배	-7.94771
▁자주	-7.95163
주이소	-7.95256
▁오래	-7.95504
▁추가	-7.95562
▁깁니더	-7.95899
들은	-7.96208
▁빨리	-7.96654
▁모든	-7.97115
▁아무	-7.97244
▁언제	-7.98063
▁6	-7.98069
▁택시	-7.98076
▁7	-7.98078
▁같은데	-7.98249
▁가고	-7.98607
▁가장	-7.98634
▁부	-7.98668
▁후에	-7.98685
▁시험	-7.98778
▁지는	-7.9881
려	-7.98866
▁대해	-7.98898
입니꺼	-7.99014
▁사용	-7.99111
마	-7.99354
▁니한테	-7.99368
▁후	-7.99628
▁아침	-8.0009
▁달	-8.00191
▁대	-8.00448
소	-8.01561
하믄	-8.01689
▁이미	-8.0203
▁식사	-8.02234
▁없습니더	-8.02288
▁문제	-8.02653
▁모두	-8.02697
▁글	-8.02939
정	-8.03146
▁메뉴	-8.04026
▁있나예	-8.04502
▁요리	-8.0481
▁없	-8.0489
▁얘기	-8.04956
▁위해	-8.05038
▁좋을	-8.05164
해서	-8.05221
부	-8.05831
▁싶데이	-8.059
다꼬	-8.05931
▁혼자	-8.06003
구	-8.06141
▁필요	-8.06252
▁들	-8.06473
▁배송	-8.06937
▁미리	-8.07661
▁사고	-8.07755
께	-8.08234
▁묵고	-8.09096
▁8	-8.09154
▁이용	-8.09426
▁받을	-8.10133
▁그거	-8.10151
건	-8.10301
▁일찍	-8.10657
▁어느	-8.10918
이라	-8.10942
▁분	-8.1097
▁안에	-8.10986
▁겁니꺼	-8.11091
▁적	-8.11255
▁뭔	-8.11257
용	-8.11553
▁무슨	-8.11703
▁가방	-8.11894
▁그녀는	-8.12126
▁구매	-8.12324
▁싶은	-8.12433
▁하루	-8.12526
다고	-8.12599
▁비행기	-8.12625
▁처음	-8.12813
▁않	-8.12926
▁수도	-8.13081
▁없다	-8.13115
▁회사	-8.13161
▁보이	-8.13219
▁사람들	-8.13247
▁사실	-8.13392
▁머리	-8.13695
▁앞으로	-8.13699
▁그녀	-8.13745
▁세	-8.13769
▁가격	-8.13903
▁선물	-8.14262
▁당슨	-8.14443
▁할인	-8.14777
▁밥	-8.149
▁하지	-8.14931
줄	-8.15065
▁친구가	-8.15117
적인	-8.15176
▁반	-8.15196
▁20	-8.15354
▁저도	-8.15463
하신	-8.1547
▁당슨은	-8.15793
▁한다	-8.1636
▁된	-8.16506
▁마	-8.16683
▁돈	-8.16823
으예	-8.16848
▁이상	-8.16895
▁잠	-8.1724
▁나가	-8.17476
▁같데이	-8.17692
▁아까	-8.17751
▁있어가	-8.18105
▁내를	-8.18407
우	-8.18681
▁물건	-8.18945
▁한국에	-8.18987
▁있는지	-8.1906
점	-8.19066
▁상품	-8.19103
▁들어	-8.19332
오	-8.19663
▁사이즈	-8.1987
▁것이	-8.19922
▁딴	-8.20394
▁모	-8.206
▁옆에	-8.20734
▁사랑	-8.21231
▁해예	-8.215
입니데이	-8.21702
▁어데서	-8.2197
▁커피	-8.22472
▁신	-8.22572
내	-8.22614
▁9	-8.22815
대로	-8.22818
▁아마	-8.23013
▁저한테	-8.23019
▁원래	-8.23086
▁같네예	-8.23141
▁잘못	-8.23304
▁만나	-8.23388
▁니랑	-8.23466
▁요번	-8.23487
처럼	-8.23623
▁산	-8.23813
이소	-8.2388
▁아니	-8.24136
▁했어예	-8.2427
▁구	-8.24504
으믄	-8.24519
▁가면	-8.24537
것	-8.24609
▁스	-8.24705
해가꼬	-8.24894
▁점	-8.24967
▁아이	-8.25053
▁입	-8.25067
▁날씨	-8.25084
▁내랑	-8.25099
▁앞에	-8.25377
▁수가	-8.25386
▁않아예	-8.25782
▁것을	-8.25787
차	-8.26027
▁새로	-8.26034
다가	-8.26129
르	-8.26417
▁가능합니더	-8.26659
시믄	-8.26807
전	-8.27315
나예	-8.27512
덜	-8.27519
▁유	-8.27548
▁싶습니더	-8.27594
▁문제가	-8.27618
▁대한	-8.27901
식	-8.28146
▁함께	-8.28232
으	-8.28479
▁걱정	-8.28556
십니다	-8.28617
▁죄송합니더	-8.28799
▁아니예	-8.29122
▁새	-8.29292
▁말을	-8.29301
▁얼마	-8.29368
▁낼	-8.29556
▁봐	-8.29583
▁된다	-8.29611
▁근처에	-8.29962
▁음식을	-8.30058
▁일단	-8.30167
▁있고	-8.30369
든	-8.30491
타	-8.30511
▁맛있	-8.30675
▁윽시	-8.30677
버	-8.30962
▁등	-8.31001
▁건강	-8.31319
▁엄마	-8.31339
▁같습니더	-8.31348
▁이름	-8.31545
▁여기	-8.31563
▁집에서	-8.31681
▁가게	-8.31847
화	-8.31912
▁직접	-8.3195
여	-8.32195
성	-8.32281
▁감사합니데이	-8.32288
▁필요한	-8.32707
선	-8.32719
들을	-8.33485
▁확인해	-8.33606
▁해가	-8.33689
▁그건	-8.33825
카	-8.34068
▁그래서	-8.34187
▁여러	-8.34265
▁노래	-8.34604
모	-8.3473
▁즈희가	-8.34872
이고	-8.35199
▁자리	-8.35254
▁크	-8.35429
▁사람은	-8.35488
니꺼	-8.35589
▁A	-8.3561
▁가믄	-8.35648
▁이런	-8.35671
▁가서	-8.35869
▁때는	-8.35946
▁것도	-8.3599
▁점심	-8.36092
습니데이	-8.36106
방	-8.36197
▁환불	-8.36204
▁또한	-8.36421
단	-8.36442
▁따라	-8.36545
▁우	-8.37269
인디	-8.37394
층	-8.37467
▁감사합니더	-8.37591
▁담	-8.37885
마다	-8.37925
운	-8.38457
지는	-8.38556
▁곳이	-8.38609
적	-8.38776
▁거는	-8.38816
▁있어요	-8.39019
▁했는데	-8.39479
▁마이소	-8.39505
▁기라예	-8.3955
▁가꼬	-8.39754
▁포장	-8.39907
▁이래	-8.39942
기가	-8.40295
▁애	-8.40412
▁기분이	-8.40975
▁갑자기	-8.41008
합니꺼	-8.41102
▁쓰	-8.41125
했	-8.41199
▁공연	-8.41407
▁게임	-8.41409
▁문	-8.41484
래	-8.41779
▁장	-8.42188
▁편	-8.42383
▁낍니더	-8.42423
라믄	-8.42461
니께	-8.42621
▁곧	-8.42788
a	-8.42937
는지	-8.43314
▁사람들이	-8.4351
세	-8.43554
라는	-8.43571
했다	-8.43715
▁종류	-8.43863
▁없이	-8.43941
관	-8.44176
▁가지고	-8.44343
▁드릴게예	-8.44791
▁합니데이	-8.4503
▁아이가	-8.45087
▁미	-8.45274
▁교환	-8.45319
▁만날	-8.45328
▁그럼	-8.45391
▁술	-8.45397
▁있으면	-8.45554
▁하믄	-8.45607
▁핸드폰	-8.45681
▁계산	-8.45731
해주이소	-8.45799
린	-8.45846
▁생일	-8.45886
▁참	-8.45889
▁끼다	-8.45924
▁번호	-8.45928
▁당신한테	-8.45961
무	-8.46015
▁부탁	-8.46409
▁명	-8.46412
▁주말에	-8.46462
▁결혼	-8.46524
어요	-8.46732
다이가	-8.46811
▁우선	-8.46819
▁이번에	-8.47013
인지	-8.47026
▁한번	-8.47127
져	-8.47247
▁시작	-8.47576
▁지내	-8.47702
▁오는	-8.47707
▁쪼매만	-8.47856
셨	-8.48002
▁유명한	-8.48008
▁하면	-8.48182
▁여행을	-8.48232
▁하는디	-8.48379
▁식당	-8.48526
갈	-8.48614
▁아침에	-8.48659
▁하지만	-8.48677
주시믄	-8.48752
▁기는	-8.48805
▁닌	-8.48873
바	-8.48901
▁손	-8.4903
가예	-8.49446
▁발	-8.49522
▁12	-8.4953
▁소	-8.49533
교	-8.49764
▁방법	-8.4983
▁어데로	-8.49832
▁취소	-8.49899
▁오후	-8.49927
▁있으믄	-8.49997
▁적이	-8.5009
▁바랍니더	-8.50203
산	-8.50406
▁기차	-8.50447
미	-8.50476
▁전부	-8.50673
▁신청	-8.5074
▁불	-8.5083
▁보는	-8.5106
▁총	-8.51097
▁해도	-8.51108
븐	-8.51291
▁현재	-8.51361
▁있는디	-8.51403
그	-8.51427
▁말씀	-8.51522
▁공항	-8.51525
▁찾아	-8.51767
▁힘들	-8.51881
▁돈을	-8.52012
있	-8.52169
▁가격이	-8.522
적으로	-8.52255
밖에	-8.5236
▁좋아예	-8.52376
▁퍼뜩	-8.52535
▁어떻노	-8.52593
▁사는	-8.53176
▁했습니더	-8.53297
▁표	-8.53492
▁나온	-8.53529
하이소	-8.53565
▁늦게	-8.53623
▁고객님	-8.53749
▁가능한	-8.53847
동	-8.53875
▁뒤에	-8.54043
간	-8.54205
▁쓸	-8.54375
▁먹	-8.54405
▁환전	-8.54575
인가예	-8.54615
▁없을	-8.54665
▁서로	-8.54718
▁장소	-8.54743
▁있어가꼬	-8.54758
▁있었	-8.5477
▁그것	-8.54984
▁시간에	-8.55371
▁탈	-8.55387
▁상	-8.55443
▁다음에	-8.55551
워	-8.55911
▁만약	-8.56159
▁별로	-8.56337
▁눈	-8.56441
▁강	-8.56471
▁나오는	-8.56842
▁주에	-8.5687
프	-8.5688
▁맞	-8.56939
▁음악	-8.56967
▁들어가	-8.57223
▁것은	-8.57398
▁당슨이	-8.57448
▁이유는	-8.57469
▁요번에	-8.57563
당	-8.5773
▁맨날	-8.57798
▁날짜	-8.57806
▁계획	-8.57955
▁아이라	-8.58494
▁당신을	-8.58796
호	-8.5884
▁밤	-8.58851
▁안내	-8.5891
음	-8.58921
▁음식이	-8.58941
▁찾고	-8.59048
▁죄송하지만	-8.59159
▁찍어	-8.59159
라도	-8.59234
▁누가	-8.5931
해예	-8.59322
더	-8.59516
물	-8.59709
▁맛	-8.59775
기를	-8.59987
▁차가	-8.60066
▁변경	-8.60142
될	-8.60356
따	-8.60468
▁보러	-8.60514
▁꿈	-8.60538
▁보통	-8.60737
석	-8.60902
되	-8.61059
학	-8.61208
▁공	-8.61283
거나	-8.61448
안	-8.61502
▁드릴	-8.61506
▁도착	-8.61996
▁무료	-8.62066
▁드라마	-8.62317
▁배달	-8.62338
▁뭘	-8.6247
았	-8.62695
▁말이	-8.62803
때	-8.62829
▁재	-8.62973
울	-8.63038
▁손님	-8.63228
▁왔	-8.63309
▁운전	-8.63358
▁작은	-8.634
▁그람	-8.63402
다는	-8.63602
였	-8.63752
시면	-8.63827
▁부탁드립니더	-8.63878
▁찍	-8.63968
중	-8.63984
날	-8.64116
▁기가	-8.6415
▁청소	-8.64162
겠습니더	-8.64242
▁드	-8.6442
해도	-8.64622
층에	-8.6467
했던	-8.64806
▁화장실	-8.64883
▁요청	-8.64916
▁맞다	-8.65002
집	-8.65087
▁좋다	-8.65153
▁시에	-8.65158
▁이야기	-8.65211
▁되고	-8.65216
▁피	-8.65421
됩니더	-8.65732
▁대신	-8.65909
행	-8.65914
▁그러	-8.66041
위	-8.66191
▁첨	-8.66226
▁니도	-8.66228
▁않고	-8.66339
▁없는데	-8.66434
▁알려	-8.66585
2	-8.6661
▁기억	-8.66859
브	-8.6693
▁기대	-8.67035
▁중요한	-8.67378
▁위해가	-8.67384
▁경우	-8.67589
코	-8.67617
▁같은디	-8.67685
▁이해	-8.67805
▁생각이	-8.67829
▁되나	-8.68021
▁이건	-8.6803
▁영수증	-8.68295
▁맛있는	-8.68555
▁심	-8.68596
▁저녁에	-8.68679
▁딱	-8.68696
▁벌써	-8.68761
▁않은	-8.68776
회	-8.6889
▁주실	-8.6892
▁쉬	-8.68923
▁받고	-8.68938
▁즈희는	-8.69218
▁남	-8.69365
었어예	-8.69436
▁잔	-8.69512
A	-8.69787
1	-8.70035
▁묵	-8.70127
▁컴퓨터	-8.70158
▁매일	-8.70252
▁여권	-8.70257
▁배우	-8.70639
▁방금	-8.70664
▁가족	-8.70676
▁바까	-8.70697
▁받아	-8.70705
▁해주이소	-8.70719
른	-8.7081
▁팔	-8.70827
▁주문한	-8.70852
▁학교에	-8.70962
시까지	-8.71032
저	-8.71041
▁뒤	-8.71062
▁같십니더	-8.71126
▁그들은	-8.71134
▁번째	-8.71246
▁너거	-8.71292
▁원하는	-8.71402
▁출발	-8.71472
▁뭐가	-8.71954
▁설명	-8.72053
하러	-8.72089
했는데	-8.72153
난	-8.72515
레	-8.72529
두	-8.7261
▁내리	-8.72696
▁나라	-8.73121
간이	-8.73161
▁내용	-8.73392
▁선택	-8.73415
▁거서	-8.73579
▁싶은디	-8.73594
▁대화	-8.73626
▁거로	-8.73935
▁아부지	-8.73992
하실	-8.74169
▁고것	-8.74317
▁보면	-8.74387
심더	-8.74492
▁조	-8.74549
▁아는	-8.74678
크	-8.7474
▁음료	-8.74863
▁일주일	-8.74869
l	-8.74871
▁그때	-8.74921
e	-8.74933
▁보여	-8.75021
▁서	-8.75047
▁매	-8.75178
▁진	-8.75268
었	-8.75318
▁오전	-8.75384
▁먹는	-8.7558
게예	-8.75765
▁경기	-8.75843
이다	-8.75916
다믄	-8.7601
▁먹고	-8.7601
▁카	-8.76138
란	-8.76157
▁써	-8.76182
▁시키	-8.76185
▁카는데	-8.76194
기는	-8.76217
▁말해	-8.76338
주실래예	-8.76476
▁양	-8.76481
등	-8.76516
▁인	-8.76719
통	-8.7673
역	-8.76782
▁저번에	-8.7682
▁나오	-8.76918
▁막	-8.77016
▁같노	-8.77032
▁좋겠다	-8.77041
▁팀	-8.77251
되는	-8.77288
o	-8.77307
▁여는	-8.77413
▁방문	-8.77453
▁했	-8.77459
온	-8.77466
다아이가	-8.77518
▁일본	-8.77897
▁않을	-8.77932
▁마지막	-8.7794
▁우예	-8.77955
▁진행	-8.77977
▁과제	-8.78011
▁새로운	-8.7802
▁은제	-8.78076
▁통	-8.78109
▁됐	-8.78185
▁그렇게	-8.78213
▁마지막으로	-8.78277
▁있노	-8.78288
▁지도	-8.78511
▁그리	-8.78577
▁연	-8.78625
▁맞는	-8.78701
t	-8.78832
약	-8.78886
▁결과	-8.79064
▁매장	-8.79181
▁그게	-8.79339
▁11	-8.79551
▁화	-8.79694
▁죄송한데	-8.79716
▁재밌	-8.79811
▁생각합니더	-8.79839
▁주소	-8.79844
지도	-8.79914
▁요금	-8.79931
루	-8.79981
▁앞	-8.80101
i	-8.80395
▁일정	-8.80466
종	-8.8047
▁실	-8.8055
▁입고	-8.80836
▁나는	-8.81001
5	-8.81077
▁위치	-8.81112
▁갖고	-8.81213
▁하기	-8.81377
▁슨생님	-8.81686
▁묵는	-8.8171
▁노력	-8.81734
▁S	-8.81913
▁운동을	-8.81983
릴	-8.82105
▁15	-8.82308
▁지난	-8.82533
▁나서	-8.82559
▁생각에	-8.82605
▁티켓	-8.8266
▁투어	-8.82712
▁맛이	-8.82767
출	-8.82791
▁건물	-8.83044
▁넣어	-8.83268
▁있습니데이	-8.83272
▁미국	-8.83284
▁소리	-8.83349
이라고	-8.83417
▁좋아	-8.83481
보다는	-8.83622
▁주말	-8.83634
▁숙소	-8.83737
색	-8.83896
▁감	-8.83931
▁것입니더	-8.84045
▁잠만	-8.8422
▁정보	-8.84242
살	-8.84315
▁없습니꺼	-8.84376
▁그래가	-8.84664
▁파	-8.84672
님	-8.84766
m	-8.85014
십니까	-8.8527
▁넘	-8.85331
▁훨	-8.85358
▁개안	-8.85509
▁나와	-8.85554
▁누구	-8.85616
▁빼	-8.85761
겨	-8.85868
▁드가	-8.8587
티	-8.86007
▁기고	-8.86162
▁걸로	-8.86195
형	-8.86234
▁그라	-8.86256
▁추천	-8.86296
체	-8.86409
▁연습	-8.86467
▁오랜만	-8.86523
▁최대한	-8.86541
▁고런	-8.86545
▁묵을	-8.866
▁걸리	-8.86626
▁동	-8.86773
▁진짜로	-8.86994
▁첫	-8.87001
▁들고	-8.87015
생	-8.87141
▁개인	-8.87183
▁않나	-8.87198
하시믄	-8.87407
▁대학	-8.87457
시겠습니꺼	-8.87616
즈	-8.87686
박	-8.87711
▁길이	-8.87829
반	-8.87835
▁갔다	-8.87846
▁않았	-8.87963
연	-8.88003
었습니더	-8.88007
터	-8.88086
▁하노	-8.88086
▁메시지	-8.88132
▁강아지	-8.88132
▁있으	-8.88184
▁이유	-8.88218
▁보기	-8.8822
면서	-8.88338
▁최근에	-8.88371
릿	-8.88546
함	-8.8856
▁윽스로	-8.88696
▁최고	-8.88696
▁병원	-8.88847
라면	-8.88862
▁휴가	-8.88969
▁다르	-8.89034
이라는	-8.89035
▁한데	-8.89135
며	-8.89177
유	-8.89192
▁당연	-8.89217
▁대부분	-8.89264
▁저번	-8.89272
▁치	-8.89337
▁따	-8.89399
▁해서	-8.89471
▁부모님	-8.8977
▁밤에	-8.89851
▁체크인	-8.89894
▁자신	-8.89898
▁추	-8.89933
졌	-8.90054
▁않는	-8.90243
▁신경	-8.90428
▁있지	-8.90555
개월	-8.9059
계	-8.90666
▁도움이	-8.90676
기로	-8.90706
▁단	-8.90805
▁나이	-8.90856
▁신발	-8.90969
▁근처	-8.91138
▁생각해	-8.91179
▁좌석	-8.91189
▁변	-8.91245
▁졸업	-8.91333
▁거를	-8.91519
▁가능합니꺼	-8.91576
▁없어가	-8.91576
▁있십니다	-8.91659
▁돈이	-8.9174
▁생활	-8.9188
준	-8.91902
▁이것	-8.92047
판	-8.92131
▁객실	-8.92191
명이	-8.92192
▁단디	-8.92202
▁한데이	-8.92214
▁좋아하	-8.9227
▁여러분	-8.92286
▁인자	-8.92316
▁세트	-8.92388
▁디자인	-8.92457
▁생각보다	-8.92534
▁둘	-8.92582
▁서울	-8.92628
▁만들어	-8.92727
▁그림	-8.9279
▁침대	-8.92871
▁메일	-8.92883
금	-8.93218
네요	-8.93252
▁됩니데이	-8.93286
▁아무래도	-8.93328
▁모르	-8.93342
▁기를	-8.93391
▁맞아예	-8.93433
혀	-8.93515
매	-8.93562
발	-8.93718
▁절대	-8.9381
▁기회	-8.93916
▁카메라	-8.93922
▁살고	-8.94005
▁추천해	-8.9402
▁색	-8.94124
▁차이	-8.94165
▁도움	-8.94251
▁판매	-8.94312
▁끝나	-8.94432
꽤	-8.9452
▁처리	-8.94535
▁가능하	-8.94656
▁약속	-8.94729
공	-8.95137
▁나올	-8.95168
▁인기	-8.95175
▁모습	-8.95278
▁말씀해	-8.95281
▁날이	-8.95357
▁같은데예	-8.95403
▁학생	-8.95461
데예	-8.95461
▁초	-8.95478
▁깁니꺼	-8.95501
▁프로그램	-8.95594
▁알려주이소	-8.95792
▁있기	-8.95882
▁없데이	-8.96136
▁있으예	-8.96169
▁갔	-8.96309
▁있십니까	-8.96391
▁B	-8.9646
문	-8.96527
료	-8.96733
▁먹을	-8.96851
▁있게	-8.96875
걸	-8.969
이라도	-8.96972
▁드릴까예	-8.96984
▁맥주	-8.97001
▁외	-8.97092
권	-8.97214
▁역	-8.97242
▁행동	-8.97381
&	-8.97564
합니다	-8.97626
입	-8.97919
▁방법이	-8.97973
▁물어보	-8.9812
▁아가	-8.98142
▁축구	-8.98186
있는	-8.98202
▁금방	-8.98206
기도	-8.98237
으니까	-8.9832
▁싶어	-8.98403
▁월요일	-8.98447
▁아래	-8.98482
▁보믄	-8.98637
▁병원에	-8.98643
보고	-8.98772
▁탑승	-8.98796
▁우린	-8.98849
▁행사	-8.98855
볼	-8.98868
▁크기	-8.98915
달러	-8.98944
▁여름	-8.99045
▁영	-8.99086
▁직원	-8.99249
▁끝	-8.99474
▁일은	-8.99482
▁피부	-8.99505
▁그란데	-8.99517
▁아들래미	-8.99584
품	-8.99777
▁한국에서	-8.99818
▁그렇	-8.99855
▁준비해	-8.99938
▁봤	-8.9998
▁촬영	-8.99986
▁가까운	-9.00075
주실	-9.00166
▁카페	-9.00249
▁가자	-9.00293
'	-9.00314
▁파티	-9.00558
▁며칠	-9.00705
▁100	-9.00796
▁잡	-9.00827
▁선	-9.00853
▁결정	-9.00854
▁싸	-9.00888
▁특별	-9.01096
▁중국	-9.01185
▁분이	-9.0126
▁집으로	-9.0135
▁서비스	-9.01351
▁치료	-9.01361
었는데	-9.01379
됐	-9.01551
▁친구들	-9.0156
▁낀데	-9.01608
▁드리	-9.01734
▁좋	-9.01821
▁테니	-9.01906
▁테이	-9.01908
할게예	-9.01915
하는데	-9.01931
▁놀러	-9.01989
▁고기	-9.02123
▁없고	-9.02178
것도	-9.02232
▁제공	-9.02286
▁속	-9.02515
▁했다	-9.02627
▁도착할	-9.02663
드릴게예	-9.02716
학년	-9.02889
▁없나	-9.03007
▁이용할	-9.03104
▁어떻	-9.03193
▁입원	-9.03276
▁쿠폰	-9.03289
▁뭔가	-9.03392
▁고등학교	-9.03443
▁해가꼬	-9.03548
▁신고	-9.0362
▁올해	-9.03633
▁하는지	-9.03738
▁교수님	-9.03776
국	-9.038
▁밖에	-9.03887
▁얼굴	-9.03949
▁있으니까	-9.04036
▁없십니더	-9.04042
▁충분	-9.04054
표	-9.04054
동안	-9.04055
달	-9.04106
뿌	-9.04148
양	-9.0419
쳐	-9.04229
▁말하는	-9.0431
지먼	-9.04311
▁면세점	-9.04422
▁힘든	-9.04509
▁할게예	-9.04558
직	-9.04559
▁학생들	-9.04568
▁챙기	-9.04611
▁효과	-9.04617
감	-9.04653
▁쉽게	-9.04689
▁늘	-9.04716
▁지금까지	-9.04723
▁씨	-9.04842
▁되어	-9.04893
▁곳에	-9.04894
▁별	-9.0502
▁경험	-9.05065
▁눈이	-9.05092
▁지나	-9.05191
▁비싸	-9.05245
▁받았	-9.05258
00	-9.05268
▁안녕하세요	-9.05273
▁긴가예	-9.05292
씨	-9.05297
되어	-9.05434
께예	-9.05484
▁위한	-9.05533
▁행복하	-9.05533
▁은행	-9.05542
업	-9.05661
돼	-9.05907
▁마사지	-9.05944
▁죄송합니데이	-9.0595
▁오른쪽	-9.06042
▁위	-9.06145
다니	-9.06213
▁아프	-9.06215
▁알리	-9.06278
▁들가	-9.06295
시부터	-9.06389
▁고래	-9.06422
s	-9.06578
▁키	-9.06591
▁때문입니더	-9.06621
▁그랬	-9.06629
보이소	-9.06649
▁아니라	-9.06698
▁거리	-9.06751
3	-9.06894
▁주는	-9.07086
▁때까지	-9.07262
었다	-9.07285
▁타야	-9.07285
일에	-9.07303
▁나왔	-9.0731
시는	-9.07379
▁불러	-9.07384
▁스트레스	-9.07385
피	-9.07539
류	-9.0762
▁치킨	-9.07645
▁벌	-9.07677
죠	-9.07715
하시	-9.07715
친	-9.07723
▁끝나고	-9.07803
▁느끼	-9.0787
▁앉아	-9.0787
▁C	-9.07887
▁으케	-9.0799
하다	-9.0807
호선	-9.0811
▁걱정하지	-9.08148
▁돌아가	-9.08229
▁피자	-9.08258
▁계	-9.08498
▁마음이	-9.08566
▁주차	-9.08639
▁덕분에	-9.08669
▁활동	-9.08669
▁잠깐	-9.08672
▁좋아합니더	-9.0877
▁받은	-9.08821
조	-9.08841
▁금액	-9.08882
▁관심	-9.08885
▁당	-9.08893
▁이사	-9.09311
▁쓰는	-9.09313
▁찾을	-9.09362
래이	-9.0939
▁마음	-9.09603
▁금	-9.09658
▁싶은데예	-9.09742
▁있어서	-9.09857
▁자리가	-9.09931
▁기분	-9.09956
▁대로	-9.10011
▁만들	-9.10019
▁알아	-9.10069
▁접수	-9.10097
▁다리	-9.10179
▁그라면	-9.10183
▁빌리	-9.10223
거든예	-9.10226
▁고민	-9.10419
하노	-9.10469
▁정말	-9.10798
▁제품은	-9.10831
▁싶	-9.10912
재	-9.10967
▁어무이	-9.11009
▁테니까	-9.11149
파	-9.11187
▁보이소	-9.11207
▁자기	-9.11257
▁냄새	-9.11471
▁케이크	-9.11471
▁목표	-9.11482
▁필요합니더	-9.11697
▁않습니더	-9.11703
니데이	-9.11805
▁되믄	-9.12085
▁다양한	-9.12185
▁마음에	-9.12201
▁끼	-9.12218
▁주변	-9.12282
▁영상	-9.12289
▁분명	-9.12292
했을	-9.12391
분이	-9.12549
▁상황	-9.12612
셔야	-9.12775
배	-9.12804
입니다	-9.12822
▁환승	-9.12881
d	-9.12898
▁통화	-9.12938
본	-9.13002
▁여자친구	-9.13098
▁부분	-9.13198
▁남편	-9.13297
한다	-9.13366
▁작품	-9.13405
▁이게	-9.13449
▁방이	-9.13531
키	-9.13535
▁찾으	-9.13612
▁같	-9.13621
▁뭡니꺼	-9.13626
▁추가로	-9.13628
▁발표	-9.13648
▁삶	-9.13686
▁잠시	-9.13691
잖아예	-9.13719
8	-9.13842
▁영어로	-9.13947
▁행복	-9.13997
드릴	-9.14087
▁있다꼬	-9.14125
▁노	-9.14167
▁타는	-9.14324
M	-9.14334
▁자꾸	-9.14366
▁와가	-9.14395
▁꽃	-9.14437
겠다	-9.14508
려고	-9.14724
믄서	-9.14811
▁고객	-9.14836
▁깨	-9.14866
▁퇴근	-9.14878
S	-9.14903
겠	-9.15029
고예	-9.15074
▁근디	-9.15124
▁올라가	-9.15157
▁출구	-9.15245
▁좋지	-9.15363
▁그가	-9.15471
▁있네예	-9.15629
▁생	-9.15691
▁파는	-9.15699
▁비가	-9.15754
▁화장품	-9.15835
▁닌테	-9.15841
▁발생	-9.15855
셔서	-9.15867
▁나중에	-9.15876
습니까	-9.15905
력	-9.16021
▁감기	-9.163
▁빵	-9.16309
▁실수	-9.16329
▁동아리	-9.16404
▁준	-9.16415
겄	-9.16489
▁꺼	-9.16646
▁아나	-9.1668
▁요런	-9.16696
하시고	-9.16758
▁있도록	-9.16792
▁있었습니더	-9.16797
케	-9.1681
▁현금	-9.17027
▁오이소	-9.17145
▁카드로	-9.17386
C	-9.17406
▁댕기	-9.17605
겠네예	-9.17629
▁가기	-9.17828
▁역시	-9.17856
▁합니다	-9.17876
▁받는	-9.1789
▁그걸	-9.17929
-	-9.18079
▁아빠	-9.18107
▁많아예	-9.18213
▁이유가	-9.18244
▁달에	-9.18298
▁걸어	-9.18305
든데	-9.18342
▁대해가	-9.18507
▁걸릴	-9.18594
▁남자친구	-9.18701
▁금요일	-9.18784
하시는	-9.18831
▁느	-9.1884
▁출근	-9.18845
▁우리나라	-9.18856
▁입학	-9.18862
쯤	-9.18894
했십니더	-9.18917
▁질	-9.18942
▁직장	-9.18953
만큼	-9.19021
▁필요하	-9.19143
▁으	-9.1922
▁가들	-9.1925
▁많아가	-9.19377
▁나도	-9.19564
▁재료	-9.19632
▁서류	-9.19638
드리	-9.19712
▁누	-9.19714
받	-9.19843
▁없네예	-9.19981
▁소스	-9.20003
거리	-9.2003
▁재미있	-9.20173
어야	-9.20253
▁싫어	-9.20298
락	-9.2034
▁제품이	-9.20354
▁관람	-9.2038
▁만난	-9.2041
▁만든	-9.20427
올	-9.2046
▁인기가	-9.20478
▁무엇	-9.20485
원이	-9.2055
▁풀	-9.20581
▁건가예	-9.20584
▁대학교	-9.206
▁끼라예	-9.20604
▁예전에	-9.20647
▁겨울	-9.20697
▁친	-9.20729
▁마시고	-9.20887
봐도	-9.20945
▁택배	-9.21091
▁도대체	-9.21162
▁두고	-9.21249
▁샀는데	-9.21353
D	-9.21373
▁토요일	-9.21441
하겠습니더	-9.21637
▁그사람	-9.21651
▁보냈	-9.21794
시야	-9.21832
하시면	-9.21855
▁바다	-9.21868
▁감사	-9.21886
▁많다	-9.21887
▁하루에	-9.21924
▁염색	-9.21948
▁관광	-9.22131
▁하이소	-9.22314
▁있어	-9.22406
▁커	-9.22467
할라꼬	-9.22508
▁도시	-9.22509
▁건데	-9.22674
▁놓	-9.22714
▁다이어트	-9.22746
겠십니더	-9.22809
▁할지	-9.22895
▁레스토랑	-9.22907
▁있다고	-9.22978
▁때마다	-9.23113
▁수학	-9.23123
▁그룹	-9.23166
던데	-9.2319
▁거가	-9.23267
불	-9.23351
웠	-9.23389
경	-9.23413
플	-9.23444
▁목	-9.23467
▁좋습니더	-9.23646
▁지각	-9.23693
▁의사	-9.23724
▁일반	-9.23727
▁예매	-9.23728
냥	-9.23741
▁호	-9.23867
x	-9.24013
급	-9.24265
▁비용	-9.24303
▁당장	-9.24404
▁포	-9.24496
▁기계	-9.24551
▁관리	-9.24885
▁있지만	-9.24928
▁경	-9.24992
▁왔어예	-9.2507
복	-9.25093
▁쇼핑	-9.25148
▁50	-9.25159
▁지갑	-9.25192
▁취미	-9.25192
▁있습니까	-9.25209
는데예	-9.25236
▁각	-9.25269
▁작	-9.25279
시고	-9.25422
칠	-9.25541
▁세계	-9.25605
▁마라	-9.25741
▁오후에	-9.25767
▁김	-9.25786
씩	-9.25842
됩니꺼	-9.25851
▁햄버거	-9.25973
▁가능한가	-9.26027
▁위에	-9.26036
n	-9.26239
했데이	-9.26397
▁하나도	-9.26413
▁왔는데	-9.26559
싰	-9.26645
▁바꿀	-9.2671
▁관련	-9.26743
▁직업	-9.26806
▁치즈	-9.2682
▁싶지	-9.26956
▁특별한	-9.27123
▁코스	-9.27194
▁했는디	-9.27314
영	-9.27324
▁갑니더	-9.27339
어가	-9.27472
▁아닌	-9.27556
▁보낼	-9.27633
▁일어나	-9.27634
▁성함	-9.27673
했는디	-9.2772
작	-9.27764
▁디	-9.27864
▁통해	-9.27926
셔도	-9.27976
▁괜찮	-9.28025
P	-9.28048
▁사용할	-9.28086
▁40	-9.28113
▁인터넷	-9.28118
왔	-9.28121
▁만큼	-9.28325
▁연기	-9.28351
▁없었	-9.2839
▁만났	-9.28414
▁특히	-9.28569
▁제발	-9.28644
▁M	-9.28701
▁올리	-9.28723
법	-9.28878
셨어예	-9.28879
▁긴데	-9.2889
▁수영	-9.2889
토	-9.28903
▁월요일에	-9.28956
▁어렵	-9.28978
▁드시	-9.28983
▁아마도	-9.29007
▁우리의	-9.29027
이라가꼬	-9.29202
▁있다는	-9.29213
▁포장해	-9.29271
씬	-9.29312
▁듣고	-9.29313
▁깁니까	-9.29313
▁회사에	-9.29329
▁느무	-9.29337
▁내야	-9.29415
해주	-9.29417
▁낫	-9.29473
7	-9.29525
▁긋	-9.29614
▁있어야	-9.29658
림	-9.29661
▁아이다	-9.29677
▁의미	-9.29799
▁지원	-9.29819
▁되었	-9.2985
c	-9.29877
▁사랑하는	-9.29911
▁이렇게	-9.30166
▁갖다	-9.30204
▁들었	-9.30216
▁맞나	-9.30286
▁예정입니더	-9.30308
▁되는데	-9.30378
▁만	-9.30513
런	-9.30695
r	-9.30769
말	-9.30813
4	-9.30837
▁식	-9.30927
▁그여자	-9.31031
▁도와	-9.31082
▁드립니더	-9.31086
량	-9.31102
▁있었다	-9.31233
해스	-9.31421
▁아무리	-9.31422
▁해주	-9.31423
쓰	-9.31429
▁검사	-9.31493
세예	-9.31538
▁그런데	-9.31739
▁주변에	-9.31808
▁남은	-9.31841
▁바랍니데이	-9.31906
포	-9.31908
▁사야	-9.32027
▁앱	-9.32046
▁많아가꼬	-9.32057
임	-9.32238
▁아이고	-9.3225
다카이	-9.32322
▁골	-9.32408
▁관심이	-9.32532
및	-9.32769
▁신용카드	-9.3277
▁업무	-9.3277
▁질문	-9.32786
▁그럴	-9.3281
▁내년에	-9.32815
▁순	-9.32817
▁웃	-9.3287
▁나갈	-9.32909
▁쭉	-9.32976
되었	-9.33266
편	-9.33289
책	-9.33313
▁오면	-9.33314
▁거라	-9.33321
블	-9.33333
▁보니까	-9.33359
▁맡	-9.33414
▁났	-9.33461
▁자세	-9.33548
태	-9.33579
▁휴대폰	-9.33652
▁자전거	-9.33653
▁고양이	-9.33658
▁결국	-9.33662
봤	-9.33974
▁맘	-9.33981
▁가도	-9.33984
▁사과	-9.34034
0	-9.34037
하네예	-9.3404
▁없어	-9.34251
▁그래가꼬	-9.34275
▁문의	-9.34468
▁살아	-9.34473
▁문자	-9.34516
▁정확히	-9.34543
월에	-9.34557
▁담배	-9.34572
▁해외	-9.3458
▁마시	-9.34602
▁방에	-9.34641
▁고장	-9.34742
▁술을	-9.34794
였습니더	-9.34819
▁남아	-9.34833
▁순간	-9.34841
▁스타일	-9.34882
으니	-9.34899
▁가시믄	-9.3494
병	-9.34955
▁알려주	-9.34988
원입니더	-9.34993
▁고마	-9.35002
▁직원이	-9.35008
▁인생	-9.3507
▁없어가꼬	-9.35124
▁내일은	-9.3515
▁코	-9.35167
끼다	-9.35271
▁되나예	-9.35278
▁성적	-9.3541
▁전혀	-9.35543
▁그래예	-9.35592
▁편지	-9.35679
▁수영장	-9.357
▁친구들이랑	-9.35704
y	-9.35727
근	-9.35817
▁회의	-9.35842
▁복	-9.35961
▁소식	-9.35998
▁병	-9.36055
▁내리가	-9.36066
▁몰랐	-9.3615
주세요	-9.36187
▁보이는	-9.36237
▁작성	-9.36249
▁몸이	-9.36349
▁셔틀뻐스	-9.36349
▁찾는	-9.36349
kg	-9.36354
▁바쁘	-9.36354
▁이쁘	-9.36392
▁정리	-9.36442
▁과일	-9.3658
기에	-9.36688
▁뜨	-9.36691
▁몰	-9.36761
증	-9.36773
▁기간	-9.37
이면	-9.37169
▁체	-9.37326
▁예약이	-9.37355
▁알겠습니더	-9.37365
시길	-9.37401
▁있으니	-9.37401
▁법	-9.37668
▁외국	-9.37804
▁저기	-9.37842
민	-9.37846
▁포함	-9.37852
▁색상	-9.37856
▁평소에	-9.37936
설	-9.37947
추	-9.37974
I	-9.38014
▁와인	-9.38027
▁이동	-9.38033
▁죽	-9.38033
▁성	-9.38033
들의	-9.38077
덜이	-9.38082
▁알았	-9.38104
라스	-9.38116
한데이	-9.38173
▁요새	-9.38237
▁좋겠습니더	-9.38262
▁않는다	-9.38325
▁겁나	-9.38326
▁봐야	-9.38362
▁행복한	-9.38508
아주	-9.3869
▁돼	-9.3899
아예	-9.39037
▁맘에	-9.39051
▁종	-9.39077
▁합니까	-9.39095
▁디저트	-9.39121
▁샐러드	-9.39121
▁수화물	-9.39122
▁중입니더	-9.39132
▁고맙데이	-9.39231
▁잘몬	-9.39251
▁인사	-9.39258
▁호텔에	-9.39258
▁고냥	-9.39279
▁자고	-9.39299
▁확인하고	-9.39411
▁공항에	-9.39415
중에	-9.3942
▁번도	-9.39425
인실	-9.39604
▁봤는데	-9.39605
▁거지예	-9.3961
▁상태	-9.39652
▁왼쪽	-9.39685
▁토요일에	-9.39726
▁방으로	-9.39744
▁바지	-9.39783
▁느낌이	-9.39813
▁왔습니더	-9.39853
▁생각에는	-9.399
겁니더	-9.39973
스트	-9.3998
▁수수료	-9.40063
▁전화번호	-9.40094
▁24	-9.40171
▁생기	-9.40195
▁마음을	-9.40286
▁때매	-9.40312
▁담에	-9.40369
▁난주	-9.40443
하이	-9.40608
▁되지	-9.40724
▁음	-9.40753
▁되가	-9.40756
갔	-9.40765
▁쪽	-9.40855
었데이	-9.4087
▁금요일에	-9.40955
▁예약하고	-9.40999
▁발송	-9.4102
▁출장	-9.41109
▁각자	-9.4112
▁좋데이	-9.41257
▁있었어예	-9.41268
▁요래	-9.41395
끼	-9.41501
▁다니	-9.41614
겠어예	-9.4164
▁부분이	-9.41791
▁거고	-9.41806
단다	-9.41942
▁체크아웃	-9.41971
▁확실히	-9.41971
▁꾸준	-9.41981
▁자동차	-9.41985
자가	-9.41995
▁맻	-9.42023
▁것보다	-9.4213
▁참고	-9.42172
▁친구를	-9.42192
가꼬예	-9.42197
▁궁금한	-9.42224
▁가따	-9.42237
▁위해서	-9.42372
▁예상	-9.42546
▁해결	-9.42579
▁국	-9.42659
▁어린이	-9.42768
▁있지예	-9.42775
▁집중	-9.42886
레이	-9.42891
곤	-9.42921
▁샘플	-9.4294
▁콘서트	-9.4294
▁모델	-9.42943
▁끝났	-9.4295
▁좋겠데이	-9.4304
▁예정	-9.43103
▁하시	-9.43151
▁뭐꼬	-9.43307
▁현금으로	-9.4333
▁일로	-9.43359
▁가수	-9.43363
▁도와주	-9.4352
▁높은	-9.43918
▁됩니까	-9.43918
랫	-9.43918
겠노	-9.43943
▁때문이라예	-9.43986
하셔야	-9.44007
이라서	-9.44141
▁모르겠다	-9.44203
▁받으	-9.44476
▁여름에	-9.44647
▁증	-9.44708
▁비싼	-9.44714
▁했던	-9.44842
▁일요일	-9.44872
츠	-9.44905
/	-9.44905
되가	-9.44919
▁중에서	-9.44972
▁긴	-9.45082
▁허리	-9.45135
▁무러	-9.45273
▁이메일	-9.45457
▁참여	-9.4549
▁거기	-9.45761
습	-9.45807
▁요것	-9.45817
▁보험	-9.45896
▁에어컨	-9.45903
▁어때예	-9.45903
▁돌	-9.45966
▁언제쯤	-9.45968
▁것처럼	-9.45999
▁전시	-9.46013
▁즐겁게	-9.4604
▁보관	-9.46055
▁느낌	-9.46167
▁말한	-9.46212
▁입장	-9.46294
▁이야기를	-9.46301
▁머	-9.46309
▁해줄	-9.46401
▁즉	-9.46418
▁가스	-9.46507
▁지역	-9.46578
▁귀	-9.46584
렸	-9.4662
▁연락해	-9.46755
리가	-9.46829
▁듣는	-9.4691
▁을마	-9.46916
▁박	-9.46928
▁재고	-9.46942
▁우유	-9.46953
▁공원	-9.46999
O	-9.47015
▁똑같	-9.47024
▁운영	-9.47259
▁돼예	-9.47264
야겠다	-9.47328
▁이리	-9.47338
▁아입니더	-9.47412
▁고맙다	-9.47432
▁위험	-9.47454
놓	-9.47591
▁T	-9.47632
▁D	-9.47638
▁갈라꼬	-9.47658
▁대기	-9.47829
▁진료	-9.47834
▁싶다	-9.4785
겠지만	-9.47915
▁이벤트	-9.47928
▁콜라	-9.48059
리고	-9.48251
▁갈라믄	-9.48313
만한	-9.48413
▁관계	-9.48521
▁드릴께예	-9.4858
▁된데이	-9.48581
강	-9.48726
▁천	-9.48747
▁아픈	-9.48788
▁확인해보	-9.48861
▁답변	-9.48958
▁춤	-9.49231
▁떠나	-9.49362
▁앞에서	-9.49495
▁일부	-9.49512
층으로	-9.49554
▁되예	-9.49663
적이	-9.49695
립니꺼	-9.49734
이데이	-9.49755
▁말이다	-9.49756
시가	-9.49806
절	-9.49811
▁울	-9.49815
▁상관없	-9.49876
▁주문하	-9.49984
▁인천	-9.50014
▁요거	-9.50019
▁근	-9.50052
▁정류장	-9.50113
p	-9.50168
▁오믄	-9.50282
▁주고	-9.50348
▁너	-9.50473
▁그라는데	-9.50534
▁추억	-9.50545
겄어예	-9.50729
▁천천히	-9.5075
▁여가	-9.50804
▁갸	-9.50855
▁조심	-9.50862
▁구경	-9.50918
▁테이블	-9.50992
▁계시	-9.51005
▁생각하는	-9.51016
▁분위기	-9.51046
▁가이드	-9.51052
목	-9.511
▁요금이	-9.51104
▁생긴	-9.51109
▁고때	-9.51121
▁진심으로	-9.51149
천	-9.51163
▁개안타	-9.51218
주시겠어예	-9.51255
▁기다려	-9.51264
▁전화해	-9.5128
▁점이	-9.51284
액	-9.51374
▁예약한	-9.51455
▁P	-9.51555
▁만나는	-9.51632
라가꼬	-9.51673
▁문화	-9.51688
길래	-9.51705
짝	-9.51727
▁백화점	-9.518
▁간다	-9.51849
▁먹어	-9.5186
▁와서	-9.51878
▁급	-9.52
립니더	-9.52017
▁읽어	-9.52106
▁정확한	-9.52106
▁멋진	-9.52107
▁축제	-9.52108
▁보낸	-9.52124
▁그날	-9.52156
▁결	-9.5217
▁시계	-9.52187
u	-9.52256
▁제작	-9.52265
▁지키	-9.52266
라카면	-9.52356
삐	-9.52372
어가꼬	-9.52385
▁슨생님이	-9.5239
▁쓰고	-9.52401
▁수정	-9.52443
▁아인	-9.52511
일이	-9.5255
▁폰	-9.52552
리는	-9.52553
▁달라	-9.52599
이라꼬	-9.52614
능	-9.52742
▁시내	-9.52838
▁외국인	-9.52849
럽	-9.52929
▁절	-9.53123
라서	-9.53137
▁잊지	-9.53179
▁늦어	-9.53182
▁바꿔	-9.53182
▁방송	-9.53198
▁상담	-9.53199
▁잘하는	-9.53202
▁생각하고	-9.53211
▁해당	-9.53215
▁일요일에	-9.53225
▁글케	-9.53226
세요	-9.53317
T	-9.53376
▁보내주이소	-9.53405
▁기라	-9.53454
▁깊	-9.53534
▁L	-9.53576
▁사이	-9.53584
▁정도로	-9.53622
▁토	-9.53674
▁한국어	-9.53718
까지는	-9.53772
지고	-9.53791
▁타믄	-9.53942
닐	-9.53953
▁빠지	-9.53969
▁우리한테	-9.5397
▁충전	-9.5399
▁불편하	-9.54016
▁거라예	-9.54041
▁똑같은	-9.54141
주고	-9.54147
▁교	-9.54224
닥	-9.54226
▁거짓말	-9.54255
▁어쩔	-9.54263
▁설치	-9.54298
▁좋을까예	-9.54454
▁없으	-9.54576
▁분실	-9.54578
▁있으이	-9.5459
깁니더	-9.54615
▁받	-9.5476
▁박물관	-9.54856
▁'	-9.54933
▁일에	-9.55008
▁동네	-9.5503
▁사람덜	-9.5512
집니더	-9.55145
▁괘안	-9.55294
▁한국인	-9.55344
▁머스마	-9.55359
▁노트북	-9.5536
▁즐거운	-9.55362
자마자	-9.55368
다들	-9.55398
▁자료	-9.55428
되지	-9.55489
주는	-9.55599
▁적용	-9.55688
▁예약할	-9.55721
▁보내고	-9.5586
드만	-9.55914
▁파일	-9.55923
▁갈라	-9.56035
▁있던	-9.56067
▁기사님	-9.56068
▁걸어가	-9.56153
▁애들	-9.56168
▁등록	-9.56223
▁종이	-9.56233
▁사용해	-9.56253
▁않다	-9.56326
▁배송이	-9.56374
▁중요하	-9.56387
힌	-9.56438
▁교통	-9.56481
▁지하	-9.56507
▁답장	-9.56594
잔	-9.5663
▁가입	-9.56672
▁그랄	-9.5669
▁쉬는	-9.56732
▁연락이	-9.56754
드릴께예	-9.56842
으이	-9.57138
속	-9.57154
▁때도	-9.57209
▁잡아	-9.57226
▁있었는데	-9.5723
▁입구	-9.5731
▁돌아	-9.57329
격	-9.57348
▁학교에서	-9.57358
▁가스나	-9.57379
▁불편	-9.57386
▁물론	-9.57478
▁하겠습니더	-9.57494
▁갔어예	-9.57506
해드릴게예	-9.57508
▁안전	-9.57536
▁F	-9.57579
▁엘리베이터	-9.57587
▁으떻	-9.57587
▁대체	-9.57659
▁덜	-9.5772
났	-9.57742
들한테	-9.57753
름	-9.57824
▁최선을	-9.57887
▁말은	-9.57908
전에	-9.57939
▁힘들었	-9.57949
▁금액이	-9.57963
▁기본	-9.58076
▁전달	-9.58104
▁음식점	-9.58138
▁텐데	-9.58196
▁부르	-9.58202
▁요건	-9.58207
▁이름이	-9.58286
▁하러	-9.58322
▁찾아보	-9.58361
▁샀	-9.58465
실래예	-9.58659
슨	-9.5866
▁아이스크림	-9.58721
▁나옵니더	-9.58732
▁표현	-9.58733
,000	-9.5874
▁졸업식	-9.5877
구나	-9.58827
▁즈	-9.58852
▁적어	-9.58883
▁알리주	-9.58897
▁기준	-9.59011
합	-9.59024
▁계신	-9.59073
▁되면	-9.59165
▁수술	-9.59182
▁넣	-9.59196
▁고르	-9.59231
▁죄송한데예	-9.59415
▁아이면	-9.59453
▁물이	-9.59558
장이	-9.59562
▁물어봐	-9.59637
째	-9.59653
염	-9.59779
▁드디어	-9.59867
▁크리스마스	-9.59867
▁버튼	-9.59871
▁맞춰	-9.59873
▁기존	-9.599
▁안됩니더	-9.59906
였어예	-9.59986
▁알게	-9.59989
▁남았	-9.60016
▁버	-9.60082
▁세상	-9.60134
▁있으가	-9.60163
테	-9.60205
너	-9.60292
▁사진이	-9.60357
▁좋았	-9.60378
▁일하고	-9.60479
봐	-9.60529
▁으른	-9.60567
▁타면	-9.6057
▁친구덜	-9.60746
창	-9.60983
z	-9.61025
▁떡볶이	-9.61026
▁챙겨	-9.61026
▁나머지	-9.61026
▁숙제	-9.61027
▁특	-9.61038
▁계단	-9.61067
▁모르는	-9.61116
▁이틀	-9.6117
▁주문했는데	-9.61199
▁베	-9.61222
▁참석	-9.61241
▁그동안	-9.61265
▁명이	-9.61341
▁들었다	-9.61417
채	-9.61557
▁되겠	-9.61598
▁만한	-9.61601
▁힘들어	-9.61613
▁화가	-9.61639
▁일하는	-9.61719
하믄서	-9.6172
셔가	-9.61807
▁환자	-9.61808
▁왔다	-9.61832
▁종일	-9.61965
▁편의점	-9.61987
냐	-9.62052
▁공항에서	-9.62079
▁보일	-9.62094
▁같아가	-9.6212
▁참말로	-9.62199
▁밸로	-9.62203
▁테스트	-9.62203
▁저랑	-9.62206
▁즐기	-9.62208
▁빌릴	-9.6221
▁생선	-9.62238
▁매운	-9.62255
mm	-9.623
▁작업	-9.62382
▁여유	-9.62467
▁손님이	-9.62482
▁생깄	-9.62505
▁회	-9.62564
▁아니믄	-9.62725
▁세일	-9.62748
담	-9.6275
▁주시면	-9.62798
▁않아가	-9.62812
▁머리가	-9.63008
▁삼	-9.63176
▁확인할	-9.63287
전히	-9.63304
w	-9.63317
g	-9.63354
▁신분증	-9.63386
▁억시	-9.63406
▁기다려주이소	-9.63426
한티	-9.63479
▁전공	-9.63517
▁맞습니꺼	-9.63523
었던	-9.63535
▁열차	-9.63553
▁끼라	-9.63579
▁한잔	-9.63652
▁전해	-9.63682
▁이상한	-9.63714
▁안되	-9.63756
▁필리핀에	-9.63817
▁것으로	-9.63841
▁오데	-9.63906
▁연결	-9.63921
편하게	-9.63931
▁물건이	-9.63939
▁말할	-9.64002
▁부모님이	-9.64051
▁장면	-9.64133
드리겠습니더	-9.64134
했습니데이	-9.64202
▁푸	-9.64213
▁수리	-9.64329
▁가한테	-9.64485
충	-9.64494
▁채	-9.64582
▁유럽	-9.64616
▁온다	-9.64682
▁무리	-9.64695
▁찬	-9.64729
▁도서관	-9.6476
▁자세히	-9.64778
▁고생	-9.64882
겄십니더	-9.649
▁없지만	-9.64904
▁생각엔	-9.64935
▁때부터	-9.65
▁친구들이	-9.65005
싶	-9.65209
R	-9.65215
▁부담	-9.65219
9	-9.65237
▁주문할	-9.65419
이네예	-9.65452
▁길에	-9.65555
▁영업	-9.65634
▁빼고	-9.65652
다면	-9.65658
▁샤워	-9.65662
▁성격	-9.65795
▁깁니다	-9.65803
▁짧은	-9.65803
▁찍고	-9.65809
▁의견	-9.65815
▁시청	-9.65839
▁급한	-9.65865
▁알리주이소	-9.65896
▁으데	-9.65906
수록	-9.65911
▁좋겠네예	-9.65953
▁광고	-9.66021
▁좋아한다	-9.66071
들도	-9.66182
▁정도는	-9.6625
▁건지	-9.66253
하면서	-9.66271
▁완료	-9.6639
줄게예	-9.66513
L	-9.66546
베	-9.6656
▁마치	-9.66751
시키	-9.6676
▁보네예	-9.66815
이라스	-9.66922
▁늦을	-9.67034
▁픽업	-9.67034
▁파스타	-9.67045
▁만족	-9.67046
▁휴식	-9.67046
보자	-9.67115
▁힘이	-9.67127
▁전통	-9.67198
▁쫌만	-9.67264
▁화장	-9.67324
▁입을	-9.67341
▁유지	-9.67423
긋	-9.67429
▁주세요	-9.67473
▁끼야	-9.67528
0,000	-9.67582
▁일정이	-9.67617
래예	-9.67639
한다꼬	-9.67665
▁사람한테	-9.67696
어서	-9.67716
▁마실	-9.6773
▁모자	-9.67739
▁이곳	-9.67764
투	-9.67823
▁권	-9.67893
▁상품이	-9.67895
▁옛날	-9.67959
▁속이	-9.67988
▁짜	-9.68044
론	-9.68206
▁근육	-9.68258
▁재미	-9.68267
▁미용실	-9.6828
▁브랜드	-9.6828
▁평	-9.683
▁좋겠어예	-9.68345
▁축하	-9.68354
▁결혼식	-9.68365
▁직	-9.68468
▁세탁	-9.68496
▁안내해	-9.68627
▁발라	-9.68663
▁구매할	-9.68685
용품	-9.68703
▁편이	-9.68712
▁담아	-9.6883
▁책상	-9.68896
▁가가꼬	-9.68952
▁친구한테	-9.69013
E	-9.69069
B	-9.69113
▁리	-9.69114
평	-9.69162
▁이따	-9.6927
▁가능	-9.69305
▁주문하고	-9.69392
릅	-9.69409
탕	-9.69415
▁가족은	-9.69421
했십니다	-9.69464
▁실망	-9.69485
▁고거	-9.69512
버예	-9.6952
▁스포츠	-9.69542
▁초콜릿	-9.69542
▁근무	-9.69568
▁단체	-9.69575
▁그란	-9.69626
▁맴	-9.69652
▁때가	-9.69781
▁응원	-9.698
▁해보	-9.69813
▁음료수	-9.69843
▁박스	-9.69846
▁사장님	-9.69875
▁부산	-9.69908
별	-9.69921
▁인원	-9.69936
립	-9.69953
▁할까예	-9.6999
▁같아	-9.70015
후	-9.7002
▁상처	-9.70065
▁동물	-9.70111
할라	-9.70326
아가	-9.70344
▁중이	-9.70353
▁없어서	-9.70435
▁취	-9.70521
▁친절	-9.70561
▁가기로	-9.70568
끼데이	-9.7057
▁주스	-9.70666
▁침	-9.70737
▁망	-9.70809
▁둘이	-9.70815
▁각각	-9.70829
▁아름다운	-9.70832
▁빠른	-9.70835
▁관해	-9.70879
▁데이트	-9.70889
▁우산	-9.70899
▁골라	-9.70973
▁사용하는	-9.71108
▁꾸	-9.71123
▁제주도	-9.71133
려면	-9.71166
▁하자	-9.71254
▁오신	-9.71274
▁기내	-9.7134
더니	-9.71431
▁오기	-9.71476
각	-9.71529
▁한다는	-9.71531
▁한다꼬	-9.71581
▁싶었	-9.71605
▁소개	-9.71645
▁좋아하지	-9.7166
▁봐예	-9.71701
▁해라	-9.71776
▁주의	-9.71961
▁여성	-9.71964
▁I	-9.72022
▁쉬고	-9.72061
k	-9.7209
션	-9.7209
▁오지	-9.72092
▁계좌	-9.72112
▁교육	-9.72117
▁항공권	-9.7212
▁어차피	-9.72126
▁철	-9.72146
게요	-9.7216
▁인형	-9.72161
▁원하시는	-9.7219
▁보입니더	-9.72196
분에	-9.7229
이기	-9.72296
▁내려	-9.72326
▁정지	-9.7234
▁공부할	-9.72344
▁나을	-9.72401
▁예전	-9.72423
▁제출	-9.72524
▁성공	-9.72688
▁그릇	-9.72716
▁개안은	-9.72717
겠습니꺼	-9.72724
▁당신에게	-9.72785
짜	-9.72812
▁대해서	-9.72888
▁옷이	-9.72933
초	-9.72976
▁상황이	-9.73018
▁바꾸	-9.73061
▁작동	-9.73125
▁걱정이	-9.73231
▁기사	-9.73285
▁보니	-9.73312
▁개안으	-9.73374
처	-9.73394
링	-9.73423
▁하는데예	-9.73427
니깐	-9.73435
▁과목	-9.73437
▁영국	-9.73451
▁골프	-9.73455
▁다행이네예	-9.7351
이니까	-9.73541
▁잠이	-9.73615
▁들어간	-9.73649
▁받아야	-9.73832
▁와야	-9.73848
하나	-9.73855
▁드리겠습니더	-9.73863
▁트	-9.73869
▁바꾸고	-9.73872
▁탄	-9.7395
▁가이소	-9.73964
▁그렇다	-9.74063
▁암	-9.74076
▁나쁜	-9.74097
▁도착하	-9.74098
▁라	-9.74198
▁약속을	-9.74218
거든	-9.7431
분은	-9.74314
시쯤	-9.74375
▁응	-9.74389
번째	-9.74432
▁사항	-9.74435
하려고	-9.74456
▁위해스	-9.74459
내는	-9.74513
▁검색	-9.74524
라카	-9.74638
찰	-9.74749
▁싫다	-9.74755
▁체험	-9.74755
▁스파	-9.74815
▁일나	-9.74828
곳	-9.74888
▁있심더	-9.7489
▁간단한	-9.74906
▁들었어예	-9.74951
▁당슨에게	-9.74959
▁짓	-9.74988
▁역사	-9.74992
▁회사에서	-9.75009
▁이걸	-9.75039
▁터	-9.75054
▁인상	-9.75057
▁호텔에서	-9.75227
▁묵으	-9.753
뿐	-9.75315
▁차량	-9.75353
▁독	-9.75398
▁만나고	-9.75437
▁아파트	-9.75471
▁18	-9.75483
▁그대로	-9.75564
▁향	-9.75782
▁빠르	-9.75827
찬	-9.75851
주시면	-9.75858
▁슬	-9.75859
▁청	-9.75957
▁스테이크	-9.76101
▁바란데이	-9.76102
▁생겼	-9.76111
▁올라	-9.76128
▁때메	-9.76223
▁싼	-9.76256
▁주신	-9.76257
▁차라	-9.76326
▁포인트	-9.7638
▁아니고	-9.76382
▁없어요	-9.76392
▁중간에	-9.76422
▁H	-9.7646
▁자리에	-9.76587
▁바라	-9.76632
▁하니까	-9.76639
▁얘기해	-9.76708
▁하실	-9.76767
제이	-9.76809
겠네	-9.77091
▁도착했	-9.77121
▁아내	-9.77138
▁공부하는	-9.77167
▁남는	-9.77232
열	-9.77242
▁떠	-9.77244
▁소리가	-9.77276
▁언니	-9.77354
▁편하	-9.77364
▁배우고	-9.77384
▁보자	-9.77412
습니다	-9.77417
▁동생	-9.77432
▁안녕하십니꺼	-9.77467
▁알레르기	-9.77467
▁면접	-9.77468
▁커플	-9.77484
겠제	-9.77507
▁허	-9.7756
▁있다믄	-9.77691
▁후회	-9.77711
▁많으	-9.77752
▁오고	-9.77808
쪽	-9.7785
해드릴까예	-9.77879
했심더	-9.77907
▁되는지	-9.77928
▁가보	-9.78004
▁열어	-9.78012
시나예	-9.78021
▁오전에	-9.78023
기고	-9.78065
▁반납	-9.78089
▁것들	-9.78135
▁개안을	-9.78174
▁아니면	-9.78235
▁수건	-9.78238
▁집이	-9.78243
▁겨울에	-9.78287
▁여자가	-9.78312
▁하게	-9.78313
하여	-9.78399
글	-9.78401
▁입금	-9.78402
▁많았	-9.78529
▁가는데	-9.78615
할라믄	-9.78672
▁했데이	-9.78682
▁담당	-9.78684
축	-9.78713
라꼬예	-9.78765
시지예	-9.78771
▁번째로	-9.78777
▁거에	-9.78785
▁말아	-9.78834
▁찾기	-9.78851
▁지곰	-9.78866
▁미팅	-9.78869
▁느그	-9.78888
▁입국	-9.78907
▁맹들어	-9.78937
▁자유	-9.78945
▁향수	-9.78961
▁생각한다	-9.78984
▁어릴	-9.79007
▁즈히	-9.79032
▁얼라	-9.79097
▁화요일	-9.79114
▁빠	-9.79141
▁방법은	-9.79338
▁입어보	-9.79447
▁고맙	-9.79477
▁있었데이	-9.79493
쿠	-9.79548
▁소개해	-9.79571
▁뭔지	-9.79583
▁어울리는	-9.79626
▁당일	-9.79656
▁와가꼬	-9.79699
▁필리핀	-9.79747
스러운	-9.79801
▁제품으로	-9.79835
▁방해	-9.79898
▁모습이	-9.79927
든디	-9.80053
▁않으	-9.80059
▁맹	-9.80068
▁경기장	-9.80075
▁까	-9.80106
b	-9.80122
▁낍니다	-9.80254
▁스케줄	-9.80254
빛	-9.80254
칬	-9.80254
▁원피스	-9.80254
▁나눠	-9.80255
in	-9.80257
▁아닙니더	-9.80265
▁살이	-9.80267
▁야채	-9.8031
▁자체	-9.80354
▁장난감	-9.80363
▁약간	-9.80416
▁약속이	-9.80431
▁급하게	-9.80431
h	-9.80495
▁예약했는데	-9.8057
▁들리	-9.80587
▁없으면	-9.80686
▁R	-9.80711
밥	-9.80828
▁그러나	-9.80862
시예	-9.809
▁퍼	-9.80968
친한	-9.81045
▁매주	-9.81206
나요	-9.81211
▁있으신가	-9.81342
▁주차장	-9.81386
▁얼굴이	-9.81393
▁할라꼬	-9.81411
▁점수	-9.81468
▁지났	-9.81468
▁마을	-9.81486
▁마리	-9.81556
▁방학	-9.8159
er	-9.81605
읐	-9.81611
▁방향	-9.81614
▁어떠	-9.81649
▁딸래미	-9.81678
▁립스틱	-9.81678
▁몸에	-9.81678
▁옮기	-9.81678
쓱	-9.81678
▁비슷한	-9.81678
▁취업	-9.81691
▁예쁜	-9.81699
▁땀	-9.81711
▁메뉴판	-9.81757
▁걸립니더	-9.81765
▁경찰	-9.81858
▁기름	-9.81867
▁입력	-9.81877
▁책임	-9.81883
▁속도	-9.8198
▁서울에	-9.81983
▁수업에	-9.81985
짜리	-9.82004
▁갸덜	-9.82014
▁생각하	-9.82029
▁성인	-9.8205
▁기억에	-9.82067
▁비용이	-9.82089
▁역할	-9.82104
▁작년에	-9.82303
▁싸게	-9.82353
▁적은	-9.82446
▁남아있	-9.82515
▁하나예	-9.8266
했고	-9.82685
▁지하철역	-9.82795
▁메	-9.82841
▁N	-9.82981
십	-9.82983
▁쪽으로	-9.82988
잡	-9.83009
▁회원	-9.83049
▁하겠십니더	-9.83056
▁면세	-9.83071
움	-9.83078
▁장난	-9.83081
▁기도	-9.8311
킹	-9.83121
▁헬스장	-9.83122
▁어저께	-9.83122
▁카카오톡	-9.83122
▁어렸을	-9.83123
▁으떤	-9.83125
▁수표	-9.83126
▁목소리	-9.83127
▁증말	-9.83136
▁여행자	-9.83173
▁고럼	-9.83211
▁가까이	-9.83236
▁G	-9.83244
▁내일부터	-9.83255
▁안좋	-9.83257
▁실제로	-9.83289
▁중국어	-9.83319
▁갔습니더	-9.83334
▁민	-9.83338
▁당신이랑	-9.83341
서예	-9.83383
▁좋은데	-9.8343
▁옛날에	-9.83496
▁만나기	-9.83525
▁과자	-9.83545
▁뜻	-9.83591
▁정거장	-9.83598
▁합	-9.83632
▁라면	-9.8364
▁돌아오	-9.83648
▁색이	-9.837
▁환불이	-9.83756
▁포기	-9.83768
▁곳으로	-9.83845
▁존	-9.83913
▁클	-9.83969
인이	-9.83976
장님	-9.84146
▁가족들	-9.8423
▁편안	-9.84234
▁의자	-9.84237
▁오해	-9.84286
▁온라인	-9.84287
▁들어오	-9.84355
▁정해	-9.84378
▁눈에	-9.84451
▁출발하는	-9.84474
▁룸	-9.8451
▁퇴원	-9.84518
킨	-9.84527
▁대중교통	-9.84587
▁찾았	-9.84587
▁케이팝	-9.84587
▁프로젝트	-9.84587
줐	-9.84587
▁누군가	-9.84587
▁즐길	-9.84588
▁스스로	-9.84592
슴더	-9.84594
F	-9.84598
▁해스	-9.84599
▁둘째	-9.84604
▁맞추	-9.84617
▁좋겠노	-9.84691
▁진정	-9.84694
▁부위	-9.84701
▁온나	-9.84742
▁말씀해주이소	-9.84753
▁개안아예	-9.84761
▁생각한데이	-9.84772
▁간식	-9.84793
▁지불	-9.84822
▁보시믄	-9.84835
란다	-9.84904
▁학기	-9.85016
▁들을	-9.85045
▁실력	-9.85084
든지	-9.85113
▁사이에	-9.85157
▁이용해	-9.85164
▁대회	-9.85213
▁매장에	-9.8522
했나	-9.85403
봐라	-9.85413
▁저에게	-9.85467
▁상자	-9.85471
▁하지예	-9.8548
▁갔을	-9.85505
▁가족이	-9.85564
▁생각해예	-9.85617
▁만에	-9.85629
▁사면	-9.8568
▁발급	-9.85785
▁끝내	-9.85807
청	-9.85812
▁자연	-9.85814
▁가진	-9.85843
▁버리	-9.85856
▁체크	-9.85944
봉	-9.85986
▁초대	-9.86017
묵	-9.86017
▁찾아가	-9.86059
f	-9.86067
▁국내	-9.86117
▁줄이	-9.86132
룸	-9.86152
▁하네예	-9.86155
장에	-9.86159
었을	-9.86177
▁따라서	-9.86196
▁배울	-9.86196
야겠네예	-9.86221
▁밀	-9.86222
드릴까예	-9.86277
▁싶네예	-9.86292
▁강의	-9.86347
▁몰라예	-9.86393
▁좋네예	-9.8643
시로	-9.86506
▁버스	-9.86527
이었다	-9.86578
▁번역	-9.86596
하기로	-9.86605
있었던	-9.86839
해라	-9.87039
▁사회	-9.87099
신가예	-9.87152
록	-9.87193
겠심더	-9.8723
외	-9.87402
인데예	-9.87526
▁쓰레기	-9.87568
렁	-9.87583
▁보여주	-9.8763
돌	-9.87663
▁기다릴	-9.8767
▁파마	-9.8768
▁등산	-9.87682
떡	-9.87684
됩니데이	-9.87691
▁듯	-9.87694
▁되기	-9.87765
▁그라서	-9.87804
▁다닐	-9.8784
▁마감	-9.87916
지어	-9.87925
▁예약해	-9.87942
▁사무실	-9.87943
▁관	-9.8806
▁드리고	-9.88077
▁하셨	-9.88084
시리	-9.88248
▁언제까지	-9.88253
▁하시는	-9.88328
▁같지	-9.88358
▁기다리야	-9.88393
사람	-9.88493
되고	-9.88561
▁사러	-9.88703
▁것이라예	-9.88871
▁전용	-9.88912
%	-9.88937
▁놓고	-9.88993
▁친구와	-9.89051
견	-9.89071
숙	-9.89087
백	-9.8911
▁늦었	-9.89116
▁떨어지	-9.89116
▁얼맙니	-9.89117
▁연극	-9.89127
▁창문	-9.89129
▁계란	-9.89153
▁연락처	-9.89178
맹	-9.89254
▁새우	-9.89254
N	-9.89266
▁이해해	-9.89293
분들	-9.89303
▁멀	-9.89324
▁하나만	-9.89324
▁오늘부터	-9.89326
▁싶노	-9.8933
▁매력	-9.89366
▁상상	-9.89506
▁화장실이	-9.89537
▁언제부터	-9.89565
▁감자	-9.89579
년이	-9.89674
▁보이네예	-9.89794
▁빈	-9.89869
▁승	-9.89904
▁움직이	-9.89917
▁반대	-9.89974
한데	-9.90007
▁모르겠	-9.90017
▁패	-9.90042
▁대단	-9.90072
둘	-9.90096
▁가득	-9.90104
▁키가	-9.90136
▁이후에	-9.90155
▁듣기	-9.90223
▁시까지	-9.90246
▁출국	-9.90299
▁좋고	-9.90304
성이	-9.90417
▁백	-9.90506
▁입어	-9.90534
켓	-9.90658
겟	-9.90663
▁떨어져	-9.90672
▁프랑스	-9.90672
둔	-9.90672
▁교통사고	-9.90673
인분	-9.90694
▁발견	-9.90694
▁야구	-9.90745
▁더욱	-9.90748
▁야근	-9.90753
▁같아요	-9.90814
▁얘기하	-9.90833
▁넘어	-9.90871
▁잠시만	-9.90903
더라	-9.91021
비가	-9.91037
▁심사	-9.91074
▁거라고	-9.91081
▁운동이	-9.91102
▁답	-9.91189
드시	-9.91243
▁조리	-9.9125
▁연예인	-9.91258
▁화면	-9.91383
▁없는디	-9.9139
하겠십니더	-9.91536
하느라	-9.91602
▁끈	-9.91603
▁무게	-9.91605
왕	-9.91687
하다가	-9.91692
잖아	-9.91828
▁저렴	-9.91831
▁연락할	-9.91883
▁육	-9.91913
했으예	-9.91965
▁안에서	-9.91986
▁레	-9.92069
▁설	-9.92071
개를	-9.92074
궁	-9.92253
▁무조건	-9.92253
▁뉴욕	-9.92254
▁간호사	-9.92254
▁TV	-9.92257
▁탈의실	-9.92257
▁어려운	-9.9227
▁빌려	-9.92287
▁해변	-9.92288
▁있겠나	-9.92293
▁미안타	-9.92295
였다	-9.92304
▁이해가	-9.92368
▁소중한	-9.9237
▁알려줄	-9.92388
▁책자	-9.92453
▁없었어예	-9.92486
▁작성해	-9.92505
슬	-9.92509
분만	-9.9257
▁줬	-9.92622
▁다행이	-9.92638
▁없었다	-9.92646
▁독일	-9.92653
▁그들이	-9.92689
▁가시면	-9.92807
▁펜	-9.92818
▁어디	-9.9285
이었어예	-9.92887
▁사람입니더	-9.9289
보는	-9.92913
▁수업이	-9.92918
6	-9.92961
▁남편이	-9.9301
▁들었는데	-9.9302
▁전체	-9.93038
▁외에	-9.93077
▁그르	-9.9309
겠지예	-9.93183
▁주시고	-9.93192
▁코너	-9.93316
▁바르	-9.93373
▁방문해	-9.93447
▁사업	-9.93455
▁일할	-9.93464
▁볼게예	-9.93666
▁빌	-9.93709
졌어예	-9.93756
겼	-9.93849
▁긍정적	-9.9386
▁와이파이	-9.9386
▁우체국	-9.9386
▁계산대	-9.93869
▁어깨	-9.93879
▁기내식	-9.93892
▁마래이	-9.93933
▁하긴	-9.93936
▁살짝	-9.93945
▁타입	-9.93963
▁알겠십니더	-9.93973
▁약국	-9.93974
▁보호자	-9.94032
▁왔는디	-9.94066
▁과	-9.94085
▁보다	-9.94192
▁올려	-9.94193
▁한다고	-9.94214
▁말해주이소	-9.9428
▁상관	-9.94285
▁달라꼬	-9.94314
▁면세점에서	-9.9438
▁상태가	-9.94385
▁맨	-9.9446
▁않네예	-9.94485
▁고라믄	-9.94485
하길	-9.94543
▁받았습니더	-9.9456
▁사이트	-9.94647
▁사용하	-9.9467
대가	-9.94719
▁곳에서	-9.94734
▁굴	-9.94786
▁수프	-9.94856
▁주제	-9.94872
애	-9.94954
들이랑	-9.94957
▁서비스를	-9.94962
▁때문이	-9.9497
▁쪽에	-9.95055
▁있는데예	-9.95075
먼	-9.95132
별로	-9.95153
▁짐이	-9.95208
▁O	-9.95224
▁도전	-9.95367
cm	-9.95441
▁요즘에	-9.95476
딩	-9.95488
▁합격	-9.95501
▁대답	-9.95521
▁중앙	-9.9553
써	-9.95537
▁할머니	-9.95565
▁김치	-9.9559
술	-9.95633
▁봄	-9.95683
▁예능	-9.95707
▁휴일	-9.95745
▁아덜	-9.9578
▁물품	-9.95804
▁시작하	-9.95852
▁창	-9.95863
▁나가는	-9.95882
▁여행용	-9.95901
▁친구들과	-9.95905
▁일주일에	-9.95934
▁도로	-9.95972
▁가능성	-9.95979
번호	-9.96006
▁수납	-9.96025
▁E	-9.96026
▁국가	-9.96051
▁본인	-9.96174
▁갑다	-9.9621
▁무야	-9.96226
▁새벽	-9.96259
▁주시	-9.96266
볼게예	-9.96266
일까지	-9.96286
▁좋아하고	-9.96302
▁알았다	-9.96306
▁풀어	-9.96345
겠십니다	-9.9644
▁가능할까	-9.96504
▁갑	-9.96516
할게요	-9.96555
아가꼬	-9.96619
▁않았다	-9.96634
▁뽑	-9.96636
사가	-9.96675
▁번에	-9.96838
▁물에	-9.96842
▁갖	-9.96862
▁카던데	-9.96871
▁최대	-9.96901
해주세요	-9.96936
▁갑니꺼	-9.97013
▁오빠	-9.97057
팅	-9.97117
▁용기	-9.97144
콘	-9.97152
▁마무리	-9.97153
▁죄송하지먼	-9.97159
▁우찌	-9.97173
▁솔직히	-9.97177
끼라	-9.97232
▁모르겠어예	-9.97246
▁좋아합니데이	-9.9728
▁즌	-9.97368
재이	-9.97375
▁좋겠	-9.97392
▁잘못된	-9.97477
자는	-9.97495
▁이후로	-9.97523
▁제안	-9.97634
겄다	-9.97649
▁19	-9.97712
▁인터넷으로	-9.97754
▁과거	-9.97786
▁드는	-9.97869
▁선수	-9.97879
▁감사하	-9.97907
▁좋게	-9.97934
▁됬	-9.97955
▁학원	-9.97974
수가	-9.9801
할라고	-9.98059
▁접	-9.98123
▁공장	-9.98158
대이	-9.98269
▁과정	-9.98372
▁사무실에	-9.9844
▁아쉽	-9.98525
▁그라는	-9.98576
▁설명해	-9.98687
희	-9.98711
▁아쉬	-9.98742
▁케	-9.98786
▁말해주	-9.98801
▁마침	-9.98833
▁놀았	-9.9884
▁많고	-9.9884
▁뮤지컬	-9.9884
▁중학교	-9.9884
▁페이스북	-9.9884
▁해산물	-9.98841
▁겁니데이	-9.98847
▁해외여행	-9.98847
▁진열	-9.9885
▁얼음	-9.98858
▁계절	-9.9886
▁아이돌	-9.9887
▁지켜	-9.98887
▁배경	-9.98916
해줄	-9.98999
▁대여	-9.99025
▁정류장이	-9.99047
▁않았어예	-9.99059
▁들었습니더	-9.99111
인가	-9.99129
항	-9.99145
되면	-9.99163
▁맵	-9.99298
▁힘	-9.99303
커	-9.99331
줄게	-9.99451
▁없노	-9.9952
▁제품에	-9.99526
▁시장	-9.99581
이었습니더	-9.99619
주셔야	-9.99621
▁먹기	-9.99719
▁인간	-9.99732
▁같았	-9.99785
▁느껴	-9.99804
▁부족	-9.99848
더라고예	-9.99973
▁물을	-10
▁유명하	-10.001
▁복용	-10.0011
▁무면	-10.0018
▁카드라	-10.0025
▁내용이	-10.0027
하자	-10.0033
▁제거	-10.0037
▁집에스	-10.004
▁가게에	-10.0042
▁학	-10.0043
▁팔고	-10.0045
▁을매	-10.005
▁아르바이트	-10.0056
▁훌륭	-10.0056
▁붙이	-10.0056
▁봉사	-10.0056
관한	-10.0058
드린	-10.0059
▁끝난	-10.006
▁겁니까	-10.006
▁적응	-10.0061
▁공유	-10.0061
▁언어	-10.0067
▁들었는디	-10.0069
▁꺼내	-10.007
▁기술	-10.0071
▁개발	-10.0071
▁죄송합니다만	-10.0078
▁마트	-10.008
몬	-10.008
시더	-10.0082
▁감정	-10.0086
▁묵자	-10.0089
값	-10.0101
▁갈게예	-10.0106
현	-10.0107
하시야	-10.0108
알	-10.011
팀	-10.011
▁쉽지	-10.011
겁니꺼	-10.0112
▁할라	-10.0113
▁거다	-10.0114
▁봤다	-10.0117
▁없다꼬	-10.0118
▁봐라	-10.0121
▁맥	-10.0136
▁찍을	-10.015
▁취소하고	-10.0151
▁차로	-10.0153
▁해드리	-10.0154
▁수량	-10.0154
▁재미있는	-10.0154
하지만	-10.0159
▁처음에	-10.0168
▁주문이	-10.0175
▁상황에	-10.0182
▁어린	-10.0187
착	-10.0194
▁익	-10.0198
했었는데	-10.0212
족	-10.0213
▁동의	-10.0226
▁제한	-10.0229
▁흥미	-10.023
▁깜짝	-10.023
▁밴드	-10.023
▁태국	-10.023
▁그카면	-10.0231
▁피곤	-10.0231
▁환경	-10.0231
▁말씀드리	-10.0232
▁소고기	-10.0232
▁머물	-10.0233
▁미술관	-10.0234
▁말씀하시는	-10.0235
했다꼬	-10.0235
▁되가꼬	-10.0248
▁목적지	-10.025
▁내일까지	-10.0252
▁교수님이	-10.0254
▁향이	-10.0257
▁그곳	-10.026
▁않을까예	-10.0265
▁맞습니더	-10.0267
▁많아서	-10.0269
▁빠르게	-10.0269
▁도서관에	-10.0272
▁구성	-10.0287
▁칸	-10.0288
곡	-10.0289
U	-10.029
▁뷔	-10.0293
▁얼	-10.0298
▁이불	-10.0304
▁깎아	-10.0305
▁이해할	-10.0307
▁대신에	-10.031
▁많아	-10.0312
▁중이라예	-10.0314
감이	-10.0315
▁중이라	-10.0315
▁원하	-10.0324
했는지	-10.0326
▁이상이	-10.0329
▁그쪽	-10.0332
력이	-10.0333
▁전부터	-10.0336
▁공간	-10.0341
▁기능	-10.0352
메	-10.0362
어도	-10.0362
▁식당이	-10.0377
▁내릴	-10.0379
▁틀	-10.0382
▁피곤하	-10.0384
▁멀리	-10.0387
▁그거는	-10.0387
▁완전	-10.0394
혈	-10.0397
▁알아보	-10.0401
기다	-10.0402
▁숙박	-10.0404
널	-10.0407
▁조절	-10.0408
▁늦은	-10.0408
▁메이크업	-10.0408
잉	-10.0408
▁많지	-10.0408
▁오렌지	-10.0408
▁홍콩	-10.0408
▁델꼬	-10.0411
▁티비	-10.0413
▁산책	-10.0414
▁중간	-10.0415
원이고	-10.0416
▁반품	-10.0416
▁조식	-10.0418
▁좋십니더	-10.0418
▁도와줄	-10.042
▁관련된	-10.0421
▁자동	-10.0423
▁언제든지	-10.0424
▁신선	-10.0424
쪽으로	-10.0432
가지고	-10.0433
▁뿌	-10.0434
▁좋노	-10.0435
▁투	-10.0439
▁보이까	-10.0446
▁기야	-10.0448
▁말도	-10.0452
▁병실	-10.0454
▁운행	-10.0463
▁않아도	-10.0469
승	-10.0471
갑니더	-10.0472
▁환	-10.0474
▁피해	-10.0487
▁되니까	-10.0497
납니더	-10.0497
▁바뀌	-10.0498
▁인해	-10.0499
기에는	-10.0501
▁알아봐	-10.0501
▁먼	-10.0502
▁찍는	-10.0504
께서	-10.0506
▁출	-10.0507
▁맛있다	-10.0507
▁예쁘	-10.0518
자리	-10.0519
▁보내주	-10.0521
▁땐	-10.0522
▁주방	-10.0556
▁거래	-10.0559
▁끄	-10.056
▁지금부터	-10.0562
▁달라고	-10.0572
텐	-10.0573
▁뒤로	-10.0578
▁이기	-10.0583
한다고	-10.0588
▁믿을	-10.0589
▁파란색	-10.0589
▁가르쳐	-10.0589
▁기숙사	-10.0589
▁중간고사	-10.0589
▁바쁜	-10.059
▁감사합니다	-10.0592
▁달리	-10.0592
▁즐거웠	-10.0594
했기	-10.0595
▁싶습니데이	-10.0595
▁여보세요	-10.0596
▁온천	-10.0597
▁좋겄어예	-10.0597
▁우짜노	-10.0598
▁구두	-10.06
▁있다카이	-10.06
▁들어갈	-10.0603
입니까	-10.0603
▁모르겠네예	-10.0614
▁임	-10.0622
▁맞지예	-10.0627
▁평소	-10.0629
▁않으믄	-10.0631
▁한국서	-10.0634
ra	-10.0637
▁알았는데	-10.0642
실에	-10.0643
쓰요	-10.0644
▁지난주에	-10.0644
▁용	-10.0647
테이	-10.0648
클	-10.0651
▁길로	-10.0651
▁바람	-10.0663
그든예	-10.0668
▁모르겠는데	-10.0671
정도	-10.0672
▁여행이	-10.0674
▁생각하지	-10.0675
▁내년	-10.0675
▁검	-10.0676
일부터	-10.0678
하셨어예	-10.0686
▁비행	-10.0686
▁대학에	-10.0688
기만	-10.0688
▁잘라	-10.069
▁이자	-10.0695
한다는	-10.0705
겠어요	-10.0714
▁뿐이	-10.073
▁재밌는	-10.0738
▁식당에	-10.0743
▁보내줄	-10.0743
▁흔	-10.0744
▁책이	-10.0744
▁할인해	-10.0745
시간이	-10.0745
▁학생이	-10.075
▁먹었	-10.0752
▁중이다	-10.0761
황	-10.077
빡	-10.0772
▁깜빡	-10.0773
▁많을	-10.0773
▁뱅기	-10.0773
▁비타민	-10.0773
▁테레비	-10.0773
▁기말고사	-10.0774
들에게	-10.0774
▁도와드릴게예	-10.0777
▁설정	-10.0778
▁채소	-10.0779
▁가능합니데이	-10.0779
▁환율	-10.078
▁어떨까예	-10.078
▁전번에	-10.078
▁개인적으로	-10.078
▁변화	-10.0781
▁잘하	-10.0782
▁반입	-10.0782
▁기침	-10.0784
▁교회	-10.0789
▁속에	-10.0791
▁어렵습니더	-10.0793
en	-10.0795
▁다치	-10.0796
▁오시	-10.0797
▁지급	-10.0799
▁10,000	-10.0804
▁그라지	-10.0806
▁영화가	-10.0808
▁지난번에	-10.0816
놨	-10.0831
▁없으믄	-10.084
▁도와드리	-10.0841
▁고향	-10.0844
▁원합니더	-10.0845
환	-10.0845
막	-10.0849
맨	-10.085
▁갈래	-10.0864
▁칼	-10.0868
▁만드는	-10.0872
▁금지	-10.0882
▁주인공	-10.0896
진다	-10.0896
▁반지	-10.0903
했으면	-10.0903
▁당신과	-10.0904
▁파이	-10.0908
▁가져가	-10.0909
▁해보고	-10.0912
▁뭐고	-10.092
▁가져	-10.0921
ar	-10.0921
▁고만	-10.0927
▁언제나	-10.0931
▁계약	-10.0932
봐야	-10.0936
▁많은데	-10.0936
▁싫어하는	-10.0943
먹	-10.0944
득	-10.0948
▁괜찮은	-10.0951
▁통해가	-10.0957
▁나옵니	-10.0959
혜	-10.0961
▁봅니더	-10.0961
▁초등학교	-10.0961
걍	-10.0961
▁워낙	-10.0961
▁어덴지	-10.0961
▁차례	-10.0964
▁실례지만	-10.0964
▁동료	-10.0966
▁않았나	-10.0967
▁뻐스로	-10.0973
▁저희	-10.0974
▁발전	-10.0974
▁착용	-10.0976
▁모른다	-10.0976
▁있으니께	-10.098
▁우에	-10.0982
▁1,000	-10.0983
▁방문하	-10.0985
▁않게	-10.0985
al	-10.0988
생활	-10.0989
▁몰라	-10.0991
▁정신이	-10.0992
▁성적이	-10.1
▁추워	-10.1
▁그런지	-10.1001
▁심하게	-10.1002
▁기억이	-10.1002
▁티	-10.1004
▁다친	-10.1012
▁있을까	-10.1013
▁수령	-10.102
드릴게요	-10.1022
기라	-10.1023
▁아니요	-10.1035
찌	-10.1039
▁마치고	-10.1039
벌	-10.1049
됬	-10.105
탄	-10.105
▁드려	-10.1056
▁헤어지	-10.1058
▁가보고	-10.1059
▁봤을	-10.1063
▁납니더	-10.1076
▁주사	-10.1082
▁불가능	-10.1083
▁따라가	-10.1085
▁부족한	-10.1087
▁여동생	-10.1087
이믄	-10.1089
해래이	-10.1097
▁드시고	-10.1098
▁날에	-10.1099
로부터	-10.11
▁다니는	-10.1101
▁노나	-10.1101
만원	-10.1103
▁찍으	-10.1104
▁좋으	-10.1108
▁알려주실	-10.1109
▁사람덜이	-10.1111
▁맡기	-10.1114
그든	-10.1116
▁칭구	-10.1116
▁묵기	-10.1122
▁우짜	-10.1133
퍼	-10.1136
▁좋아가	-10.114
해보이소	-10.1144
▁뛰어	-10.1151
▁xx	-10.1153
들어	-10.1153
▁희망	-10.1153
▁피아노	-10.1153
▁농구	-10.1153
▁다행히	-10.1153
대에	-10.1153
▁쇼핑몰	-10.1153
▁기념품	-10.1154
십니데이	-10.1154
▁얼른	-10.1155
▁있어도	-10.1155
▁평가	-10.1159
▁같습니데이	-10.1159
▁불가능합니더	-10.116
받을	-10.1162
▁여기서	-10.1163
▁실내	-10.1164
▁한국은	-10.1165
▁완전히	-10.1168
▁왔십니더	-10.1168
▁돈으로	-10.1171
졌습니더	-10.1173
되믄	-10.1176
▁운동화	-10.1176
▁국물	-10.1178
▁가시는	-10.1185
▁지하철이	-10.1185
▁되었어예	-10.1185
▁부탁합니더	-10.1193
▁싶을	-10.1194
▁형	-10.1195
긋다	-10.1199
▁있긴	-10.1204
▁가능할	-10.1213
▁돌리	-10.1216
▁있으스	-10.1216
▁점심시간	-10.1221
▁있다면	-10.1226
빠	-10.1226
▁식으로	-10.1227
하니까	-10.1227
▁것만	-10.1233
해드리겠십니더	-10.1237
▁힘들어예	-10.1238
으니께	-10.1243
▁보인다	-10.1243
▁착	-10.1255
▁목요일	-10.1258
▁예정이	-10.1259
▁표시	-10.1263
▁첨부	-10.1271
셨습니더	-10.1274
▁노선	-10.1278
▁선물로	-10.1281
▁긴장	-10.1282
▁한개	-10.1284
▁값	-10.1287
▁실력이	-10.1288
이니	-10.1289
▁적어도	-10.1289
▁모임	-10.1301
▁먹으	-10.1301
린다	-10.1303
▁양이	-10.1319
▁500	-10.1327
▁전까지	-10.1327
▁있을지	-10.1332
on	-10.1334
없	-10.1342
죙	-10.1345
▁미술	-10.1346
▁편리	-10.1348
j	-10.1348
▁많습니더	-10.1348
▁시스템	-10.1348
▁아름답	-10.1348
▁어울릴	-10.1348
▁유통기한	-10.1348
▁읽었	-10.1348
▁그남자	-10.1348
▁프로	-10.1354
▁만나가	-10.1354
▁시각	-10.1354
▁맛난	-10.1355
▁길리	-10.1356
▁됐다	-10.1356
▁들어온	-10.1359
▁영원	-10.1363
▁조회	-10.1364
▁정상	-10.1364
▁같아서	-10.1368
았는데	-10.137
들과	-10.1372
▁불편한	-10.1375
▁맛집	-10.1377
▁연장	-10.1378
▁17	-10.1378
▁일케	-10.1383
▁줘	-10.1392
▁몰겠	-10.1408
▁경험이	-10.1409
▁화장실에	-10.141
▁아입니꺼	-10.1411
▁통증이	-10.1416
▁편한	-10.1418
▁만들었	-10.1431
▁월	-10.1432
▁층	-10.1432
an	-10.1435
망	-10.1437
▁필요할	-10.1438
▁맡아	-10.1439
답	-10.1444
▁가능한데	-10.145
Z	-10.1451
▁업체	-10.1452
▁왔을	-10.1454
▁되네예	-10.1456
▁그기	-10.1457
▁좋아지	-10.1458
▁약이	-10.1463
▁s	-10.1464
겠는데	-10.1468
▁맞아	-10.1468
▁살라꼬	-10.1472
▁모양	-10.1473
▁기간이	-10.1474
▁해드릴게예	-10.1483
▁나오지	-10.1487
▁있었나	-10.149
▁판매대	-10.1492
▁물어볼	-10.1492
▁했나	-10.1492
이까	-10.1499
이란	-10.1501
▁말하지	-10.1501
▁나무	-10.1502
▁같드라	-10.1505
▁할부	-10.1505
▁하다	-10.1507
하십니꺼	-10.1512
▁가져다	-10.1516
▁결제해	-10.1518
▁죄송합니다	-10.1522
re	-10.1528
▁부탁드리	-10.1531
튼	-10.1539
겠나	-10.1543
▁손에	-10.1545
~	-10.1546
▁놀라	-10.1547
▁모듈	-10.1547
▁동영상	-10.1547
▁물리치료	-10.1547
▁배터리	-10.1547
▁헤어	-10.1547
▁귀엽	-10.1547
▁중요합니더	-10.1548
▁대략	-10.1549
▁돌아올	-10.1549
▁조용히	-10.1553
뜨	-10.1554
▁항공사	-10.1555
▁10%	-10.1555
▁싸우	-10.1556
▁세금	-10.1557
▁국제	-10.156
▁건너	-10.156
▁어떠노	-10.156
▁무도	-10.1567
▁예정이라예	-10.1568
▁어두	-10.1569
▁힘드	-10.1573
▁만나서	-10.1574
느라	-10.1574
▁기다리주이소	-10.1581
▁있드라	-10.1583
뿐만	-10.1584
▁을마나	-10.1585
▁갔었	-10.1587
▁동물원	-10.1587
오는	-10.1587
▁방향으로	-10.1589
▁있다이가	-10.1596
▁W	-10.1601
져서	-10.161
▁200	-10.1612
▁25	-10.1623
▁요걸	-10.1629
낼	-10.1634
▁신기하	-10.1638
▁수요일	-10.1643
▁13	-10.1646
▁궁금해	-10.1647
▁되노	-10.1652
역에서	-10.1653
줄래	-10.1658
▁한디	-10.1661
효	-10.1662
▁남기	-10.1663
ow	-10.1664
▁못할	-10.1666
▁반갑	-10.1667
▁보믄서	-10.167
▁가라	-10.1671
▁데가	-10.1674
▁아인데	-10.1679
다카드라	-10.1687
▁아니다	-10.169
▁컵	-10.1691
▁친구들은	-10.1696
▁켜	-10.1699
▁관광지	-10.1703
줘가	-10.1705
느	-10.1713
▁힘들다	-10.1714
▁말했	-10.1717
▁니네	-10.172
▁대해스	-10.172
드렸	-10.1721
▁행복했	-10.1723
▁누르	-10.1723
▁같네	-10.1723
▁못한	-10.1726
했노	-10.1727
▁나은	-10.1734
▁느껴지	-10.1735
▁착각	-10.1745
▁감동	-10.1746
련	-10.1746
렀	-10.1747
렌	-10.175
▁낮에	-10.175
▁무릎	-10.175
▁베트남	-10.175
▁이탈리아	-10.175
▁짧게	-10.175
▁토마토	-10.175
▁스파게티	-10.175
▁평균	-10.175
▁양념	-10.175
▁흰색	-10.175
▁빨간색	-10.1751
▁감독	-10.1751
▁열쇠	-10.1751
▁취직	-10.1752
▁아파	-10.1752
▁사귀	-10.1754
▁오히	-10.1755
줘서	-10.1755
▁실례합니더	-10.1756
납	-10.1757
▁이쁜	-10.1757
▁유명	-10.1761
▁놓치	-10.1763
줬	-10.1774
▁건조	-10.1775
▁자르	-10.1776
▁않십니더	-10.1777
었으면	-10.1784
▁맞제	-10.1784
▁하드라	-10.1785
▁연주	-10.1788
▁가예	-10.1791
▁오시면	-10.1795
▁시설	-10.1798
▁낙	-10.1798
▁됐어예	-10.1812
▁블	-10.182
▁혼자서	-10.1822
줄끼라	-10.1825
▁엄	-10.1826
▁묵었	-10.1827
▁순서	-10.1829
▁알겠십니	-10.1839
▁이메일로	-10.1842
었고	-10.1848
▁칠	-10.1849
▁알아예	-10.1853
▁몰랐다	-10.1858
취	-10.1864
손	-10.1869
받으	-10.187
▁수요일에	-10.1879
여행	-10.1879
▁아이스	-10.1882
같	-10.1889
▁잡고	-10.1892
▁잘하고	-10.1892
▁할인이	-10.1893
드려	-10.1894
▁둘러보	-10.1897
▁단지	-10.19
▁좋겄	-10.1901
▁제게	-10.1903
▁필요하다	-10.191
▁창가	-10.1913
낀데	-10.1916
▁내려가	-10.1924
▁배우는	-10.1925
▁말하고	-10.1932
▁했십니더	-10.1938
▁새해	-10.1943
제품	-10.1944
쯤에	-10.195
▁찌	-10.1954
▁북	-10.1955
▁에스컬레이터	-10.1957
▁휴대전화	-10.1957
▁외출	-10.1962
▁시술	-10.1963
졌다	-10.1967
▁따르	-10.1967
▁건강에	-10.1967
▁매우	-10.1969
▁드이소	-10.1971
▁해볼	-10.1971
밀	-10.1972
▁환전소	-10.1974
▁묵어	-10.1975
말고	-10.1978
▁사용하고	-10.1992
▁가시	-10.1993
▁전기	-10.1996
▁물어	-10.2011
▁졸	-10.2012
▁알아보고	-10.2013
했지만	-10.2035
▁들어예	-10.2039
▁나아	-10.2039
▁편입니더	-10.2053
▁환자분	-10.2053
▁이루	-10.2066
결	-10.2066
▁마련	-10.2067
하니	-10.2068
▁가지다	-10.2072
하입시더	-10.2075
▁말해줄	-10.2077
▁멋있	-10.2079
▁실수로	-10.2083
K	-10.2086
하는지	-10.2088
▁했노	-10.2093
▁무시	-10.2094
▁x	-10.2096
▁곡	-10.2096
▁하이	-10.2101
관이	-10.2108
드리고	-10.2119
▁긴지	-10.212
▁강남	-10.2123
겠다고	-10.2127
▁봤는디	-10.213
▁어서	-10.2136
였데이	-10.2137
시네예	-10.2139
▁오랜	-10.2147
▁바보	-10.2151
▁밝은	-10.2167
v	-10.2169
▁굉장	-10.2169
▁렌터카	-10.2169
▁밖으로	-10.2169
▁할아부지	-10.2169
▁흡연	-10.2169
▁셔츠	-10.2169
▁일어났	-10.2169
▁품절	-10.2169
▁룸서비스	-10.2169
▁텐디	-10.2169
▁극장	-10.217
▁연휴	-10.217
▁정신	-10.217
▁어려울	-10.2171
▁왜냐믄	-10.2174
▁마시는	-10.2174
주시고	-10.2175
▁없을까	-10.2177
▁간격	-10.2177
▁짜증	-10.2179
▁동전	-10.2179
▁적에	-10.2179
▁년	-10.2181
▁경치	-10.2182
▁있으십니꺼	-10.2187
▁여로	-10.2189
▁올게예	-10.219
번에	-10.2191
▁의심	-10.2192
▁기다리는	-10.2194
살이	-10.2195
▁대만	-10.2195
군예	-10.2196
딱	-10.2196
▁좋아해예	-10.2199
허	-10.22
▁아파예	-10.2202
▁생각하노	-10.2202
▁않았습니더	-10.2204
▁가본	-10.2204
▁비자	-10.2205
▁가능한지	-10.2208
▁오르	-10.2209
주신	-10.2219
▁생각도	-10.2222
▁가족이랑	-10.2227
▁도쿄	-10.2227
▁구할	-10.2231
▁갑니데이	-10.224
▁내한티	-10.225
압	-10.2256
하며	-10.2265
아야	-10.2266
▁온도	-10.2267
머	-10.2273
받은	-10.2273
▁작가	-10.2288
▁보네	-10.2294
었습니데이	-10.23
▁개봉	-10.2303
▁끼고	-10.2304
광	-10.2305
▁노력하	-10.2308
▁생기가	-10.2309
욕	-10.231
▁시킬	-10.2313
▁문장	-10.2313
령	-10.2317
▁행복해	-10.2329
▁거니까	-10.235
▁즐겁	-10.2355
▁돼가	-10.2356
▁여까지	-10.2358
하거나	-10.2363
억	-10.2365
▁벨	-10.2365
▁몬하	-10.2367
주면	-10.2368
▁어려	-10.238
앙	-10.238
▁가방이	-10.2381
▁제외	-10.2382
힐	-10.2385
▁놀아	-10.2385
▁딸내미	-10.2385
▁샌드위치	-10.2385
혔	-10.2385
▁스마트폰	-10.2385
▁겨우	-10.2385
▁으뜬	-10.2385
▁글쎄	-10.2386
▁검토	-10.2386
그나	-10.2386
▁출연	-10.2387
▁아이디	-10.2387
▁시즌	-10.2388
▁궁금합니더	-10.239
▁끝날	-10.2391
놓고	-10.2392
▁다릅니더	-10.2393
▁분실물	-10.2393
▁음마	-10.2393
▁우연	-10.2394
▁무믄	-10.2396
▁고걸	-10.2396
▁조건	-10.2399
▁연구	-10.2399
▁우짜지	-10.24
▁봤어예	-10.2408
▁지내는	-10.2409
▁전시회	-10.2411
▁기데이	-10.2415
▁글타	-10.2421
▁필요합니데이	-10.2421
▁분들이	-10.2425
▁사항이	-10.2426
▁규정	-10.2432
▁계획이	-10.2434
▁그라게	-10.2435
▁튀	-10.2436
드라고요	-10.2437
▁거제	-10.244
▁파티에	-10.2441
량이	-10.2451
▁금액은	-10.2454
▁그란지	-10.2454
▁미안	-10.247
더라도	-10.2482
▁써야	-10.2482
▁갔는데	-10.2484
▁고대로	-10.2488
▁가족들이	-10.2489
▁몬해가	-10.2495
▁가까	-10.2499
▁손님들	-10.2501
▁드실	-10.2502
▁들어있	-10.2508
▁보내는	-10.2512
▁분야	-10.2519
▁만들고	-10.2525
▁불이	-10.2526
된다	-10.2529
te	-10.2531
▁맞을	-10.2533
좀	-10.2534
▁시작해	-10.2534
럼	-10.254
▁시부터	-10.2541
▁가치	-10.2544
▁여자친구가	-10.2545
▁식당에서	-10.2548
라니	-10.2549
▁악	-10.2551
▁짝	-10.2552
었는디	-10.2562
▁크림	-10.2562
▁심한	-10.2567
원에	-10.2569
▁살았	-10.2576
하제이	-10.2582
▁들어가는	-10.2585
▁잘해	-10.2588
▁유행	-10.2589
▁들으	-10.2599
▁간단	-10.2604
▁딸이	-10.2606
▁읽는	-10.2606
껏	-10.2606
▁출입	-10.2608
▁아뇨	-10.2608
▁게이트	-10.2608
▁교복	-10.2608
▁판단	-10.2609
해진	-10.2609
▁보호	-10.261
▁적립	-10.261
▁반찬	-10.2611
▁시절	-10.2615
▁스키	-10.2616
▁생길	-10.2618
▁군	-10.2621
▁현실	-10.2621
▁없습니데이	-10.2627
▁차에	-10.2633
이니께	-10.2635
▁홍	-10.2637
▁추천합니더	-10.2638
▁판	-10.2638
조차	-10.264
▁시간표	-10.2643
▁연어	-10.2648
었십니더	-10.2648
았어예	-10.2657
▁현	-10.266
▁미안하다	-10.2666
▁전화로	-10.2666
▁통과	-10.2668
▁존재	-10.2672
▁있다가	-10.2672
▁미국에	-10.2676
▁오셨	-10.2679
▁들어왔	-10.268
▁행	-10.2681
▁색깔	-10.2683
▁왕	-10.2685
▁싶어가	-10.2694
▁중인	-10.2698
사는	-10.27
▁경우에는	-10.2701
해드릴	-10.2703
▁가정	-10.2716
▁보고서	-10.2718
▁대구	-10.2718
▁밖에서	-10.2726
▁개의	-10.2733
▁넣으	-10.2734
▁시험이	-10.2743
인당	-10.2743
▁좋겠는데	-10.2744
▁않데이	-10.2746
▁시켜	-10.275
▁U	-10.2755
▁환불해	-10.2757
▁살라고	-10.276
언	-10.2765
▁말해도	-10.2767
▁부족하	-10.2771
주가	-10.2773
▁빨	-10.2773
니까네	-10.2773
▁홈페이지	-10.2783
할수	-10.2784
▁내부	-10.2796
▁놔	-10.2803
겠데이	-10.2806
▁최소	-10.2807
▁중으로	-10.281
▁쓰여	-10.2815
▁좌석이	-10.2819
극	-10.2825
구로	-10.2828
깄	-10.2831
▁읽고	-10.2832
▁재킷	-10.2832
▁즐겨	-10.2832
▁아메리카노	-10.2832
▁주면	-10.2833
▁무섭	-10.2836
▁입으	-10.2838
▁따른	-10.2839
▁가죽	-10.284
▁어째	-10.2844
▁추석	-10.2845
▁그카니까	-10.2849
▁받으시	-10.2849
▁주문했는디	-10.285
▁0	-10.2852
되었습니더	-10.2852
▁뭇	-10.2854
▁5,000	-10.2854
봤는데	-10.2855
▁추천해주이소	-10.2856
해본	-10.2859
▁가격으로	-10.286
▁않아	-10.2861
▁그렇다면	-10.2864
▁감상	-10.2871
▁이전	-10.2874
나게	-10.2875
▁욕	-10.2877
▁도착하면	-10.2879
▁좋아할	-10.288
▁초과	-10.288
했다고	-10.2881
▁열정	-10.2888
▁난다	-10.2889
활	-10.2894
▁갔데이	-10.2896
▁분들	-10.2902
▁찍었	-10.2905
▁자리로	-10.2914
▁사실은	-10.2923
▁도착하는	-10.2926
▁먹으면	-10.2927
▁폐	-10.2928
보시고	-10.2932
▁하면서	-10.2933
▁열이	-10.2933
▁송금	-10.2939
▁명의	-10.2941
▁움직	-10.2943
랍니꺼	-10.296
▁맛있어	-10.2965
▁괜찮으	-10.2974
▁맛나	-10.2979
▁불편해	-10.2985
누	-10.2989
갑다	-10.299
▁걱정되	-10.299
꾸	-10.2993
W	-10.3001
H	-10.3002
▁번만	-10.3003
▁즌에	-10.3003
▁삐	-10.3004
▁성격이	-10.3011
랄	-10.3013
▁화요일에	-10.302
버리	-10.3021
le	-10.3031
보이	-10.3041
▁돌아오는	-10.3049
▁돌려	-10.3049
▁이름으로	-10.305
▁할라고	-10.3053
10	-10.3055
▁어리	-10.3058
턴	-10.3058
털	-10.3063
▁고렇게	-10.3063
▁바닷가	-10.3063
▁분홍색	-10.3063
▁비스무리	-10.3063
▁완성	-10.3063
▁자유롭게	-10.3063
▁티셔츠	-10.3063
▁힘듭니더	-10.3063
▁설거지	-10.3063
▁기억하	-10.3064
▁좋아하는데	-10.3064
▁드리는	-10.3066
▁교체	-10.3067
▁미안합니데이	-10.3068
▁취향	-10.307
▁작아	-10.307
▁왔데이	-10.307
▁선호	-10.3071
바라	-10.3074
▁지낼	-10.3076
▁얘기할	-10.3077
▁좋았어예	-10.3078
▁알겠다	-10.3079
▁예술	-10.3083
▁한참	-10.3084
▁시작할	-10.3085
▁기록	-10.3086
▁것들이	-10.3088
▁세부	-10.3092
▁공부하고	-10.3093
같이	-10.3097
▁여에	-10.3097
할까	-10.31
감을	-10.3108
년에	-10.311
▁홈페이지에	-10.3114
▁아파서	-10.3115
▁고통	-10.3127
▁프로그램이	-10.3141
▁없으니까	-10.3143
▁피곤해	-10.3145
갑	-10.3146
▁장점	-10.3146
▁쓰지	-10.3147
▁귀찮	-10.3152
▁받았어예	-10.3159
▁싶어서	-10.316
▁그에게	-10.3169
▁공간이	-10.3171
트를	-10.3185
▁그라도	-10.3187
▁페	-10.3195
▁것에	-10.3197
군	-10.3199
▁하시믄	-10.3209
▁받지	-10.321
됐다	-10.3211
▁영어가	-10.3213
▁드렸	-10.3225
▁14	-10.3225
▁나면	-10.3227
▁시간도	-10.3231
▁사람이라예	-10.3231
▁주믄	-10.3235
▁무대	-10.3244
줬습니더	-10.3252
▁날입니더	-10.3253
▁돌아왔	-10.3256
하께예	-10.3261
▁주시기	-10.3262
▁오른쪽에	-10.3265
▁팬	-10.3271
▁연고	-10.3273
▁포기하	-10.3275
객	-10.3277
▁스페인	-10.3287
하네	-10.3292
롭	-10.3295
지요	-10.3297
▁골목	-10.3298
▁아닙니	-10.3298
듬	-10.33
옥	-10.33
찜	-10.33
▁뻐스정류장	-10.33
▁검은색	-10.33
▁저쪽	-10.33
▁실패	-10.3301
▁단순	-10.3301
▁야외	-10.3307
▁어찌	-10.3307
더라꼬예	-10.3313
▁정확하게	-10.3316
▁정문	-10.3317
▁말씀하신	-10.3318
▁모르겠습니더	-10.332
했으믄	-10.3322
▁맞는지	-10.3323
▁어젯밤에	-10.3323
▁알려주시면	-10.3324
▁비용은	-10.3329
▁가려	-10.333
다카면	-10.3331
▁시원한	-10.3336
▁도착한	-10.3337
송	-10.3342
▁얼라덜	-10.3345
▁60	-10.3347
볼까	-10.3359
▁파리	-10.336
▁늦게까지	-10.3361
로운	-10.3363
▁21	-10.3363
▁부분은	-10.3367
▁한복	-10.3373
▁들어와	-10.3386
▁폭	-10.3386
▁넣고	-10.339
▁동생이	-10.3395
▁참가	-10.3395
▁Q	-10.3401
▁J	-10.3408
용으로	-10.3409
▁되었습니더	-10.3413
▁배송비	-10.3416
해보고	-10.342
달라고	-10.3425
▁일본에서	-10.3428
▁필	-10.3431
▁미래	-10.3431
▁나라에서	-10.3437
▁최근	-10.3438
있습니더	-10.344
▁되지예	-10.3441
▁보상	-10.3444
▁목이	-10.3448
▁받았는데	-10.3453
▁가시나	-10.3454
▁이용하시	-10.3456
▁루	-10.346
▁아름다	-10.3468
▁나가야	-10.3471
▁기억나	-10.3473
▁보내드리	-10.3474
▁외국인이	-10.3474
▁운동하는	-10.3474
▁자신을	-10.3478
셔	-10.3481
▁써보	-10.3482
▁기본적	-10.3487
주일	-10.3497
▁억수	-10.3498
▁앞쪽	-10.3498
▁상대	-10.35
▁쉽	-10.3501
▁사라	-10.3522
▁이러	-10.3536
▁떨어졌	-10.3542
:	-10.3542
▁감자튀김	-10.3542
▁바빴	-10.3542
▁스케쥴	-10.3542
▁얻을	-10.3542
▁올림픽	-10.3542
▁인터뷰	-10.3542
▁태어나	-10.3542
헌	-10.3542
▁칭찬	-10.3542
▁느낄	-10.3543
▁왜냐하면	-10.3544
▁배웠	-10.3545
▁상대방	-10.3545
▁시킨	-10.355
셨습니꺼	-10.3551
▁미안합니더	-10.3551
▁방에서	-10.3554
▁신호	-10.3557
▁소화	-10.3559
▁보내드릴게예	-10.3559
끼야	-10.3564
▁보여주이소	-10.3564
▁문구	-10.3565
킬로	-10.3567
▁야간	-10.357
▁처	-10.3574
▁조사	-10.3575
▁문제없	-10.3575
▁전문	-10.3576
▁증상	-10.3576
▁방식	-10.3577
▁뵈	-10.3578
▁빠진	-10.3579
▁없었습니더	-10.3581
▁있었는디	-10.3582
▁개선	-10.3583
▁적혀있	-10.3584
▁사전	-10.3587
▁오게	-10.359
▁궁금하	-10.36
었나	-10.3601
▁누나	-10.3605
▁담주	-10.3607
▁들은	-10.3607
▁막히	-10.3611
믄스	-10.3614
▁쪼	-10.3615
▁23	-10.3618
▁조각	-10.3626
▁잡지	-10.3627
▁그래야	-10.3628
▁좋았을	-10.3629
▁사람에게	-10.3631
▁쳐	-10.3632
▁멀어	-10.3634
▁이후	-10.3635
▁K	-10.3637
▁자신감	-10.3638
▁나믄	-10.3638
집에	-10.364
▁보게	-10.3645
▁아들	-10.3649
▁영향을	-10.3651
▁나스	-10.3651
▁기타	-10.3659
두고	-10.3661
▁해봤	-10.3671
▁안전하	-10.3671
▁지하철역이	-10.3679
▁가질	-10.3685
▁어데가	-10.3685
할까예	-10.3686
▁보이지	-10.3687
▁없어졌	-10.3687
▁밑	-10.369
물이	-10.3691
▁좋아했	-10.3692
▁말로	-10.3693
듯이	-10.3694
▁사라지	-10.3697
▁끌	-10.3698
▁고민이	-10.3699
▁우울	-10.3707
▁필요한데	-10.3712
▁거랑	-10.3713
▁죽을	-10.3717
▁이른	-10.3719
해드립니더	-10.372
▁좋아가꼬	-10.3721
▁알리주시	-10.3735
▁한식	-10.3739
남	-10.3744
맛	-10.3745
팩	-10.3746
짓	-10.3747
▁해드릴	-10.3747
돈	-10.3747
11	-10.3747
▁몰랐는데	-10.3748
▁사다	-10.3748
▁고치	-10.3749
▁메뉴로	-10.3751
쪽에	-10.3757
▁대학교에	-10.3758
▁생각할	-10.3767
됐어예	-10.3773
▁가들이	-10.378
벘	-10.3784
▁그니까	-10.3785
▁맹들	-10.3785
섭	-10.3787
듭	-10.3788
퇴	-10.379
▁같아가꼬	-10.379
벤	-10.3791
둥	-10.3791
슈	-10.3791
▁고등학생	-10.3791
▁스티커	-10.3791
▁읽을	-10.3791
겐	-10.3791
▁드레스	-10.3791
▁멈추	-10.3791
▁뉴스	-10.3791
▁목걸이	-10.3791
▁감사드립니더	-10.3792
▁멋지	-10.3793
▁일회용	-10.3794
▁어짤	-10.3795
▁니만	-10.3795
▁도와드릴까예	-10.3796
▁해요	-10.3796
▁이모	-10.3797
▁나누	-10.3797
▁미안하데이	-10.3801
▁중인데	-10.3805
할때	-10.3807
▁인정	-10.3812
달라	-10.3814
▁적당한	-10.3816
▁심각한	-10.382
▁있었으면	-10.382
▁또는	-10.3825
해주신	-10.3826
▁애들이	-10.3827
▁배려	-10.383
▁언	-10.3833
▁다행이다	-10.3834
▁살라	-10.3836
침	-10.3846
께요	-10.3846
▁동아리에	-10.3847
▁양해	-10.3849
따라	-10.3851
▁없지예	-10.3862
▁노력할	-10.3873
▁단어	-10.3886
▁가실	-10.3891
▁안된다	-10.3897
▁어울리	-10.3904
▁생각나	-10.391
▁말하	-10.3911
이라가	-10.3913
끄마	-10.3922
님께	-10.3931
▁봤나	-10.3935
▁좋겄다	-10.3944
스터	-10.3944
▁알려주시	-10.3949
or	-10.3954
▁가졌	-10.3956
▁자랑	-10.3957
▁보내준	-10.3962
▁냉장고	-10.397
▁지금도	-10.397
▁아기	-10.3978
▁해주실	-10.3982
향	-10.3983
▁않을래	-10.3985
마이	-10.3986
▁모이	-10.3987
▁사기	-10.3997
▁슨생님께	-10.4003
▁직원들	-10.4005
해드리	-10.4006
됐습니더	-10.401
▁필요하신	-10.4013
▁않았는데	-10.4017
갑네	-10.4028
▁갈아타	-10.4034
▁길어	-10.4039
센	-10.404
칩	-10.4041
범	-10.4044
타고	-10.4045
▁일도	-10.4045
촉	-10.4046
▁걷는	-10.4046
▁따땃	-10.4046
▁따뜻한	-10.4046
▁믿고	-10.4046
▁믿어	-10.4046
▁이어폰	-10.4046
▁측정	-10.4046
▁자격증	-10.4046
▁채널	-10.4047
▁데이터	-10.4048
에요	-10.4049
▁존중	-10.4049
▁우승	-10.4049
▁고맙습니데이	-10.405
드리겠십니더	-10.4051
▁청구	-10.4052
▁간단하게	-10.4052
▁가시네	-10.4053
▁습관	-10.4055
▁나갔	-10.4058
▁학점	-10.4058
▁대표	-10.4059
▁낳	-10.406
이라니	-10.4061
▁준비되어	-10.4062
▁아닌데	-10.4064
▁광	-10.4067
▁3,000	-10.4068
▁가랑	-10.4068
▁팩	-10.4072
▁없십니다	-10.4072
▁매진	-10.4074
▁원인	-10.4075
▁주문해	-10.4076
▁저기요	-10.4079
▁심심	-10.408
▁주세예	-10.4087
▁때문이다	-10.4088
▁고급	-10.4089
▁우리에게	-10.409
▁선택할	-10.4094
▁얼굴에	-10.4096
▁고동안	-10.4099
▁진행하	-10.4102
▁용서	-10.4104
▁복잡	-10.4104
걸로	-10.4107
하겠십니다	-10.4107
▁위로	-10.4114
점이	-10.4115
▁터미널	-10.4115
▁저렴하	-10.4119
▁뵙	-10.4128
바바	-10.4129
시겠어예	-10.4131
▁불편하게	-10.4134
▁네일	-10.4135
▁판매하고	-10.4137
▁거기에	-10.4137
▁차는	-10.4139
▁달러	-10.4151
▁테	-10.4151
▁가격에	-10.416
▁잡으	-10.4172
▁사서	-10.4174
▁변경할	-10.4177
▁하믄서	-10.4183
이네	-10.4186
▁부모님께	-10.4191
▁갑네예	-10.4197
▁인해가	-10.4198
▁아파가	-10.4198
▁운	-10.4206
▁애기	-10.4207
▁작년	-10.4208
▁전체적	-10.421
▁정도면	-10.4212
▁나라에	-10.4229
▁앞에스	-10.4232
▁없다고	-10.4254
▁나쁘	-10.4256
▁공기	-10.4257
▁호주	-10.4265
▁작업이	-10.427
풀	-10.4274
북	-10.4276
셨네예	-10.4276
대학교	-10.4277
▁휴	-10.4278
▁힘을	-10.4286
▁그저	-10.4303
머리	-10.4304
규	-10.4304
냉	-10.4306
흐	-10.4307
핀	-10.4307
▁고렇다	-10.4307
▁냄시	-10.4307
▁높아	-10.4307
▁많데이	-10.4307
▁부탁드립니데이	-10.4307
샵	-10.4307
▁손가락	-10.4307
▁찜질	-10.4307
▁런던	-10.4308
▁우짤	-10.4309
▁옵니더	-10.4309
▁활용	-10.4309
▁오픈	-10.431
▁하늘	-10.431
▁출력	-10.4311
▁슬프	-10.4311
▁생겨	-10.4312
석이	-10.4312
▁명절	-10.4313
▁전철	-10.4313
▁30%	-10.4313
▁절차	-10.4314
▁음식에	-10.4314
▁항공	-10.4315
▁발권	-10.4316
▁다양하	-10.432
했으니	-10.432
▁갈아타야	-10.4322
▁헤	-10.4325
▁결제할	-10.4327
▁오류	-10.4329
▁조용한	-10.4332
▁드리께예	-10.4334
▁코트	-10.4341
▁착한	-10.4343
▁수준	-10.4343
▁결혼할	-10.4343
▁성분	-10.4348
▁알리도	-10.435
▁뿌리	-10.4352
없이	-10.4356
▁이전에	-10.4361
준다	-10.4381
▁곰	-10.4386
▁받으면	-10.4388
▁됐습니더	-10.4392
새	-10.4397
▁여행하는	-10.4397
▁만나자	-10.4398
▁주시가	-10.4399
▁새로분	-10.44
▁든	-10.4408
▁나쁘지	-10.4416
▁공항까지	-10.4416
▁치수	-10.4417
▁굽	-10.4418
▁정류장에	-10.4424
원으로	-10.4443
▁계산하	-10.4445
▁새벽에	-10.445
군요	-10.4452
▁고객님이	-10.4453
듯	-10.4461
▁않는데이	-10.4461
할라꼬예	-10.4467
▁없으니	-10.4468
▁가지가	-10.4468
▁무서	-10.4471
▁맴에	-10.4473
▁강한	-10.4473
▁주기	-10.4481
▁기다렸	-10.4485
▁유리	-10.4492
▁송	-10.4498
▁오는데	-10.4503
▁가시가	-10.4506
틀	-10.4519
▁몬한	-10.4527
▁지한테	-10.4534
▁끝에	-10.4538
탈	-10.4549
▁역에서	-10.4552
G	-10.4552
▁했으예	-10.4553
▁전화하	-10.4554
▁쇼핑을	-10.4555
눈	-10.4557
▁안정	-10.4558
▁무보	-10.4567
랍	-10.4569
▁적당	-10.457
▁후식	-10.4575
젠	-10.4575
▁딸기	-10.4576
▁리조트	-10.4576
▁잊어	-10.4576
▁걷기	-10.4576
▁라디오	-10.4576
▁매표소	-10.4576
▁복숭아	-10.4576
▁부드럽	-10.4576
▁최종	-10.4576
▁가르치	-10.4576
봉다리	-10.4576
▁놀이공원	-10.4576
▁귀걸이	-10.4576
▁항공편	-10.4576
▁왕복	-10.4577
▁김밥	-10.4577
▁거예요	-10.4579
▁조립	-10.4579
▁감사하겠습니더	-10.4582
▁생산	-10.4583
▁남겨	-10.4584
▁싶십니다	-10.4585
▁접시	-10.4587
▁신문	-10.4588
▁소음	-10.4589
▁모레	-10.4591
▁어려워	-10.4593
▁이쪽	-10.4595
▁틀어	-10.4598
▁낫겠	-10.4598
▁싶었는데	-10.4599
▁지속	-10.4602
▁팀이	-10.4608
▁보시면	-10.4608
렸어예	-10.4611
므로	-10.4612
드리께예	-10.4613
▁처음으로	-10.4613
▁정차	-10.4614
▁없으가	-10.4615
끼리	-10.4621
▁파이다	-10.4624
▁생각합니꺼	-10.4625
▁중이데이	-10.4626
▁온라인으로	-10.4631
▁싶어요	-10.4634
▁시작한	-10.4636
▁사정이	-10.4641
▁나와가	-10.4643
▁체력	-10.4645
▁물어봤	-10.4653
▁지나가	-10.4655
▁사람들한테	-10.4655
▁갈라고	-10.4656
▁사건	-10.4663
아이가	-10.4666
▁싶으	-10.467
▁인터넷에서	-10.4671
역에	-10.468
▁고객님께	-10.4684
▁시작되	-10.4685
▁왼쪽에	-10.4686
▁않으면	-10.4687
▁택시가	-10.4688
st	-10.469
▁아는데	-10.4692
▁맞으	-10.4699
워서	-10.4699
▁Z	-10.4707
▁준비할	-10.4709
▁운이	-10.4709
장으로	-10.4711
했다이가	-10.4719
▁색으로	-10.4719
▁선물이	-10.472
▁계정	-10.4726
▁엄청	-10.4727
▁있제	-10.4727
▁길게	-10.4733
▁어린아	-10.4735
▁안경	-10.4736
▁압니	-10.4736
▁건물이	-10.4744
테니까	-10.4747
▁받아가	-10.4748
▁백화점에	-10.4752
▁색깔이	-10.4757
댕	-10.4767
▁줘야	-10.4767
하는디	-10.4773
때는	-10.4774
▁바닥에	-10.4776
""	-10.4788
▁기념	-10.4789
▁운전자	-10.4794
녀	-10.4796
▁V	-10.4804
참	-10.4811
▁집까지	-10.4814
▁아시	-10.482
독	-10.4824
▁편할	-10.4824
▁시도	-10.4831
▁실례	-10.4834
▁22	-10.4836
놔	-10.4836
▁하던	-10.4836
았습니더	-10.484
밨	-10.4843
▁상관없이	-10.4843
돼가	-10.4844
▁쇼	-10.485
▁감사드립니데이	-10.4851
▁놀고	-10.4851
▁닭고기	-10.4851
▁됩니다	-10.4851
▁캐릭터	-10.4851
▁컨펌	-10.4851
▁앉으	-10.4851
▁태풍	-10.4851
▁렌즈	-10.4851
▁롯데	-10.4851
▁화이트	-10.4852
▁돼지고기	-10.4852
▁비밀번호	-10.4852
▁노란색	-10.4852
▁풍경	-10.4852
▁월급	-10.4853
▁불고기	-10.4853
▁조언	-10.4853
▁회복	-10.4854
▁초밥	-10.4854
▁부탁드려	-10.4854
▁이내에	-10.4854
▁짐까지	-10.4854
▁출석	-10.4855
▁좋아한데이	-10.4856
▁조심하이소	-10.4857
▁시험에	-10.4857
▁낯	-10.4858
▁벌레	-10.4858
▁단계	-10.4858
▁결석	-10.4861
▁삼성	-10.4861
▁반복	-10.4861
▁하시면	-10.4863
▁글씨	-10.4865
▁쉬운	-10.4865
▁물건들	-10.4868
▁빠져	-10.4869
▁사탕	-10.487
▁현장	-10.487
▁생신	-10.487
▁조정	-10.487
▁화려	-10.4871
택	-10.4873
▁리가	-10.4874
▁성장	-10.4874
▁남았는데	-10.4875
▁후기	-10.4877
▁메인	-10.4878
▁아파가꼬	-10.4879
▁없다는	-10.488
▁생각하나	-10.4884
▁요쪽	-10.4884
사진	-10.4888
▁기다려야	-10.489
▁보기에는	-10.489
▁쓰이	-10.489
▁할수	-10.4896
▁가끔은	-10.4899
▁나고	-10.4911
▁번호로	-10.4913
드립니더	-10.4914
▁오시믄	-10.4924
▁오실	-10.4924
▁대비	-10.4925
▁어떤가예	-10.4926
박스	-10.493
▁가족과	-10.4932
▁몬해	-10.4944
셨으면	-10.4944
5,000	-10.4945
▁알제	-10.4953
▁사원	-10.4953
주께	-10.4955
줘가꼬	-10.4973
▁연인	-10.4977
▁피곤해가	-10.4979
▁서명	-10.4979
▁당황	-10.4981
▁맞았	-10.4981
▁했지만	-10.4988
뿟	-10.4989
▁되는디	-10.5001
▁정장	-10.5005
▁오시는	-10.5005
▁대해가꼬	-10.5009
▁입구에	-10.5015
▁갈까예	-10.5016
▁바빠가	-10.5017
▁오일	-10.5019
▁가방에	-10.5021
▁환전할	-10.5047
▁캐나다	-10.5048
개씩	-10.5049
▁도쿄에	-10.5057
▁객실로	-10.5067
▁제주도에	-10.5068
▁동시	-10.5078
▁주셨	-10.5088
▁지난주	-10.5089
▁같고	-10.5091
▁있으시	-10.5092
▁제시간	-10.5093
▁기지예	-10.5096
▁드는데	-10.5104
었으예	-10.5106
▁사가꼬	-10.5107
▁들어보	-10.5113
▁공지	-10.5119
철	-10.5121
순	-10.5121
미가	-10.5129
▁않을까	-10.5131
▁규칙	-10.5132
▁교환해	-10.5133
내고	-10.5133
춘	-10.5135
▁샴푸	-10.5135
닝	-10.5135
_	-10.5135
▁젊은	-10.5135
▁죄송한디	-10.5135
▁비디오	-10.5135
▁교통카드	-10.5136
▁알러지	-10.5136
▁영광	-10.5137
▁귀여운	-10.5137
▁행님	-10.5137
▁허락	-10.5137
▁빨래	-10.5138
▁평생	-10.5138
▁지폐	-10.514
▁맡겨	-10.514
▁다섯	-10.5142
▁사촌	-10.5142
▁탈색	-10.5145
▁소금	-10.5146
합시더	-10.515
▁유학	-10.5152
▁고맙습니더	-10.5153
▁개안십니더	-10.5154
▁오셔	-10.5156
▁b	-10.5157
▁두번째	-10.5158
▁세관	-10.5159
▁기내에	-10.5159
▁많아스	-10.5166
▁자는	-10.5166
▁봤던	-10.5166
▁2,000	-10.5167
▁세상에	-10.5167
▁제목	-10.5169
▁눈치	-10.5169
▁고려	-10.5171
▁교수님께	-10.5172
it	-10.5172
▁어렵다	-10.5174
▁이루어	-10.5174
였는데	-10.5185
▁그곳에	-10.5188
▁경비	-10.5189
▁청소년	-10.519
▁가보이소	-10.5191
해봐라	-10.5193
답니더	-10.5198
드리면	-10.5202
▁좋아해가꼬	-10.5206
▁능력	-10.5209
20	-10.521
▁오늘이	-10.5212
▁지도에	-10.5212
▁내로	-10.5213
▁시쯤	-10.5214
▁괜찮을	-10.5226
▁가족을	-10.5226
▁된다꼬	-10.5227
▁시내에	-10.5234
▁내에게	-10.5236
▁주인	-10.5247
▁제품이라	-10.5248
▁c	-10.5252
▁넘었	-10.5255
30	-10.5258
▁전화해가	-10.5258
▁좋아해	-10.5261
▁그짝	-10.5262
▁원하지	-10.5262
▁들었나	-10.5265
▁목요일에	-10.5268
▁그렇지	-10.5273
▁할인된	-10.5273
▁뽑아	-10.5275
▁된다믄	-10.5275
▁드셔	-10.5276
▁팔아	-10.5281
▁위해가꼬	-10.5284
▁과연	-10.5285
주시가	-10.5287
▁깨끗	-10.5291
▁있겄	-10.5293
보제이	-10.5297
▁연결해	-10.5298
긴데	-10.5309
해주시가	-10.5313
▁당신하고	-10.5314
▁비해	-10.5318
소리	-10.5325
▁여기에	-10.5327
되어야	-10.5331
▁진행하는	-10.535
있어예	-10.5355
▁의지	-10.5356
▁줘가	-10.5357
▁p	-10.5358
▁나네예	-10.5364
▁카든데	-10.5376
▁처음이	-10.5386
재기	-10.5398
에스는	-10.54
▁엄마는	-10.5406
▁모여	-10.5407
▁시원	-10.5412
▁아프다	-10.5412
▁변경해	-10.5414
쟁	-10.5417
▁풍	-10.5417
겁	-10.5418
▁전망	-10.542
▁입는	-10.5421
▁놀이	-10.5425
톤	-10.5426
풍	-10.5426
주세예	-10.5427
켔	-10.5427
▁떨어진	-10.5427
▁서둘러	-10.5427
▁업데이트	-10.5427
▁완즈	-10.5427
▁진통제	-10.5427
▁확신	-10.5427
▁표지판	-10.5427
▁렌트	-10.5427
▁삼촌	-10.5428
▁다행입니더	-10.5428
랍니더	-10.5428
쇼	-10.5428
▁50%	-10.5429
▁뭐든	-10.5429
▁연착	-10.543
▁미안하지만	-10.5431
▁웃음	-10.5433
▁군데	-10.5435
▁식단	-10.5436
▁어짜	-10.5436
▁나빠	-10.5436
▁입학식	-10.5437
▁원입니더	-10.5439
▁정해져	-10.5439
▁좋다고	-10.544
▁소원	-10.5442
▁만화	-10.5443
▁묵지	-10.5444
▁치마	-10.5447
▁지하철로	-10.5448
▁필요해예	-10.545
▁불가능하	-10.5451
▁나왔어예	-10.546
▁받기	-10.5462
▁보안	-10.5463
▁있다아이가	-10.5463
▁아이들	-10.5465
보시는	-10.5467
층에서	-10.5477
▁담당자	-10.5479
▁전원	-10.5479
▁책임감	-10.5482
▁했을	-10.5488
▁일본어	-10.5491
주믄	-10.5492
▁매점	-10.5493
이며	-10.5494
▁나가서	-10.5496
12	-10.5497
▁교실	-10.5501
▁충전기	-10.5502
▁도바	-10.5502
▁공사	-10.5507
▁출고	-10.5509
▁퇴근하고	-10.5512
▁걸린다	-10.5512
▁카페에	-10.5517
▁바닥	-10.5518
▁영화에	-10.5519
▁부러	-10.5519
으몬	-10.5521
▁빠졌	-10.5528
▁담요	-10.5529
▁맴이	-10.5539
▁요곳	-10.5545
▁살아예	-10.555
▁구역	-10.5551
▁선물해	-10.5557
해질	-10.5565
즐	-10.5567
▁싶으신	-10.5568
달라꼬	-10.5569
는걸	-10.557
▁편해	-10.5577
▁배워	-10.5584
야겠노	-10.5586
▁여행사	-10.5586
▁주방에	-10.5589
해드리겠습니더	-10.5591
▁넘어가	-10.5595
▁안됩니꺼	-10.5597
었어요	-10.5598
▁나와예	-10.5599
▁하나는	-10.5603
▁일본에	-10.5605
▁거울	-10.5607
▁되게	-10.5608
▁아니었	-10.5613
▁문제에	-10.562
그라	-10.5622
▁되어있	-10.5625
▁시작했	-10.5631
▁운전하는	-10.5631
▁생각한	-10.5639
▁누워	-10.564
받고	-10.5642
▁스타일이	-10.5644
▁부탁해	-10.565
▁빠를	-10.5664
▁겁	-10.5666
▁생일이	-10.5668
했었다	-10.5678
▁하겠	-10.5691
▁하재이	-10.5695
▁키우	-10.5696
▁타기	-10.5702
▁하루만	-10.5716
▁하기로	-10.5723
▁옵니	-10.5726
챙	-10.5726
깃	-10.5727
덴	-10.5728
멈	-10.5728
▁낮은	-10.5728
▁어뎁니	-10.5728
▁오토바이	-10.5728
▁텔레비전	-10.5728
씹	-10.5728
컨	-10.5728
휘	-10.5728
▁업그레이드	-10.5728
▁승무원	-10.5728
▁땅콩	-10.5728
▁품목	-10.5728
▁눌러	-10.5728
▁케이스	-10.5728
적이고	-10.5728
▁승객	-10.5729
▁까묵	-10.5729
▁느낀	-10.573
▁재활	-10.573
▁팔찌	-10.573
▁시골	-10.5731
▁않겠나	-10.5732
▁입술	-10.5733
▁재능	-10.5733
▁공포	-10.5734
▁단발	-10.5735
▁진심	-10.5735
▁버전	-10.5736
▁답답	-10.5737
▁가슴	-10.5737
뒀	-10.5738
벨	-10.5738
▁들어올	-10.5739
▁개안아	-10.5739
▁외식	-10.5741
사이즈	-10.5741
됬습니더	-10.5746
▁아쉽네예	-10.5746
▁있겠네예	-10.5748
▁싶어가꼬	-10.5749
▁향상	-10.5749
▁성실	-10.5749
▁부른	-10.5751
▁환불해주이소	-10.5752
▁맥히	-10.5753
▁팁	-10.5753
▁오빠야	-10.5754
▁원해예	-10.5756
▁배운	-10.576
▁저짝	-10.576
▁기념으로	-10.5761
▁적용되	-10.5761
▁갔던	-10.5762
▁돼지	-10.5762
▁과학	-10.5763
▁남성	-10.5763
▁뭐라꼬	-10.5768
▁저런	-10.5768
▁전화가	-10.5769
▁나왔습니더	-10.5771
▁생각했던	-10.5771
▁드리겠십니더	-10.5773
▁죄송하	-10.5775
▁구경하	-10.5775
▁저장	-10.5778
▁갈색	-10.5779
▁남자친구랑	-10.5784
▁글치	-10.579
"	-10.579
끼라예	-10.579
처리	-10.5793
▁알아야	-10.5798
▁손상	-10.5801
▁창고	-10.5814
▁끝내고	-10.5821
주시겄어예	-10.5824
▁걸리지	-10.5824
▁음식물	-10.5827
▁정류장에서	-10.5829
▁앉아있	-10.5832
▁졸업하고	-10.5839
▁한류	-10.584
▁않아서	-10.5848
▁보이는데	-10.5849
▁조심해야	-10.5852
▁카페에서	-10.5865
▁도와드릴	-10.5869
파크	-10.5872
징	-10.5879
▁여보	-10.588
일로	-10.5881
윾	-10.5882
▁색상이	-10.5886
▁주문하시	-10.5887
▁나오면	-10.5892
▁된다고	-10.5896
▁개안나	-10.5906
금액	-10.5916
▁시작하는	-10.5921
▁뭐라	-10.5923
역까지	-10.5926
일은	-10.5931
▁충분한	-10.5933
▁남아있는	-10.5938
▁영화관에	-10.5946
증명서	-10.5951
▁택시비	-10.5952
되기	-10.5954
▁나간	-10.5955
▁결제가	-10.5957
다니가	-10.5963
▁대리	-10.5964
▁이용하는	-10.5965
▁포함되	-10.597
하다고	-10.5972
회에	-10.5992
▁마찬가지	-10.5993
므	-10.5993
할끼다	-10.6
▁영화관	-10.6008
▁부분에	-10.601
립니데이	-10.6012
▁증상이	-10.6025
▁주시겄어예	-10.6025
▁몬하는	-10.6027
▁나가꼬	-10.6031
던데예	-10.6034
▁줍니	-10.6036
▁못합니더	-10.6036
논	-10.6036
▁켔	-10.6037
읍	-10.6037
릭	-10.6037
▁가벼운	-10.6038
▁공휴일	-10.6038
▁삼겹살	-10.6038
돋	-10.6038
쭐	-10.6038
▁읽으	-10.6038
▁찢어	-10.6038
▁캠핑	-10.6038
▁당분간	-10.6038
▁싱글	-10.6038
▁마스크	-10.6038
▁충격	-10.6038
▁냉동	-10.6038
▁일어난	-10.6038
▁낭비	-10.6038
▁쿠키	-10.6038
▁알기로는	-10.6038
▁품질	-10.6039
▁갈아입	-10.6039
▁친척	-10.6039
▁뿐입니더	-10.6039
▁환급	-10.604
▁볼펜	-10.604
▁대접	-10.6041
▁연애	-10.6041
▁힘내	-10.6043
낸	-10.6043
▁금연	-10.6044
▁가봤	-10.6046
▁소문	-10.6049
▁할께예	-10.6052
▁회사를	-10.6056
▁상세	-10.6057
▁났어예	-10.6062
▁맞십니더	-10.6065
▁아플	-10.6067
▁소요	-10.6069
보단	-10.6071
▁부탁합니데이	-10.6073
▁출시	-10.6073
▁잇	-10.6074
▁분석	-10.6074
식품	-10.6075
칸	-10.6076
집이	-10.6077
합니까	-10.6079
드나	-10.6082
▁한글	-10.6095
▁않습니꺼	-10.6096
▁달러로	-10.61
▁않아가꼬	-10.6103
▁쓰기	-10.6104
▁도착해가	-10.6109
▁뻔	-10.6111
▁않은데	-10.6112
▁거절	-10.6118
▁쓰시	-10.6122
▁준비해야	-10.6123
▁테니스	-10.613
▁16	-10.6147
▁사인	-10.6154
뿟다	-10.6155
▁가려고	-10.6164
▁좋았다	-10.617
▁은행에서	-10.617
▁몰라서	-10.6175
▁드리면	-10.6179
▁발목	-10.6181
▁w	-10.6187
▁할라꼬예	-10.6187
▁꿈이	-10.6191
▁부서	-10.6192
▁걸어서	-10.6194
▁해봐야	-10.6202
▁정도만	-10.6202
셨다	-10.6206
▁기쁘다	-10.6218
▁수속	-10.6225
으로부터	-10.6229
▁나온다	-10.6231
▁매장에서	-10.6241
▁취소해	-10.6245
회가	-10.6247
센터에	-10.6247
▁추천해주	-10.6249
으요	-10.6251
▁같은디예	-10.6257
▁종이에	-10.6267
▁일행이	-10.6279
▁맞는데	-10.6284
▁붙어	-10.6286
▁확인했	-10.6291
▁제품들	-10.6292
▁주위	-10.6293
▁부산에	-10.6294
▁거까지	-10.6297
▁편이라	-10.63
▁내역	-10.63
▁내게	-10.6301
척	-10.6305
▁놨	-10.6307
했다아이가	-10.6314
▁사람이랑	-10.6319
▁통로	-10.6326
▁걸린	-10.6328
▁묵은	-10.6328
하시기	-10.633
▁찍어주실	-10.6335
▁괜찮다	-10.6336
▁후회하	-10.6336
ic	-10.6336
▁떡	-10.6336
▁반대편	-10.6343
▁처방해	-10.6346
▁시기	-10.6346
▁피부에	-10.6346
▁내리야	-10.6347
겠네요	-10.6349
깔	-10.6352
▁영양	-10.6355
▁환영	-10.6356
흥	-10.6357
▁껍니더	-10.6358
▁어울린다	-10.6358
▁인스타그램	-10.6358
▁최악	-10.6358
▁흘리	-10.6358
▁논문	-10.6358
▁은젠가	-10.6358
▁물론이지예	-10.6358
▁듭니더	-10.6358
▁볶음밥	-10.6358
▁운송	-10.6358
▁용돈	-10.6359
▁평범	-10.6359
▁아이폰	-10.6359
▁빨간	-10.6359
디릴게예	-10.636
▁반응	-10.6361
▁면세품	-10.6361
▁공원에	-10.6361
km	-10.6362
▁도시락	-10.6362
꾸마	-10.6363
▁하나요	-10.6363
변	-10.6364
▁즐대	-10.6365
▁상영	-10.6367
▁새복	-10.6368
▁다음번에	-10.637
랜드	-10.6371
▁호텔이	-10.6372
▁그만두	-10.6372
▁같나	-10.6373
▁알아볼	-10.6374
▁싶십니더	-10.6375
▁불러주이소	-10.6375
▁알았는디	-10.6378
▁명세	-10.6378
▁대출	-10.6379
▁가재이	-10.6382
▁세워	-10.6382
왔는데	-10.6385
익	-10.6386
▁따신	-10.6387
▁있으시믄	-10.6388
▁미소	-10.6388
▁같기	-10.6389
또	-10.6391
▁역에	-10.6392
▁용량	-10.6392
▁알리주시믄	-10.6393
갑니꺼	-10.6393
▁보냈습니더	-10.6394
짐	-10.6394
시겠십니까	-10.6394
▁환전해	-10.6396
사항	-10.6398
▁오리	-10.6398
▁70	-10.6401
릴러	-10.6401
▁노는	-10.6401
▁없지	-10.6404
▁아덜이	-10.6405
▁오븐	-10.6406
▁보내이소	-10.6407
▁노트	-10.6411
▁않지만	-10.6414
▁막상	-10.6417
카드	-10.6417
▁할까	-10.6421
▁카던데예	-10.6421
▁고쳐	-10.6425
▁하차	-10.6425
하는거	-10.6428
▁갈게	-10.6431
▁방문할	-10.6434
▁한강	-10.6437
바로	-10.6438
뿌면	-10.644
▁찾아오	-10.6445
▁친구로	-10.6445
▁봤데이	-10.6446
▁아이라예	-10.645
▁했고	-10.6451
▁객실이	-10.6455
해주세예	-10.6457
▁지방	-10.6464
하세요	-10.6466
▁한꺼	-10.6467
율	-10.6471
▁드간	-10.6476
▁말했어예	-10.6476
ou	-10.6478
▁채로	-10.6483
▁$	-10.6484
▁없으예	-10.649
▁경찰이	-10.6496
▁그라시	-10.6497
▁말하면	-10.6501
▁받으믄	-10.6504
▁줄래	-10.6506
▁지정	-10.6506
▁그림이	-10.6507
▁가노	-10.6508
▁없었는데	-10.6512
▁다르다	-10.6514
뚜	-10.6522
▁문자로	-10.6522
▁여부	-10.6526
▁모아	-10.6531
▁날은	-10.6534
시장	-10.6538
ro	-10.6539
▁끼가	-10.6541
▁장기	-10.6543
요리	-10.6557
▁가는디	-10.6559
▁환불하고	-10.6565
▁했으면	-10.6567
▁느끼고	-10.657
▁동생은	-10.6575
▁전달해	-10.6577
50	-10.6579
▁맞지	-10.6591
▁좋아서	-10.6594
▁제공해	-10.6595
▁받았다	-10.66
▁알지	-10.66
ex	-10.6601
▁바람이	-10.6602
거라	-10.6609
▁만나지	-10.6611
으가	-10.6613
이었던	-10.662
▁아프고	-10.6621
▁세탁기	-10.6622
▁노래가	-10.6622
▁80	-10.6629
▁커가	-10.6635
▁여기는	-10.6645
▁치고	-10.6648
▁와도	-10.665
▁견적	-10.6655
▁제품입니더	-10.6659
▁카페가	-10.6679
▁피곤한	-10.6679
촌	-10.668
밤	-10.668
핑	-10.6685
빙	-10.6685
셀	-10.6688
솔	-10.6689
몽	-10.6689
▁늦으	-10.6689
▁늦잠	-10.6689
▁믓진	-10.6689
▁선글라스	-10.6689
▁완벽하	-10.6689
▁월드컵	-10.6689
▁채식주의자	-10.6689
▁태어났	-10.6689
▁펌웨어	-10.6689
▁확정	-10.6689
턱	-10.6689
▁싸그리	-10.6689
▁어딥니	-10.6689
▁컬러	-10.6689
▁튀김	-10.6689
▁아픕니더	-10.6689
▁금마들	-10.6689
▁단골	-10.669
▁만남	-10.6691
▁귀여	-10.6693
▁댕길	-10.6693
▁머무	-10.6693
▁보람	-10.6693
▁무라	-10.6694
▁좋아합니다	-10.6697
▁그려	-10.6697
▁빠마	-10.6697
▁경찰서에	-10.6697
▁바래예	-10.6699
▁행복할	-10.6703
▁모르겠지만	-10.6703
▁물어보이소	-10.6705
▁발음	-10.6705
▁외부	-10.6706
▁길거리	-10.6707
▁사가	-10.6707
수도	-10.671
▁번씩	-10.6711
▁클럽	-10.6711
▁도와주이소	-10.6712
끄	-10.6712
▁하모예	-10.6713
▁잘나가	-10.6713
▁육수	-10.6714
▁복사	-10.6714
▁알았어예	-10.672
▁그리워	-10.672
▁이해하기	-10.6721
▁처음이라	-10.6725
▁모르겠데이	-10.6726
육	-10.6727
▁있따	-10.6728
V	-10.673
▁귀찮게	-10.6731
▁촬영이	-10.6732
▁생각했는데	-10.6733
삼	-10.6734
▁싶어서예	-10.6737
▁전날	-10.6739
▁모르니까	-10.6743
▁대단하다	-10.6744
▁보니께	-10.6746
▁하니께	-10.6748
▁알았데이	-10.6749
il	-10.6753
▁사진으로	-10.6754
▁아픈데	-10.6755
운동	-10.676
▁사랑한다	-10.6761
▁기업	-10.6764
실로	-10.6769
▁은행에	-10.6769
▁단점	-10.6774
▁될까	-10.6778
▁마주	-10.6784
▁땅	-10.6789
었십니다	-10.6789
▁가능하면	-10.6791
▁남동생	-10.6799
ch	-10.6809
▁치아	-10.6814
▁크고	-10.6814
▁낫지	-10.6817
▁대학원	-10.6817
▁찾아봐	-10.6818
▁섬	-10.682
▁멤버	-10.6821
▁입맛에	-10.6821
▁묵으면	-10.6822
▁싫어예	-10.6823
▁준비한	-10.6824
▁나왔는데	-10.6828
▁둘러	-10.6828
학기	-10.683
▁반대쪽	-10.6832
▁콜	-10.6836
▁박물관에	-10.6843
▁해결해	-10.6847
▁디자인이	-10.685
트리	-10.685
▁추억이	-10.6852
▁밑에	-10.6853
us	-10.6855
하던	-10.6856
▁좋아해가	-10.6863
▁일상	-10.6864
▁못했습니더	-10.6871
해주시면	-10.6876
▁준다	-10.6878
▁요가	-10.688
▁가리	-10.6884
▁납니	-10.6887
해줬	-10.689
▁축하한다	-10.6891
▁드시는	-10.6893
▁보입시더	-10.6895
▁이번주	-10.6895
▁재밌었	-10.6897
▁참아	-10.6899
▁쓰면	-10.6901
▁지역에	-10.6906
주셔가꼬	-10.6912
▁빨라	-10.6917
있는데	-10.6921
▁서비스로	-10.6926
▁해보는	-10.6927
▁인터넷에	-10.6929
▁든다	-10.693
▁계산할	-10.6937
▁경우는	-10.6939
▁해주시	-10.694
하재이	-10.6942
하세예	-10.6945
▁가만	-10.6948
▁스타	-10.6952
▁하다가	-10.6952
▁아프지	-10.6955
▁기차역	-10.6965
▁소중	-10.6967
▁앉아가	-10.6969
▁계시는	-10.6979
▁포장이	-10.6981
▁나오고	-10.6985
증이	-10.6986
▁글리	-10.6986
▁안부	-10.6992
▁이용해가	-10.7004
▁벌어	-10.7005
▁식품	-10.7008
▁인도	-10.7015
▁주가	-10.7019
▁없는지	-10.7026
혹	-10.7027
▁솔직하	-10.7028
춰	-10.7029
싱	-10.7029
껴	-10.7029
▁괴롭	-10.703
▁많네예	-10.703
▁유튜브	-10.703
▁젓가락	-10.703
률	-10.703
펀	-10.703
▁닫아	-10.703
▁옮겨	-10.703
▁쬐매	-10.703
▁선풍기	-10.703
▁불구하고	-10.7031
▁식탁	-10.7031
▁면허증	-10.7031
▁아이템	-10.7031
▁경쟁	-10.7032
▁패션	-10.7032
▁그렇군요	-10.7032
▁하루종일	-10.7033
▁로션	-10.7034
▁리스트	-10.7034
▁포함되어	-10.7035
▁건가요	-10.7036
▁동작	-10.7037
▁손목	-10.7037
▁같심더	-10.7038
▁비밀	-10.7039
▁소설	-10.7039
▁바란다	-10.704
▁예정입니데이	-10.704
▁출신	-10.7041
▁같십니다	-10.7043
▁인연	-10.7043
▁띄	-10.7044
▁유명해	-10.7044
▁조카	-10.7048
▁존경하는	-10.7048
▁피우	-10.7053
▁운동할	-10.7055
▁좋습니꺼	-10.7057
드립	-10.7058
▁하나씩	-10.7059
▁했었	-10.706
▁집안일	-10.706
▁된다는	-10.7066
늘	-10.7067
▁아쉽다	-10.7067
▁싶으면	-10.707
죽	-10.7074
▁아끼	-10.7076
년간	-10.7077
▁그렇습니더	-10.7078
▁봤습니더	-10.708
▁되겠네예	-10.708
▁좋았데이	-10.708
▁같아스	-10.7082
필	-10.7082
졌데이	-10.7091
▁하나랑	-10.7095
▁확인이	-10.7095
▁입에	-10.7097
▁같던데	-10.71
▁위험하	-10.7107
▁사용하지	-10.7109
▁소주	-10.7111
▁깨끗하	-10.7113
▁바구니에	-10.7113
▁탐	-10.7113
▁생각하기	-10.7113
▁걱정이다	-10.7123
디릴	-10.7127
▁해소	-10.7134
▁생각입니더	-10.7134
▁나는데	-10.7135
▁성공할	-10.7139
▁맞고	-10.714
매번	-10.715
▁생각했습니더	-10.715
▁주인공이	-10.7152
겠지	-10.7153
▁개안을까	-10.7157
▁뭐라예	-10.7161
▁정해지	-10.7162
▁드라마에	-10.7163
▁동네에	-10.7174
▁한국어로	-10.7176
▁있네	-10.7185
▁엄청나	-10.7186
▁예정인데	-10.7188
▁익숙해	-10.7188
되가꼬	-10.7192
▁갈까	-10.7192
▁이걸로	-10.7194
갔어예	-10.7196
▁볼라꼬	-10.7203
▁결혼한	-10.7211
▁하나가	-10.7212
▁발이	-10.7216
▁페이지	-10.7221
▁괜찮을까	-10.723
▁운전을	-10.723
하나예	-10.7232
▁내리면	-10.7237
▁이미지	-10.724
▁운영하는	-10.7244
▁아니라예	-10.7246
겄네예	-10.726
▁영향	-10.7261
명인데	-10.7264
▁들지	-10.7271
덜과	-10.7282
▁데로	-10.729
▁열리는	-10.7296
▁힘들게	-10.7303
람	-10.7308
▁구매하고	-10.7312
▁없는데예	-10.7312
▁정리해	-10.7315
시기	-10.7317
▁평일에	-10.7325
▁좋아하기	-10.7338
▁형태	-10.7341
기간	-10.7349
▁검색해	-10.7355
▁사실이	-10.7359
속에	-10.7362
▁도서	-10.7366
▁생각해보	-10.7367
▁마지막에	-10.7377
▁다이어트에	-10.7382
럭	-10.7384
랩	-10.7384
▁디자이너	-10.7384
▁안전벨트	-10.7384
▁여름방학	-10.7384
▁옮길	-10.7384
▁필라테스	-10.7384
▁흘러	-10.7384
둬	-10.7384
잭	-10.7384
컴	-10.7384
핏	-10.7384
괄	-10.7384
▁혜택	-10.7384
▁즈렴하	-10.7385
▁인쇄	-10.7385
▁어땠	-10.7385
▁슬퍼	-10.7386
▁묵읐	-10.7386
▁별도로	-10.7386
▁외롭	-10.7386
▁줍니더	-10.7387
▁달콤	-10.7387
하하하	-10.7387
▁돈가스	-10.7388
▁센터	-10.7388
▁무서운	-10.7388
▁가까븐	-10.7388
▁처방전	-10.7389
▁떠날	-10.7389
▁도와드리겠습니더	-10.739
▁경유	-10.7391
▁영양제	-10.7391
▁양말	-10.7391
▁구글	-10.7392
▁때문입니	-10.7392
▁회식	-10.7393
▁흉	-10.7393
▁소포	-10.7393
▁우편	-10.7394
▁알려드릴게예	-10.7395
▁흔들	-10.7396
▁자격	-10.7396
▁추운	-10.7399
▁근력	-10.7399
▁타임	-10.7401
▁샀는디	-10.7402
▁죄송해예	-10.7403
▁한국말	-10.7407
▁수입	-10.7407
▁어데고	-10.7407
▁조심해	-10.7409
▁모르겄다	-10.741
▁상품으로	-10.7411
▁맹글어	-10.7415
▁세우	-10.7423
▁남지	-10.7424
▁주문하믄	-10.7425
하께	-10.7429
▁불량	-10.7429
▁돼요	-10.7431
끼가	-10.7431
▁정식	-10.7435
▁자야	-10.7435
▁물론입니더	-10.7436
▁상태를	-10.7437
▁개안은데	-10.7439
▁그녀에게	-10.744
▁가보자	-10.7443
▁늘어나	-10.7444
맞	-10.7444
▁로비에	-10.7444
▁예쁘게	-10.7444
▁역까지	-10.7448
즌	-10.7448
▁도착하믄	-10.7448
▁미안해	-10.7452
딴	-10.7453
김	-10.7453
▁좋아해서	-10.7455
▁니와	-10.7456
▁죄송	-10.7465
▁고장이	-10.7467
▁흔들리	-10.7473
▁생기믄	-10.7475
해주시기	-10.7477
▁회사서	-10.7479
▁보았	-10.7483
▁셋	-10.7489
▁"	-10.7491
라카이	-10.7492
▁역이	-10.7494
한다믄	-10.7496
▁대단한	-10.7502
▁여행할	-10.7511
▁않는데	-10.7512
▁신나	-10.7516
▁평일	-10.7519
▁가나	-10.752
▁윤	-10.7537
▁바람에	-10.7542
▁서울역	-10.7543
해달라꼬	-10.7544
브예	-10.7548
▁상의	-10.755
▁만지	-10.7551
▁나한테	-10.7556
▁의미가	-10.7557
▁상태로	-10.7557
▁알아서	-10.7559
카든데	-10.7567
▁홀	-10.757
▁기재	-10.7571
▁걱정입니더	-10.7573
▁일정에	-10.7573
같은	-10.7594
▁등이	-10.7602
▁옷들	-10.7605
▁문의해	-10.7611
▁있으신	-10.7614
함이	-10.7614
▁당시	-10.7622
▁그래요	-10.7625
▁그러시	-10.7625
▁기랑	-10.7625
▁Y	-10.7637
▁하겄십니더	-10.7644
▁선물할	-10.7648
▁나와가꼬	-10.7661
▁점수를	-10.7661
▁나오는데	-10.7673
▁주시겠	-10.7679
▁댕기는	-10.7685
▁걸릿	-10.7686
분쯤	-10.7691
▁하십니꺼	-10.7694
돼서	-10.7696
공원	-10.7699
▁궁금	-10.7701
▁객실에	-10.7703
▁넣었	-10.7707
▁복도	-10.7709
▁서점	-10.7717
▁병원에서	-10.772
▁개수	-10.7723
뿠	-10.7724
▁심장	-10.7727
▁학기에	-10.773
랜	-10.773
▁되길	-10.7733
▁존경	-10.7735
봐래이	-10.7737
▁머리카락이	-10.7742
뻔했	-10.7744
▁찾겠	-10.7745
픈데	-10.7748
▁볶음	-10.7751
엘	-10.7751
쩍	-10.7751
▁2017	-10.7751
▁그랗게	-10.7751
▁김치찌개	-10.7751
▁싱가포르	-10.7751
멜	-10.7751
빗	-10.7751
▁마누라	-10.7751
▁범죄	-10.7751
▁변호사	-10.7752
▁청바지	-10.7752
▁스위스	-10.7752
▁가운데	-10.7752
▁따뜻하	-10.7752
▁다녀오	-10.7752
▁다녀왔	-10.7752
▁손톱	-10.7752
▁미안한데	-10.7752
▁블록	-10.7752
▁불쾌	-10.7753
▁놀이터	-10.7753
▁앞머리	-10.7754
▁왜냐하믄	-10.7754
▁취급	-10.7754
▁머무르	-10.7754
▁불렀	-10.7755
▁풍부	-10.7756
▁도망	-10.7756
했지예	-10.7757
▁종료	-10.7757
▁메모	-10.7758
▁당연하지	-10.7758
▁연말	-10.7758
▁즉석	-10.7758
▁피로	-10.7759
▁못하는	-10.7759
▁리더	-10.776
▁밀려	-10.776
▁같으니까	-10.7763
▁지루하	-10.7763
▁소재	-10.7763
▁부탁드릴게예	-10.7764
▁이럴	-10.7764
▁좋습니데이	-10.7765
▁집안	-10.7765
▁진학	-10.7767
▁회신	-10.7768
▁원하십니꺼	-10.7769
▁가까워	-10.7771
▁가봐야	-10.7775
▁교정	-10.7779
들끼리	-10.7779
▁신발이	-10.778
하다꼬	-10.7781
▁좋았습니더	-10.7781
▁않아스	-10.7782
▁학과	-10.7785
▁경주	-10.7787
▁제외하고	-10.7788
▁병동	-10.7789
▁유용	-10.7789
▁들어오는	-10.779
▁행복합니더	-10.7792
▁잡수	-10.7794
▁진행해	-10.7797
였는디	-10.7799
▁알바	-10.78
▁만들기	-10.78
▁진행되	-10.78
진데이	-10.7803
▁현지	-10.7803
▁취해	-10.7808
▁비싸네예	-10.7809
▁했심더	-10.7814
▁충분하	-10.7817
▁그라노	-10.782
▁고수	-10.782
▁좋아하노	-10.7822
응	-10.7824
▁비싼데	-10.7824
휴	-10.7831
▁날씨에	-10.7832
떼	-10.7832
▁그녀한테	-10.7838
▁온다꼬	-10.7839
▁콩	-10.784
크림	-10.7842
▁갈래예	-10.7843
▁위험한	-10.7844
렸습니더	-10.7845
▁고기가	-10.7845
▁되도록	-10.7846
▁구하기	-10.7859
▁자라	-10.7862
심꺼	-10.7863
▁묵는다	-10.7864
▁말입니더	-10.7866
▁고날	-10.7867
▁배우들	-10.7871
▁군대	-10.7872
▁생각했어예	-10.7874
겠습니데이	-10.788
▁코너에	-10.7881
▁공부해야	-10.7882
할께예	-10.7886
까진	-10.789
▁이해해주	-10.789
일까예	-10.79
▁왔는데예	-10.7905
▁노력해	-10.7906
스러워	-10.7908
▁마음으로	-10.7915
▁기운	-10.7915
▁축하해	-10.7923
▁큰일이	-10.7924
▁생각하믄	-10.7927
줬다	-10.795
▁통장	-10.7952
신데	-10.7954
▁가능하다	-10.7959
야긋다	-10.7961
▁지나가는	-10.7962
있다	-10.7962
▁학원에	-10.7966
했으니까	-10.7968
▁확인해야	-10.7971
라카는데	-10.7972
▁불안	-10.7974
▁서울에서	-10.7977
스타	-10.7978
▁저녁으로	-10.798
▁사랑해	-10.7984
▁진행되는	-10.7988
자네	-10.7989
▁보재이	-10.7993
▁오자	-10.8003
나마	-10.8005
▁기구	-10.8006
▁끝이	-10.8006
▁낫다	-10.8017
▁요곳에	-10.8021
▁치는	-10.8021
빵	-10.8029
었지예	-10.8031
하이까	-10.8031
▁규정이	-10.8034
▁불어	-10.8036
▁피가	-10.8044
▁레스토랑에	-10.8051
▁시럽	-10.8052
당한	-10.8061
13	-10.8064
칸다	-10.8067
니까예	-10.8075
▁해주는	-10.8076
▁공연장	-10.8077
▁글로	-10.8081
▁가게에서	-10.8082
▁부어	-10.8087
▁예약했	-10.8098
슴	-10.8115
▁일이라예	-10.8124
▁되드라	-10.8124
▁늦어지	-10.8131
자들이	-10.8131
(	-10.8132
컬	-10.8132
틴	-10.8132
▁똑똑한	-10.8132
▁많노	-10.8132
▁바비큐	-10.8132
▁붙여	-10.8132
▁브레이크	-10.8132
▁숟가락	-10.8132
▁앉았	-10.8132
▁애플리케이션	-10.8132
▁어제저녁	-10.8132
▁우짭니꺼	-10.8132
▁캐리어	-10.8132
줏	-10.8132
▁놀랍	-10.8132
▁시험공부	-10.8132
▁아저씨	-10.8132
▁착륙	-10.8132
뼈	-10.8132
삤	-10.8132
▁러시아	-10.8132
▁중학생	-10.8132
▁사용한	-10.8133
▁섹시	-10.8133
▁인천공항	-10.8133
▁사은품	-10.8133
▁친해지	-10.8133
▁축하드립니더	-10.8133
▁속옷	-10.8134
▁소독	-10.8134
프라이	-10.8134
▁델따	-10.8134
▁목욕	-10.8134
▁특이한	-10.8134
하우스	-10.8135
▁압니더	-10.8135
▁모릅니더	-10.8136
▁복근	-10.8136
▁새롭	-10.8137
▁실제	-10.8137
▁공짜	-10.8138
▁형식	-10.8138
▁걸리는	-10.8139
▁돌아갈	-10.814
▁20%	-10.814
▁갈챠	-10.814
▁찾으시는	-10.814
▁벌금	-10.814
▁홍보	-10.8141
▁반가웠	-10.8141
▁요리사	-10.8142
▁주부터	-10.8143
▁모르겄어예	-10.8143
해주실	-10.8144
▁기차표	-10.8144
▁첫날	-10.8145
▁부럽	-10.8145
▁강화	-10.8145
▁현대	-10.8146
▁말하기	-10.8146
▁실행	-10.8147
▁없다카이	-10.8147
▁수선	-10.8148
▁외모	-10.8148
▁갈지	-10.8148
▁어묵	-10.8148
▁공연이	-10.8149
▁맡길	-10.815
▁쌤	-10.8153
▁받으실	-10.8156
드니	-10.8156
▁사랑에	-10.8157
▁고마워예	-10.8158
▁그렇습니꺼	-10.8162
▁서운	-10.8162
▁모르지만	-10.8162
▁장르	-10.8163
▁길릴	-10.8163
▁보냈어예	-10.8165
▁필요합니꺼	-10.8168
,500	-10.8169
▁샀다	-10.8169
▁미안해예	-10.817
▁주문할게예	-10.8171
보세요	-10.8171
▁30,000	-10.8175
▁누구한테	-10.8176
▁느리	-10.8186
▁와스	-10.8189
▁달려	-10.819
▁커트	-10.8192
▁자정	-10.8196
▁친구들한테	-10.8196
▁뭇다	-10.8197
켜	-10.8201
▁전화기	-10.8202
▁아동	-10.8204
▁화상	-10.8204
▁팝니	-10.8214
▁내릿	-10.8221
▁없었데이	-10.8222
▁""	-10.8222
쉬	-10.8223
즉	-10.8224
▁휴지	-10.8225
▁있어스	-10.8226
악	-10.8227
▁올라오	-10.8234
▁지워	-10.8237
달에	-10.824
웠습니더	-10.8243
카는데	-10.8249
▁갈차	-10.825
▁행동이	-10.8256
▁유일	-10.8258
▁유아	-10.8258
왔어예	-10.8265
▁선적	-10.8266
▁중심	-10.827
▁큰일	-10.8272
동에	-10.8273
시럽	-10.8273
▁도서관에서	-10.8276
▁더버	-10.8289
▁운전할	-10.829
▁와주이소	-10.8291
▁바르는	-10.8297
▁되겄	-10.83
▁자가	-10.8306
▁게다가	-10.8311
▁달라예	-10.8323
▁삭제	-10.8329
▁작품이	-10.8329
▁뭐라고	-10.833
▁않으시	-10.8338
▁비교	-10.8346
▁따라스	-10.836
▁걸렸	-10.8371
▁생기면	-10.8376
▁연예인들	-10.838
▁취소해야	-10.8383
▁찾아볼	-10.8386
▁아니데이	-10.8394
▁지치	-10.8396
ce	-10.8397
▁좋네	-10.8398
▁어데까지	-10.8405
▁될지	-10.8412
측	-10.8415
▁듯한	-10.842
▁유치원	-10.8421
▁의자를	-10.8423
▁외국인들	-10.8424
골	-10.8427
▁싶고	-10.8444
▁회의에	-10.8445
▁있어가꼬예	-10.8447
하려	-10.8461
▁웹사이트	-10.8462
대예	-10.847
▁주소로	-10.8475
▁상해	-10.8487
▁로비	-10.8487
▁계산서	-10.849
▁안전한	-10.8498
▁먹어보	-10.85
▁후로	-10.8501
▁클럽에	-10.8504
▁즌부	-10.8504
▁착용해	-10.8504
▁뒀	-10.8515
▁취소할	-10.8516
끔	-10.8517
짤	-10.852
▁청소기	-10.852
▁숙소에	-10.8523
▁들어갔	-10.8525
▁시대	-10.8526
▁뻘건	-10.8527
밸	-10.8527
폴	-10.8529
+	-10.8529
▁깜장색	-10.8529
▁떠오르	-10.8529
▁스타벅스	-10.8529
▁시끄럽	-10.8529
▁싫으	-10.8529
▁씁니더	-10.8529
▁앨범	-10.8529
▁억쑤로	-10.8529
▁짬뽕	-10.8529
롬	-10.8529
밍	-10.8529
푼	-10.8529
▁여쭤보	-10.8529
▁장애인	-10.8529
▁해열제	-10.8529
▁섭취	-10.8529
▁팝콘	-10.8529
▁모바일	-10.8529
▁배고프	-10.8529
▁시리즈	-10.8529
▁데리러	-10.8529
▁댄스	-10.8529
▁칼로리	-10.8529
▁점검	-10.8529
▁때때로	-10.8529
▁맞챠	-10.853
▁설탕	-10.853
▁너희	-10.853
▁사귄	-10.8531
▁신상품	-10.8531
▁어딘	-10.8531
▁축하한데이	-10.8531
▁종합	-10.8532
▁햄	-10.8532
▁쓰레기통	-10.8533
mL	-10.8533
▁더욱더	-10.8533
▁입장권	-10.8534
▁하와이	-10.8535
▁할무이	-10.8536
▁리그	-10.8539
▁태도	-10.8539
▁빠질	-10.854
▁소파	-10.8541
▁AS	-10.8542
▁카레	-10.8543
▁119	-10.8543
▁규정상	-10.8545
▁좋아합니꺼	-10.8545
▁미루	-10.8546
▁퇴원하	-10.8549
▁열차는	-10.8549
▁양식	-10.855
▁엉	-10.855
▁뺄	-10.855
▁데서	-10.855
▁버거	-10.8551
마리	-10.8551
▁헷갈리	-10.8552
▁맞아요	-10.8552
셔가꼬	-10.8552
▁하실래예	-10.8553
▁테이블에	-10.8555
▁있든데	-10.8555
봤는디	-10.8555
▁노래방	-10.8557
▁묵었습니더	-10.8558
▁안되는	-10.8558
▁몰랐어예	-10.8558
▁샀습니더	-10.856
▁시티	-10.8561
느냐	-10.8562
▁찍어주이소	-10.8563
▁재질	-10.8565
▁뒤쪽	-10.8567
▁신용	-10.8572
▁쉬워	-10.8574
▁쥐	-10.8575
▁일났	-10.8576
sh	-10.8577
▁보통은	-10.8578
▁입어야	-10.858
▁했다이가	-10.8584
▁나타	-10.8586
▁신기	-10.8587
▁뜻이	-10.8592
▁같아서예	-10.8596
센터	-10.8597
▁그것들	-10.8597
▁말았	-10.86
▁연락해주이소	-10.8601
▁그렇지예	-10.8602
으로써	-10.8603
▁좋다꼬	-10.8604
▁됐노	-10.8609
▁안쪽	-10.861
▁잠시만예	-10.8611
▁이상하게	-10.8616
▁드릿	-10.8617
▁발급받	-10.8617
었네예	-10.8619
▁들었데이	-10.8621
▁외국에서	-10.8622
▁해수욕장	-10.8625
▁확인해주이소	-10.8627
▁편이라예	-10.863
▁내린	-10.8631
▁독서	-10.8631
▁해물	-10.8636
▁있었네예	-10.8637
옷	-10.864
▁호주에	-10.8641
줘	-10.8642
컵	-10.8642
▁않았데이	-10.8646
▁편안하	-10.8647
▁가볼	-10.8652
▁않기	-10.8654
▁비치	-10.8657
▁고맙고	-10.8658
▁여자한테	-10.8659
▁도바주	-10.8668
▁냉장고에	-10.8676
▁돼서	-10.868
▁동기	-10.868
▁피곤할	-10.8682
▁건물에	-10.8689
▁모양이	-10.8697
▁이하	-10.8701
▁힘들데이	-10.8703
▁대학생이	-10.8703
역에스	-10.8704
▁심하	-10.8704
▁먹지	-10.8707
하긴	-10.8708
▁울고	-10.8716
▁코드	-10.8717
▁주위에	-10.872
▁상사	-10.8721
▁심각하	-10.8724
▁매니저	-10.8728
짱	-10.8733
뚝딱	-10.8733
▁멀지	-10.8735
▁미래에	-10.874
▁학교까지	-10.8741
▁일행	-10.8748
▁못해가	-10.8758
▁드릴게요	-10.8758
기라예	-10.876
▁야기	-10.876
댕기	-10.8763
▁느끼는	-10.8764
▁눈물	-10.877
있나	-10.8771
▁본다	-10.8773
15	-10.8774
볼래	-10.8775
▁줘서	-10.8776
▁변경이	-10.8777
▁배송해	-10.8785
▁가능하고	-10.8792
▁않나예	-10.88
▁뒤쪽에	-10.8804
▁통증	-10.8807
▁살피	-10.8811
▁계산하고	-10.8831
▁능력이	-10.8833
▁지구	-10.8845
해주는	-10.8845
▁보지	-10.8851
▁습	-10.8866
간다	-10.8868
▁나와서	-10.8871
▁주문하실	-10.8872
셨나예	-10.8872
▁난데이	-10.8873
pe	-10.8874
지마는	-10.8879
▁구비	-10.888
▁해주시고	-10.8896
▁대학생	-10.8899
▁탈라	-10.8903
▁확실하	-10.8911
▁사라졌	-10.8912
▁중독	-10.8917
▁쪽이	-10.8919
▁말해야	-10.8922
밤에	-10.8923
▁김에	-10.8929
▁미안하	-10.893
례	-10.8932
▁소통	-10.8935
▁해주시면	-10.8936
쁠	-10.8937
략	-10.8937
뷰	-10.894
농	-10.8941
▁SNS	-10.8941
▁고속도로	-10.8941
▁공항뻐스	-10.8941
▁깜박	-10.8941
▁녹차	-10.8941
▁대통령	-10.8941
▁마카롱	-10.8941
▁모닝콜	-10.8941
▁몸무게	-10.8941
▁캤는데	-10.8941
▁캤습니더	-10.8941
▁컨디션	-10.8941
▁파운데이션	-10.8941
캡	-10.8941
▁글쿠나	-10.8941
▁블로그	-10.8941
▁여드름	-10.8941
▁캅니더	-10.8941
▁일어날	-10.8941
▁수하물	-10.8942
▁잔뜩	-10.8942
▁카톡	-10.8942
▁그다음	-10.8942
▁빈자리	-10.8942
▁재미없	-10.8942
▁정수기	-10.8943
▁운임	-10.8943
▁결론	-10.8943
▁토론	-10.8944
▁드립니데이	-10.8944
▁잔돈	-10.8944
▁휴무	-10.8944
▁싸움	-10.8945
▁어려븐	-10.8945
▁신중하	-10.8946
▁신제품	-10.8947
▁CD	-10.8947
▁단추	-10.8947
▁마침내	-10.8948
▁좋겠심더	-10.8948
▁포크	-10.895
▁사랑하지	-10.8951
▁윗	-10.8951
▁아쉽지만	-10.8952
▁카데예	-10.8953
▁멀미	-10.8954
▁달아	-10.8954
▁나왔다	-10.8957
▁가격표	-10.896
▁비닐	-10.8961
▁보고싶	-10.8961
▁드갈	-10.8962
▁톰	-10.8964
▁가능하다면	-10.8964
▁사주	-10.8966
▁얼마인가예	-10.8967
▁넣어주이소	-10.8969
▁비키	-10.8971
▁됐십니더	-10.8971
▁느거	-10.8973
▁보조	-10.8973
▁평소보다	-10.8976
▁돌아와	-10.8979
▁고객센터	-10.8979
▁마셨	-10.8983
▁우정	-10.8983
▁임시	-10.8983
▁부모	-10.8984
et	-10.8985
▁얼마입니꺼	-10.8987
▁기초	-10.8989
▁기라꼬	-10.899
▁기제	-10.899
▁위주	-10.899
▁배차	-10.8991
▁20,000	-10.8994
▁진실	-10.8997
▁음주	-10.8999
▁도착했어예	-10.9001
▁마찬가지로	-10.9001
▁고객이	-10.9003
▁인제	-10.9004
▁경력	-10.9005
▁진행할	-10.9012
▁암것	-10.9012
▁않는다믄	-10.9013
▁놓은	-10.9015
▁수박	-10.902
▁유물	-10.9024
▁필기	-10.9033
▁갈아	-10.9035
▁모시	-10.9039
르브	-10.9041
▁응원해	-10.9043
▁측에	-10.9054
▁도시에서	-10.9055
▁중에스	-10.9058
▁날이라예	-10.9059
▁말입니꺼	-10.9059
▁밀리	-10.906
접	-10.9067
▁드브	-10.9067
끝	-10.9068
▁캐나다에	-10.907
X	-10.9071
Y	-10.9071
▁출발할	-10.9071
푸	-10.9072
▁고프	-10.9082
▁모르겄	-10.9084
▁이제부터	-10.9084
▁여동생이	-10.9085
▁재미있었	-10.9091
음식	-10.9098
▁그녀와	-10.9101
▁나가면	-10.9105
▁몰라가꼬	-10.9107
건데	-10.9108
▁효	-10.9108
셨는데	-10.9109
▁먹어야	-10.9112
▁50,000	-10.9113
▁경우에	-10.9116
▁예방	-10.9119
▁기대되	-10.912
▁일으	-10.9122
▁걸립니	-10.9141
▁고려해	-10.9148
하라고	-10.9148
종일	-10.9149
▁다니고	-10.9151
뚝	-10.9153
▁좋지예	-10.9153
▁내리믄	-10.9156
▁행운	-10.9165
▁났다	-10.917
▁운전해	-10.9171
▁건데예	-10.9171
▁글어	-10.9173
▁분들은	-10.9182
▁써도	-10.9185
줬으면	-10.9186
▁들으가	-10.9187
병원	-10.9194
▁해주고	-10.9197
해바라	-10.9198
▁기부	-10.92
▁노력하고	-10.92
탑	-10.9222
▁않겄	-10.9226
▁보내주시	-10.9227
▁표정	-10.9229
▁유행하	-10.924
▁군대에	-10.9243
원씩	-10.9244
▁주시는	-10.9244
▁미만	-10.9247
▁첨에	-10.925
해줘	-10.9253
▁하셔	-10.9258
▁생각이다	-10.9259
▁감사하고	-10.9264
▁장만	-10.9266
▁좁	-10.927
▁전자	-10.927
▁여러분들	-10.9272
낀	-10.9275
▁떼	-10.9277
▁되서	-10.9281
▁귀하	-10.9284
▁조명	-10.9291
▁비주	-10.9294
할라카는데	-10.9295
킬	-10.9299
주시기	-10.9307
▁좋기	-10.9308
▁대화할	-10.9308
▁감정이	-10.933
▁지불하	-10.9334
▁갈비	-10.9339
▁제시	-10.934
욱	-10.9345
▁깊이	-10.9347
▁바꾸는	-10.9351
▁되었다	-10.9362
▁지하철에서	-10.9366
껀	-10.9369
de	-10.937
▁운전면허	-10.937
q	-10.937
▁지점	-10.9371
@	-10.9371
▁FedEx	-10.9371
▁배드민턴	-10.9371
▁블라우스	-10.9371
▁여쭤봐	-10.9371
▁초록색	-10.9371
▁콧물	-10.9371
롱	-10.9371
믹	-10.9371
밧	-10.9371
벼	-10.9371
샷	-10.9371
셈	-10.9371
캣	-10.9371
헨	-10.9371
▁스트레칭	-10.9371
렬	-10.9371
릉	-10.9371
▁오징어	-10.9371
▁짜장면	-10.9371
▁케이블	-10.9371
▁데이비드	-10.9371
▁봉투	-10.9371
▁면허	-10.9371
▁블랙	-10.9371
▁함부로	-10.9372
▁복싱	-10.9372
▁채팅	-10.9373
▁학습	-10.9373
▁과외	-10.9374
▁가을에	-10.9375
▁바랄	-10.9376
▁반송	-10.9377
▁첫째	-10.9377
▁쪼까	-10.938
냅니더	-10.938
▁울산	-10.938
▁진작	-10.938
▁위반	-10.9381
▁회화	-10.9381
▁머리카락	-10.9382
▁감사해예	-10.9382
▁욕심	-10.9382
▁대충	-10.9384
▁아닌가예	-10.9384
▁맛볼	-10.9384
밨는데	-10.9385
▁다가오	-10.9388
▁사이드	-10.9388
▁채워	-10.9392
▁의자에	-10.9392
▁있겠노	-10.9394
▁종점	-10.9394
▁나름	-10.9395
▁구체적으로	-10.9395
으이소	-10.9395
▁않았으	-10.9395
▁부품	-10.9396
▁않았십니더	-10.9399
▁빡시게	-10.9399
▁인식	-10.9399
▁알려드리	-10.9401
주시겠어요	-10.9402
▁있길	-10.9403
뿠다	-10.9403
▁싶었어예	-10.9404
▁만났어예	-10.9406
▁어케	-10.9406
▁원두	-10.9406
▁구운	-10.9406
▁있지먼	-10.9408
▁승인	-10.9411
이라서예	-10.9414
봐예	-10.9415
▁있으시면	-10.9415
▁하모	-10.9423
▁진료비	-10.9424
왔던	-10.9425
▁북한	-10.9426
▁기간에	-10.9437
▁보내주시믄	-10.9442
▁개안습니더	-10.9442
▁누르면	-10.9443
▁미니	-10.9443
▁진지하	-10.9444
▁계속해서	-10.9449
▁생각했다	-10.945
▁몰랐데이	-10.9452
▁칭구들	-10.9456
맨치	-10.9458
이기도	-10.9462
▁했네예	-10.9465
▁정오	-10.9469
▁붙어있	-10.947
▁가루	-10.947
▁이곳에서	-10.9479
▁나오믄	-10.9486
▁입었	-10.9493
▁예약해야	-10.9493
▁사이가	-10.9499
▁불가능한	-10.95
▁세트에	-10.9502
▁지불해	-10.9507
▁넣을	-10.9508
▁상당	-10.9517
얼	-10.9521
암	-10.9522
했어요	-10.9523
▁포장지	-10.9523
▁상한	-10.9531
뿐이	-10.9533
시킬	-10.9534
결제	-10.9535
▁지나믄	-10.9539
▁경찰에	-10.9541
▁구비되	-10.9542
▁거죠	-10.9543
왔데이	-10.9545
▁세아	-10.9548
▁꺼다	-10.9552
▁장비	-10.9555
▁포함해가	-10.9557
▁힘들고	-10.9557
분까지	-10.9557
▁이야기해	-10.9558
▁기능이	-10.9571
었심더	-10.9575
▁급하	-10.9576
▁여분	-10.9579
▁즈희한테	-10.9591
▁못했어예	-10.9599
▁달리기	-10.9604
▁전원을	-10.9609
▁좋드라	-10.9611
있데이	-10.9612
하겄십니더	-10.9616
▁사람들과	-10.9617
키로	-10.964
공학	-10.9654
었으믄	-10.9655
▁부스	-10.966
▁몰라가	-10.9661
▁남동생이	-10.9671
ing	-10.9678
▁X	-10.9681
▁싸고	-10.9684
▁오니까	-10.9686
▁했어요	-10.9687
▁크다	-10.969
▁사랑하고	-10.9698
▁그라니까	-10.971
리아	-10.9717
향이	-10.9718
▁작동이	-10.9718
▁물래	-10.9722
▁한다믄	-10.9726
▁보내야	-10.9726
ma	-10.9733
▁있던데	-10.9734
▁깨지	-10.9748
▁상처를	-10.9751
▁수정할	-10.9757
▁지난번	-10.976
▁적혀	-10.9766
▁비싸다	-10.9773
이에요	-10.9776
▁추가해	-10.9779
▁제출하	-10.9783
▁정확하	-10.9791
▁헷갈	-10.9794
▁구조	-10.9796
▁문서	-10.9805
즘	-10.9806
릿는데	-10.9815
▁싶었다	-10.9817
낭	-10.9817
얘	-10.9819
▁삽니	-10.9819
▁수술이	-10.9819
눌	-10.982
겉	-10.982
칭	-10.982
훈	-10.982
삭	-10.982
죄	-10.9821
꼼	-10.9821
햇	-10.9821
·	-10.9821
▁관광뻐스	-10.9821
▁기쁩니더	-10.9821
▁낍니꺼	-10.9821
▁낮잠	-10.9821
▁넓어	-10.9821
▁뒷자리	-10.9821
▁러닝머신	-10.9821
▁비빔밥	-10.9821
▁섞어	-10.9821
▁스페셜	-10.9821
▁읽기	-10.9821
▁잃었	-10.9821
▁재발급	-10.9821
▁프린터	-10.9821
▁피드백	-10.9821
놈	-10.9821
닉	-10.9821
멘	-10.9821
숩	-10.9821
잎	-10.9821
▁미끄러	-10.9821
▁농담	-10.9821
▁머시마	-10.9821
▁베이징	-10.9821
▁햇빛	-10.9821
▁소비자	-10.9821
▁디즈니랜드	-10.9821
▁액션	-10.9821
▁맞은편	-10.9821
▁범위	-10.9821
▁동일한	-10.9821
▁사우나	-10.9821
▁태워	-10.9821
▁태우	-10.9821
▁엉망	-10.9821
▁워터	-10.9821
야말로	-10.9821
▁리포트	-10.9821
▁비슷하	-10.9821
▁트럭	-10.9822
합시데이	-10.9822
▁어려버예	-10.9822
▁뜨거운	-10.9822
▁파악	-10.9822
▁견인	-10.9822
▁포스터	-10.9822
▁어쩌	-10.9822
▁욕조	-10.9823
▁엄청난	-10.9823
▁소풍	-10.9824
▁바쁠	-10.9825
▁도와드리겠십니더	-10.9825
▁설레	-10.9826
▁절반	-10.9827
▁올라갈	-10.9828
▁여섯	-10.9828
▁성당	-10.9831
되겠나	-10.9831
▁가입시더	-10.9831
▁매매	-10.9833
▁커버	-10.9835
▁유료	-10.984
▁준비되가	-10.9841
▁도난	-10.9842
▁당구	-10.9843
▁있단다	-10.9845
▁결심	-10.9845
머니	-10.9845
▁야경	-10.9847
▁왔으예	-10.9851
▁감명	-10.9852
▁괜찮아예	-10.9855
▁시설이	-10.9858
거든요	-10.9861
▁전화할게예	-10.9862
▁뿌듯	-10.9864
▁없기	-10.9864
▁알약	-10.9864
▁마차	-10.9866
▁가제이	-10.9866
▁조치	-10.9867
▁누구보다	-10.9867
▁언니야	-10.9869
▁최소한	-10.9872
▁알았습니더	-10.9872
▁했제	-10.9877
▁가께	-10.9877
▁돌봐	-10.9879
▁참치	-10.9882
▁인생에	-10.9884
▁부부	-10.9886
▁꼴	-10.9888
▁27	-10.9888
▁상점	-10.9894
▁그렇네예	-10.9895
▁도착했습니더	-10.9895
▁가셔야	-10.9898
▁계약서	-10.9903
▁없으이	-10.9907
▁드셨	-10.9915
▁부디	-10.9923
▁찾아야	-10.9924
▁강남역	-10.9924
버릴	-10.9925
원짜리	-10.9925
▁지났는데	-10.9933
▁마시믄	-10.9937
▁호수	-10.9937
▁라인	-10.9938
▁아인디	-10.9943
▁찾아왔	-10.9944
▁우주	-10.9944
▁도와준	-10.9944
▁건너편에	-10.9944
▁먼지	-10.9948
으신	-10.9952
▁듣기로	-10.9954
▁식감	-10.9954
▁복용하	-10.9955
▁무사	-10.9956
▁자꼬	-10.9959
▁해줘	-10.996
때까지	-10.9967
해주시고	-10.9969
▁초대해	-10.9971
▁그립	-10.9974
▁됐데이	-10.9976
▁같으	-10.9976
▁좋아하나	-10.9984
귀	-10.9984
▁맛있어예	-10.9984
끌	-10.9988
▁배달해	-10.9992
땐	-10.9992
맥	-10.9992
팔	-10.9993
패	-10.9993
▁싶지만	-10.9993
쓸	-10.9993
빈	-10.9993
깁니꺼	-10.9995
잘	-10.9997
▁취하	-10.9998
시켜	-11.0007
▁델	-11.0008
▁시도해	-11.0013
▁이곳에	-11.0016
▁하셨는데	-11.0017
▁소식이	-11.0032
▁말이데이	-11.0034
▁마련되	-11.0049
했으이	-11.0057
상품	-11.0057
▁소년	-11.0058
▁속에서	-11.0062
▁주문했	-11.0066
▁되긋	-11.007
준다꼬	-11.008
요금	-11.0085
▁늘어	-11.0087
했었는디	-11.0092
으시면	-11.0097
▁입맛	-11.0109
해주시는	-11.0116
000	-11.0117
줘야	-11.0121
▁좋아졌	-11.013
▁구분	-11.0131
▁저쪽에	-11.0131
시간이나	-11.0138
▁36	-11.014
하셨습니꺼	-11.0145
▁주문해야	-11.0168
▁할인받	-11.0168
▁기다리면	-11.0172
▁죄송하지만예	-11.0173
▁화나	-11.0179
냅	-11.0185
▁이태원에	-11.0191
드라고예	-11.0195
▁들으면	-11.0197
▁답이	-11.0203
▁피해가	-11.0206
▁같으이	-11.0218
▁처방받	-11.0224
해주셔가	-11.0228
꽃	-11.0237
▁열리	-11.0251
보재이	-11.0252
▁호텔까지	-11.0257
▁빡시	-11.0264
▁벗어	-11.0266
나무	-11.0269
챠	-11.028
▁산다	-11.0284
있습니꺼	-11.0285
칙	-11.0287
▁체육	-11.0288
슷	-11.029
쟈	-11.0291
▁끊어	-11.0291
▁낮아	-11.0291
▁놀랬	-11.0291
▁리모컨	-11.0291
▁마케팅	-11.0291
▁많기	-11.0291
▁머릿결	-11.0291
▁믿는다	-11.0291
▁벚꽃	-11.0291
▁언젭니꺼	-11.0291
▁옆으로	-11.0291
▁요렇게	-11.0291
▁자존심	-11.0291
▁클래식	-11.0291
▁탕수육	-11.0291
됨	-11.0291
샌	-11.0291
찐	-11.0291
툴	-11.0291
▁뜯어	-11.0291
▁셔틀	-11.0291
▁싱싱	-11.0291
▁고마워	-11.0291
▁오사카	-11.0291
▁조만간	-11.0291
▁휴게실	-11.0291
▁농장	-11.0292
▁트윈	-11.0292
▁으렵	-11.0292
▁금융	-11.0292
▁가능합니까	-11.0292
▁토핑	-11.0292
▁토익	-11.0292
▁어려움	-11.0292
▁리필	-11.0293
▁상쾌	-11.0293
▁접속	-11.0293
▁우떤	-11.0293
▁커피숍	-11.0293
▁커튼	-11.0294
▁미안합니다	-11.0294
▁신호등	-11.0294
▁소변	-11.0294
▁택배사에	-11.0295
▁양고기	-11.0295
▁식후	-11.0295
▁계열	-11.0295
▁알다시피	-11.0296
▁향기	-11.0296
▁돌아다니	-11.0296
▁잠들었	-11.0297
▁감각	-11.0297
▁없네	-11.0297
▁출산	-11.0297
▁가능해예	-11.0298
더라구예	-11.0299
▁구매하시	-11.0299
▁있으몬	-11.0303
▁담임	-11.0304
▁걸어갈	-11.0305
▁마세요	-11.0305
▁특정	-11.0305
▁필수	-11.0306
▁물고기	-11.0306
▁형제	-11.0308
▁기쁘데이	-11.0308
▁승진	-11.0308
▁있으이께	-11.0309
▁특성	-11.0311
▁부끄러	-11.0312
▁친절하게	-11.0313
▁반대편에	-11.0316
▁공식	-11.032
▁건축	-11.0321
▁전액	-11.0322
▁소모	-11.0323
▁마중	-11.0324
▁화물	-11.0324
▁해드릴께예	-11.0324
▁바까주이소	-11.0328
▁고백	-11.0334
▁있었으예	-11.0334
▁반성	-11.0336
▁요구하	-11.0337
여가꼬	-11.034
▁생각합니다	-11.0341
▁조용	-11.0341
▁매트	-11.0343
▁바꿀라꼬	-11.0344
▁전보다	-11.0344
▁괜찮아	-11.0345
▁흰	-11.0345
주시겠	-11.0346
▁드신	-11.0347
▁군인	-11.035
▁문제집	-11.035
▁자식	-11.0352
▁시작했어예	-11.0354
▁금요일까지	-11.0356
▁해당하는	-11.0356
▁미치	-11.0357
▁시작했습니더	-11.036
▁구입	-11.0362
▁중요하다	-11.0368
▁방학이	-11.037
▁알리줄	-11.0374
▁무봐	-11.038
▁가구	-11.0384
▁$1	-11.0389
▁환불받	-11.0391
▁전해주이소	-11.0393
▁필요하데이	-11.0394
▁부치	-11.0396
▁왔노	-11.04
▁간다꼬	-11.0405
할끼라	-11.0406
▁한국에스	-11.0407
▁예쁘고	-11.0411
▁확인되	-11.0412
▁예정이고	-11.0416
▁모임에	-11.0423
▁술집	-11.0425
▁소개하	-11.0426
▁곳이라	-11.0428
▁관해서	-11.043
▁들러	-11.0434
▁틈	-11.0436
▁원한다	-11.044
▁복잡하	-11.044
▁시작하기	-11.0444
▁잡았	-11.0445
▁샤	-11.0447
▁보신	-11.0447
▁저래	-11.0447
▁걸까예	-11.0451
▁경제	-11.0458
▁지식	-11.0463
▁팬들	-11.0465
▁나아지	-11.0477
▁있꼬	-11.0477
▁오래전	-11.0481
▁음식들	-11.0481
▁달라지	-11.0484
▁기쁘	-11.0485
앞	-11.0487
▁많은디	-11.0488
끈	-11.049
첨	-11.049
▁케서	-11.0491
▁받아가꼬	-11.0492
▁사이트에	-11.0494
▁으른들	-11.0495
▁예약했습니더	-11.0499
▁쪽에서	-11.0506
▁저보다	-11.052
보입시더	-11.0521
하겠습니데이	-11.0521
▁참여하	-11.0525
▁사정	-11.0526
ay	-11.053
▁여긴	-11.0532
▁웃고	-11.0537
▁대중	-11.0539
▁있다니	-11.054
▁서점에	-11.0541
▁전문가	-11.0541
40	-11.055
▁가주이소	-11.0552
미처	-11.056
▁익숙	-11.0561
▁없제	-11.0562
▁발목이	-11.0569
▁하든데	-11.0571
▁도장	-11.0575
▁표정이	-11.0576
▁정원	-11.0592
▁늘리	-11.0593
해보는	-11.0594
▁개별	-11.0609
▁일하기	-11.0626
▁운행하	-11.0636
▁공부하기	-11.0638
▁스테	-11.0651
왔습니더	-11.0669
▁첨이라	-11.0681
▁마시면	-11.0692
좋	-11.0695
슴니더	-11.0696
▁만나믄	-11.0708
놨는데	-11.0708
▁추천하는	-11.0724
되었십니다	-11.0735
▁가다	-11.074
▁150	-11.0741
▁맹글	-11.0744
▁회장	-11.0762
▁나가기	-11.0764
▁응급	-11.0767
곱	-11.0772
있었	-11.0773
▁잃어	-11.0775
▁뭔데	-11.0778
되었으믄	-11.0781
엽	-11.0783
다시피	-11.0785
=	-11.0785
>	-11.0785
▁LED	-11.0785
▁게스트하우스	-11.0785
▁느낍니더	-11.0785
▁드레싱	-11.0785
▁뽀로로	-11.0785
▁인테리어	-11.0785
▁최신	-11.0785
▁태어난	-11.0785
▁텀블러	-11.0785
웰	-11.0785
찔	-11.0785
컷	-11.0785
켄	-11.0785
싯	-11.0785
▁항생제	-11.0785
▁스토리	-11.0785
▁관광객들	-11.0785
▁얼룩	-11.0785
▁로봇	-11.0785
▁버섯	-11.0786
▁적극적	-11.0786
▁괜찮으시	-11.0786
▁특징	-11.0786
▁관객	-11.0786
▁필름	-11.0787
▁뻘건색	-11.0787
▁부족해가	-11.0787
▁삽니더	-11.0787
▁두통이	-11.0787
▁음청	-11.0788
▁끝낼	-11.0788
▁쇼핑백	-11.0788
▁밤새	-11.0789
▁떠올	-11.0789
▁프리	-11.0789
▁인턴	-11.0789
▁미스터	-11.079
▁설계	-11.079
▁구매하는	-11.079
▁경영	-11.0791
▁다운받	-11.0791
▁지루해	-11.0791
▁입장료	-11.0792
▁헤드	-11.0792
▁절약	-11.0793
▁살라카는데	-11.0793
▁실천	-11.0793
▁선배	-11.0794
▁태아	-11.0796
▁뜨그	-11.0796
▁양파	-11.0797
▁공급	-11.0797
▁채우	-11.0797
▁무서워	-11.0797
▁불법	-11.0797
▁패드	-11.0798
▁맞습니까	-11.0798
▁일곱	-11.0799
해쓰예	-11.0799
▁착각했	-11.08
▁뭇어예	-11.08
▁치약	-11.0801
▁의사소통	-11.0801
▁말씀드릴게예	-11.0801
▁보내주실	-11.0802
▁있읐	-11.0803
▁그란디	-11.0805
▁매븐	-11.0806
▁줬어예	-11.0807
▁응급실	-11.0807
▁학생회	-11.0808
▁테이께	-11.081
▁이용권	-11.081
▁힘드네예	-11.0811
▁대피	-11.0811
▁우울하	-11.0812
▁찾아갈	-11.0812
▁그렇십니더	-11.0814
▁무본	-11.0815
▁전망대	-11.0815
▁맞십니다	-11.0816
▁55	-11.0817
▁이용하실	-11.0818
▁구워	-11.082
▁물감	-11.0821
▁그랬다	-11.0821
▁무엇보다	-11.0821
▁어데쯤	-11.0822
▁쇼핑센터	-11.0825
▁설사	-11.0826
▁안내소	-11.0826
▁보였	-11.0827
▁국어	-11.0827
▁상관없습니더	-11.0828
▁기다리시면	-11.0829
▁갔는디	-11.0833
▁강의실	-11.0834
▁국수	-11.0835
▁마르	-11.0835
▁아입니다	-11.0837
율이	-11.0839
▁욕실	-11.0843
▁붓	-11.0844
▁빈다	-11.0848
▁기념일	-11.0849
▁같아가꼬예	-11.0853
▁괜찮은데	-11.0853
▁들려	-11.0858
▁개안으신가	-11.0859
▁도착하기	-11.0862
▁두피	-11.0864
▁아니지예	-11.0864
▁싶으예	-11.0865
▁주문하시믄	-11.0869
▁없으스	-11.0873
▁처방	-11.0875
오면	-11.0885
▁불편할	-11.0887
▁마셔	-11.0889
▁언젠가	-11.0891
▁주연	-11.0896
▁잡히	-11.0896
▁들믄	-11.0897
▁곤란	-11.09
▁왔네예	-11.0905
주래이	-11.091
인치	-11.0914
었노	-11.0915
▁줄여	-11.0936
▁분량	-11.0936
사람들	-11.0942
▁공원에서	-11.0947
▁요리하는	-11.0957
으며	-11.0959
▁파스	-11.0965
▁망고	-11.0967
▁비는디	-11.0972
▁오라고	-11.0977
▁추천해줄	-11.0978
▁추천하고	-11.098
존	-11.0982
오이소	-11.0984
페	-11.0996
▁됐는데	-11.0999
깨	-11.1
굴	-11.1004
▁영문	-11.1007
콜	-11.1009
바람	-11.1009
▁나오나	-11.101
▁긴장되	-11.1017
관계	-11.1025
▁귀찮아	-11.1038
)	-11.1041
▁다음부터	-11.1046
▁되지만	-11.1051
문제	-11.1057
▁아닐	-11.1059
▁미국에서	-11.1067
▁온다고	-11.1067
▁없다믄	-11.1075
▁90	-11.1095
▁편하다	-11.1095
야겠어예	-11.1113
▁말합니더	-11.1115
▁문제점	-11.113
▁지나갔	-11.1131
그따	-11.1134
▁마시지	-11.1148
▁이용하믄	-11.115
관리	-11.1154
▁가십니꺼	-11.1164
▁되가있	-11.1164
▁방수	-11.1182
▁묵는데	-11.1183
하니라	-11.1189
▁싫어하	-11.1202
▁모르는데	-11.1211
▁소개할	-11.1211
▁가끔	-11.123
랬	-11.1244
닌	-11.125
▁물품이	-11.1254
▁알리줄게	-11.1271
떤	-11.1295
▁귀사에	-11.13
▁많아지	-11.13
센트	-11.1301
캔	-11.1301
룰	-11.1302
▁그짓말	-11.1305
▁걔네	-11.1305
▁겨울방학	-11.1305
▁고렇지	-11.1305
▁고속뻐스	-11.1305
▁독특한	-11.1305
▁딸아	-11.1305
▁믿음	-11.1305
▁샌프란시스코	-11.1305
▁생일파티	-11.1305
▁세관신고서	-11.1305
▁애완동물	-11.1305
▁챔피언	-11.1305
▁칫솔	-11.1305
▁태권도	-11.1305
▁트러블	-11.1305
▁패스트푸드	-11.1305
▁향신료	-11.1305
꽁	-11.1305
앤	-11.1305
탓	-11.1305
페스티벌	-11.1305
▁베이컨	-11.1305
▁바닐라	-11.1305
▁에센스	-11.1305
▁줄넘기	-11.1305
▁훈련	-11.1305
▁내일모레	-11.1305
▁에너지	-11.1305
▁즐급	-11.1305
▁보라색	-11.1305
▁고구마	-11.1305
▁진단서	-11.1305
▁즐그	-11.1305
▁축복	-11.1305
▁무언가	-11.1305
엑	-11.1305
▁겹치	-11.1305
▁스비스	-11.1305
▁슬픈	-11.1305
▁돌아댕기	-11.1306
▁조금씩	-11.1306
▁액체류	-11.1306
십쇼	-11.1306
▁투숙	-11.1306
▁고마브예	-11.1306
▁알랴	-11.1306
▁계좌번호	-11.1307
▁그중에서	-11.1307
▁샤프	-11.1307
▁어려블	-11.1307
▁비어있	-11.1307
▁테니깐	-11.1307
▁가족끼리	-11.1308
▁PT	-11.1309
▁혹은	-11.1309
▁배낭	-11.1309
듭니꺼	-11.131
▁의외	-11.131
▁PC	-11.131
▁드리겄십니더	-11.131
▁어두운	-11.1311
▁단속	-11.1312
▁아웃	-11.1312
▁빌린	-11.1312
▁연속	-11.1312
▁실례합니데이	-11.1313
▁말씀해주시면	-11.1313
▁체중	-11.1316
▁죽음	-11.1316
▁감기약	-11.1316
▁학교생활	-11.1316
▁위생	-11.1316
▁인증	-11.1317
▁의류	-11.1317
▁전쟁	-11.1317
▁단품	-11.1317
▁식물	-11.1318
▁괜찮아요	-11.1318
▁구름	-11.1318
▁조금	-11.1319
벘어예	-11.1319
▁제공되는	-11.1319
▁임신	-11.132
▁완료되었	-11.1321
▁광주	-11.1321
▁지낸	-11.1323
▁만두	-11.1324
▁살기	-11.1325
▁어렵십니더	-11.1327
▁싶었는디	-11.1331
▁벗어나	-11.1333
▁걱정했는데	-11.1333
▁하든디	-11.1333
▁주의해야	-11.1334
버린	-11.1334
▁선정	-11.1334
▁벨트	-11.1334
▁바빠서	-11.1336
▁송장	-11.1336
▁가능하다믄	-11.1337
▁좋으니까	-11.134
▁발달	-11.134
잖아요	-11.1344
▁투자	-11.1344
▁지나치	-11.1344
▁없다아이가	-11.1345
▁드셔야	-11.1346
▁먹었어예	-11.1347
▁당연하지예	-11.135
▁싶으믄	-11.1351
▁개안치	-11.1352
▁연락할게예	-11.1355
▁키워	-11.1355
▁비는데	-11.1356
IT	-11.1357
▁견적서	-11.1358
▁전국	-11.1359
▁이자뿟	-11.1362
▁어려웠	-11.1365
버렸습니더	-11.1366
▁봐주이소	-11.1367
▁맞십니꺼	-11.1367
▁싶어가꼬예	-11.1367
▁있음	-11.1368
▁샤워실	-11.1368
▁그라는디	-11.1377
▁카트	-11.1382
다카던데	-11.1383
▁댕기왔	-11.1383
▁키우고	-11.1384
▁편인데	-11.1384
▁부담스럽	-11.1385
▁물어보자	-11.1385
▁교사	-11.1389
▁시원하	-11.1393
▁베개	-11.1398
했었어예	-11.1404
▁판매하는	-11.1414
▁거라서	-11.1416
▁주시고예	-11.1417
▁돌아가야	-11.1418
▁중요합니	-11.1419
▁좋아요	-11.1421
▁카네예	-11.1421
▁지난달	-11.1425
ap	-11.1427
▁서적	-11.1428
▁보내드릴	-11.1432
▁되었데이	-11.1437
▁마닐라에	-11.1437
▁아프데이	-11.1437
▁바끼	-11.1438
▁누구랑	-11.1443
▁유치원에	-11.1449
▁추브	-11.1454
▁주제로	-11.1455
▁죽기	-11.1458
▁목적	-11.1459
▁기종	-11.146
▁고른	-11.146
▁올래	-11.1478
▁입어볼	-11.1486
▁공항에스	-11.1494
▁풀리	-11.1495
▁못해가꼬	-11.1495
▁차이점	-11.1496
드릴테니	-11.15
▁그때까지	-11.1503
▁본사	-11.1505
하시겠습니꺼	-11.1513
▁가까버	-11.1514
▁계획입니더	-11.1514
▁노선도	-11.1518
▁전신	-11.1526
▁좋지만	-11.1529
▁되니	-11.153
못	-11.1535
▁극복	-11.1535
▁나갔다	-11.154
찍	-11.1541
▁걸릴까	-11.1541
▁고전	-11.1545
페이지	-11.1553
▁학생덜	-11.1554
▁통해서	-11.1558
16	-11.1558
▁사랑받	-11.1563
▁싶다고	-11.1563
명입니더	-11.1564
하셨다	-11.1566
▁행운이	-11.1567
옳	-11.1573
미터	-11.1576
문화	-11.1576
▁싶다카	-11.1583
브리	-11.1592
원입니데이	-11.1634
▁식기	-11.1635
▁사진들	-11.1638
할라고예	-11.1639
▁드갔	-11.164
▁예정이니	-11.1647
겄데이	-11.1713
▁팔리	-11.1717
▁안되나	-11.1724
▁카더라	-11.1731
▁웃기	-11.1741
▁간장	-11.1748
▁나왔던	-11.1757
▁많으니까	-11.1757
▁놓으	-11.1758
했었데이	-11.1759
주택	-11.1766
업체	-11.1778
▁스트레스받	-11.178
▁축하해주	-11.1789
웃	-11.1791
▁하든	-11.1809
원인데	-11.1826
▁구체적	-11.1827
19	-11.1833
깐	-11.1843
멋	-11.1844
깁	-11.1846
좌	-11.1847
콤	-11.1848
윽	-11.1849
릅니더	-11.1849
▁입원하	-11.185
▁왜냐	-11.185
텔	-11.185
붕	-11.1851
뜬	-11.1852
▁스마트	-11.1853
픽	-11.1853
겸	-11.1853
▁Fedex	-11.1853
▁갯벌	-11.1853
▁거스름돈	-11.1853
▁견과류	-11.1853
▁경복궁	-11.1853
▁녹음	-11.1853
▁대한민국	-11.1853
▁똑띠	-11.1853
▁룸메이트	-11.1853
▁보증금	-11.1853
▁슬리퍼	-11.1853
▁어쩐지	-11.1853
▁옵션	-11.1853
▁와그라냐믄	-11.1853
▁웨이터	-11.1853
▁초등학생	-11.1853
▁칵테일	-11.1853
▁파트너	-11.1853
▁퍼런색	-11.1853
▁협조	-11.1853
듀	-11.1853
륨	-11.1853
븟	-11.1853
쉐	-11.1853
쌈	-11.1853
엿	-11.1853
첸	-11.1853
풋	-11.1853
▁끔찍	-11.1853
▁놀이기구	-11.1853
▁동대문	-11.1853
▁서두르	-11.1853
▁모니터	-11.1853
▁열람실	-11.1853
▁펌프	-11.1853
▁하루하루	-11.1853
▁꽃다발	-11.1853
▁누군지	-11.1853
▁우회전	-11.1853
▁슨택	-11.1853
▁재입고	-11.1853
▁부지런	-11.1853
▁여기저기	-11.1853
▁게시판	-11.1853
갔노	-11.1853
▁벤치	-11.1853
▁공무원	-11.1853
▁누굽니	-11.1853
▁일상생활	-11.1853
▁해줍니더	-11.1854
▁맨들어	-11.1854
▁거래처	-11.1855
▁가루약	-11.1855
▁레슨	-11.1855
▁껀데	-11.1856
▁따듯	-11.1856
▁데뷔	-11.1856
▁적립금	-11.1856
▁종목	-11.1858
▁있다카던데	-11.1858
▁봉지	-11.1858
▁떠난	-11.186
▁출동	-11.186
▁알겠습니데이	-11.186
▁회색	-11.186
▁당근	-11.186
▁갖다드릴게예	-11.1861
▁매너	-11.1861
▁공격	-11.1862
▁조절해	-11.1862
▁나아질	-11.1863
▁아즉	-11.1863
퍼센트	-11.1864
▁채식	-11.1865
▁비누	-11.1865
▁동양	-11.1866
▁보관해	-11.1866
▁아침밥	-11.1866
▁동반	-11.1868
▁알겠심더	-11.1871
▁환승하는	-11.1871
▁나갑니더	-11.1872
▁시합	-11.1875
▁유명합니더	-11.1875
바퀴	-11.1878
▁귀신	-11.188
▁개강	-11.1883
▁기다리셔야	-11.1883
▁바빠예	-11.1884
드래이	-11.1885
▁들었십니더	-11.1885
▁먹방	-11.1886
▁샀던	-11.1886
▁몰겠노	-11.1886
OS	-11.1887
▁구매했는데	-11.1888
▁그르케	-11.1889
▁할인됩니더	-11.189
▁해봤는데	-11.189
▁있었는지	-11.1891
▁있잖아예	-11.1892
▁같네요	-11.1895
▁팩스	-11.1895
▁아쉬웠	-11.1896
▁일자리	-11.1897
▁누꼬	-11.1898
▁바위	-11.1898
▁귀사	-11.1901
겠다꼬	-11.1901
다아입니꺼	-11.1902
▁확인해보이소	-11.1903
▁이자뿌	-11.1907
▁오셨어예	-11.1909
▁났는데	-11.191
▁났습니더	-11.191
▁들여	-11.1911
▁괜찮습니더	-11.1912
▁싶다꼬	-11.1912
▁말이지예	-11.1915
▁후식으로	-11.1916
▁많았데이	-11.1921
▁불안하	-11.1922
▁시내까지	-11.1923
▁학생증	-11.1923
▁형태로	-11.1924
▁판매합니더	-11.1928
▁주문할라	-11.1928
▁빠스	-11.1931
▁걱정된다	-11.1932
문학	-11.1933
▁싶었데이	-11.1933
▁장치	-11.1935
▁조개	-11.1946
▁의상	-11.1952
▁편의점에서	-11.1955
▁묵습니더	-11.1958
▁중국인	-11.1959
▁차단	-11.1959
▁중이라가꼬	-11.196
▁멀리서	-11.196
▁사이트에서	-11.1966
▁의해	-11.1966
▁입어봐	-11.1966
▁주말이라	-11.1968
▁도구	-11.1969
▁깔끔	-11.1973
▁바빠	-11.1973
▁이해하지	-11.1979
▁깨끗한	-11.1981
▁놓아	-11.199
▁성공적	-11.2003
▁사장	-11.2005
갑네예	-11.2007
▁도서관서	-11.2011
▁인생에서	-11.203
▁나오기	-11.2033
▁연락드리	-11.2035
▁우울해	-11.2046
ho	-11.2053
▁좋아스	-11.2054
43	-11.2056
▁알지만	-11.2057
▁들으믄	-11.206
▁하나라예	-11.2061
▁입금해	-11.2062
▁비워	-11.2062
▁않노	-11.2063
▁댕기오	-11.2067
▁예약할라꼬	-11.2069
▁말했습니더	-11.2075
▁차갑	-11.2076
▁대상	-11.2082
▁변명	-11.2085
99	-11.2093
▁정비	-11.2097
▁있겠다	-11.2102
싰어예	-11.2112
▁먹는데	-11.2117
▁되제	-11.2119
▁동물들	-11.2122
▁조장	-11.2123
▁헤어졌	-11.2125
▁호텔에스	-11.2126
싸	-11.2127
시간씩	-11.2132
홀	-11.2132
칼	-11.2133
그룹	-11.2135
호텔	-11.2136
플레이	-11.2145
영화	-11.2151
▁아닐까	-11.2159
▁요청해	-11.2161
텐데	-11.2165
▁반납할	-11.2175
▁좋나	-11.2177
하께요	-11.218
달러입니더	-11.2187
▁재미있어	-11.2189
▁목적이	-11.2189
▁덜어	-11.219
▁노력해야	-11.2195
▁직진하	-11.2209
까봐	-11.222
▁디리	-11.2225
8,000	-11.2228
▁마싰	-11.2231
▁Ma	-11.2249
▁손해	-11.225
머신	-11.2262
바가꼬	-11.2264
▁책임지	-11.2267
▁뿐이다	-11.2269
▁달라가꼬	-11.2272
▁최선	-11.2275
▁생깄다	-11.2282
▁꼼꼼하	-11.2287
▁사랑한	-11.2295
▁지나면	-11.2307
해준다	-11.2309
겠습니까	-11.2339
▁모으	-11.2357
하셔가꼬	-11.2365
▁노력했	-11.2378
▁250	-11.2383
했더니	-11.239
▁위층	-11.2399
▁해결되	-11.2408
픈	-11.2413
▁해결할	-11.2414
▁집중해	-11.2419
렴	-11.2421
탁	-11.2423
숍	-11.243
뤄	-11.243
▁26	-11.2431
왼	-11.2431
뉴	-11.2431
핸	-11.2431
융	-11.2431
흠	-11.2432
이라카이	-11.2432
▁분덜	-11.2432
▁패키지	-11.2432
헐	-11.2432
겹	-11.2432
캅	-11.2432
]	-11.2433
맀	-11.2433
팟	-11.2433
▁CCTV	-11.2433
▁닮았	-11.2433
▁롯데월드	-11.2433
▁마스카라	-11.2433
▁모릅니	-11.2433
▁몸매	-11.2433
▁봉사활동	-11.2433
▁비쌉니더	-11.2433
▁스노클링	-11.2433
▁스튜디오	-11.2433
▁신혼여행	-11.2433
▁싫었	-11.2433
▁쌉니더	-11.2433
▁안타깝지	-11.2433
▁옆자리	-11.2433
▁옆쪽	-11.2433
▁오른짝	-11.2433
▁저렇게	-11.2433
▁캘리포니아	-11.2433
▁파인애플	-11.2433
▁핫도그	-11.2433
▁핸드	-11.2433
댔	-11.2433
똥	-11.2433
띠	-11.2433
빕	-11.2433
잼	-11.2433
쭈	-11.2433
퀸	-11.2433
틱	-11.2433
▁교통수단	-11.2433
▁코미디	-11.2433
쥬	-11.2433
▁칼슘	-11.2433
▁공통점	-11.2433
▁휴게소	-11.2433
▁깁니데이	-11.2433
▁당연하제	-11.2433
▁적절한	-11.2433
▁말하자믄	-11.2433
▁핑계	-11.2433
▁멈출	-11.2433
▁여태까지	-11.2433
▁마우스	-11.2433
▁라운지	-11.2433
▁링크	-11.2433
▁숫자	-11.2433
▁잃어버리	-11.2433
▁프로필	-11.2433
▁땜에	-11.2433
▁주머니에	-11.2434
▁빙수	-11.2434
▁조깅	-11.2434
▁잠실역	-11.2434
▁주의사항	-11.2434
▁여짜보	-11.2434
▁매콤	-11.2434
▁이외에	-11.2435
▁소독약	-11.2435
▁염증	-11.2435
▁연필	-11.2435
▁독립	-11.2435
▁쪼금	-11.2436
▁하늘색	-11.2436
▁그렇군예	-11.2436
▁개념	-11.2436
▁파손	-11.2437
▁창업	-11.2437
▁여성복	-11.2437
▁유익	-11.2437
▁바늘	-11.2439
▁유머	-11.244
▁틀린	-11.244
▁회계	-11.244
▁자녀	-11.2441
▁막힌	-11.2441
▁무겁	-11.2441
▁같든데	-11.2441
▁부자	-11.2442
▁전문점	-11.2442
▁빈방	-11.2442
▁연설	-11.2443
▁좋겠습니데이	-11.2443
▁취할	-11.2444
▁잃어버렸	-11.2444
▁없애	-11.2444
▁탑승권	-11.2445
▁장염	-11.2445
▁설마	-11.2446
▁고맙십니더	-11.2448
▁아름다워	-11.245
▁바탕	-11.245
▁마레이	-11.2451
▁통역	-11.2452
▁음식값	-11.2452
▁실례합니다만	-11.2452
▁베드	-11.2452
▁버려	-11.2453
▁있습니다	-11.2454
▁망치	-11.2456
▁좋겠십니더	-11.2456
▁아입니까	-11.2457
▁그라니께	-11.2457
▁권장	-11.2458
▁보충	-11.2459
▁난중에	-11.2459
▁남산	-11.2459
▁궁금하네예	-11.2459
▁찬성	-11.246
▁25,000	-11.2461
▁나타나	-11.2461
▁보습	-11.2464
▁도울	-11.2464
▁찌개	-11.2465
▁테니께	-11.2467
▁괘안타	-11.2468
▁긴디	-11.2468
▁특수	-11.247
▁있으십니더	-11.247
▁상관없어예	-11.2471
저것	-11.2472
▁독감	-11.2472
▁정품	-11.2474
▁오싰	-11.2475
▁현지인	-11.2477
▁다같이	-11.248
▁다르지만	-11.2481
▁문제라도	-11.2482
▁남았노	-11.2484
▁사용하믄	-11.2486
▁실시	-11.2487
▁돌려받	-11.2489
▁고개를	-11.249
▁포장해주이소	-11.2495
▁사거리	-11.2498
▁열릴	-11.2499
▁든데이	-11.2504
▁살게예	-11.2504
줬는데	-11.2505
▁추가되는	-11.2505
▁걸어가믄	-11.2505
▁틀리	-11.2513
▁없다이가	-11.2513
▁척하	-11.2514
▁있어라	-11.2519
▁사랑스럽	-11.2524
▁아이디어	-11.2527
▁그렇지만	-11.2528
▁중식	-11.253
▁도심	-11.253
▁다름	-11.2531
▁변경된	-11.2531
▁친절하고	-11.2532
▁제조	-11.2541
▁도착합니더	-11.2543
▁집중력	-11.255
▁변경되	-11.2551
▁여보이소	-11.2555
▁이태원	-11.2559
▁시작합니더	-11.256
▁맞으면	-11.2576
▁싶나	-11.2577
▁연락주이소	-11.2579
▁계곡	-11.2584
▁정치	-11.2593
▁자극	-11.2608
25	-11.261
▁해석	-11.2613
es	-11.2615
▁하겠다	-11.2624
과정에서	-11.2628
입시더	-11.2643
me	-11.2657
▁울리	-11.2658
▁장사	-11.2683
▁올린	-11.2707
▁이용하면	-11.2708
▁걸리는데	-11.2711
스럽게	-11.2734
▁상태라	-11.2745
뜻	-11.2749
빨	-11.2749
빌	-11.2749
몇	-11.275
메뉴	-11.275
검사	-11.2752
▁봐줄	-11.2758
▁않으니까	-11.2763
▁복잡한	-11.2793
▁응원하는	-11.2797
▁모르겠네	-11.28
▁해줄래	-11.2808
▁말아야	-11.2831
나보네	-11.2842
▁향해	-11.2879
▁표시해	-11.2883
▁판다	-11.2906
▁기다려주시	-11.2909
팝	-11.2914
▁깔끔하	-11.2915
▁결정하	-11.292
정보	-11.2924
했그든	-11.294
▁답답하	-11.2955
▁시끄러	-11.3007
▁추천해주실	-11.301
뿟네	-11.3014
교시	-11.3018
▁적응하	-11.3035
쾌	-11.3044
꾼	-11.3044
낄	-11.3047
▁액체	-11.3047
밴	-11.3048
럿	-11.3048
엠	-11.3048
툰	-11.3048
▁검정색	-11.3048
▁넥타이	-11.3048
▁뚱뚱	-11.3048
▁만납시더	-11.3048
▁메신저	-11.3048
▁병문안	-11.3048
▁뻐머	-11.3048
▁스크린	-11.3048
▁우떻노	-11.3048
▁유니폼	-11.3048
▁임산부	-11.3048
▁장학금	-11.3048
▁좌회전	-11.3048
▁컨테이너	-11.3048
▁프린트	-11.3048
▁플라스틱	-11.3048
▁횡단보도	-11.3048
시킵니더	-11.3048
▁다녀온	-11.3048
▁멈춰	-11.3048
썩	-11.3048
▁드라이브	-11.3048
▁인내심	-11.3048
▁시리얼	-11.3048
▁마카오	-11.3048
▁벌씨로	-11.3048
▁주유소	-11.3048
▁로그인	-11.3048
▁혈액	-11.3048
▁회원가입	-11.3048
▁계좌이체	-11.3048
▁단위로	-11.3048
▁소지품	-11.3048
▁어때요	-11.3048
▁탁구	-11.3048
▁데스크	-11.3048
▁고추장	-11.3048
▁관광객이	-11.3048
▁시카고	-11.3049
▁태그	-11.3049
▁뷔페	-11.3049
▁강원도	-11.3049
▁흠집	-11.3049
▁말했듯이	-11.3049
▁클릭	-11.3049
▁허연색	-11.3049
▁흥미롭	-11.3049
▁부드러운	-11.305
▁여유롭	-11.305
▁까먹	-11.3051
▁폭포	-11.3051
▁절망	-11.3051
▁펜션	-11.3051
▁해운대	-11.3051
▁폭력	-11.3051
▁수학여행	-11.3051
▁팝니더	-11.3051
▁이내로	-11.3051
▁떠났	-11.3051
▁바코드	-11.3052
▁밝은색	-11.3053
▁창피	-11.3053
▁소녀	-11.3053
▁100%	-11.3053
▁뻐스터미널	-11.3053
▁기대된다	-11.3053
▁국민	-11.3054
▁체육관	-11.3054
▁가져갈	-11.3055
▁기다릴게예	-11.3055
▁지연되	-11.3055
ine	-11.3055
▁도와드릴께예	-11.3056
▁번거로	-11.3056
▁선물용으로	-11.3056
▁근육통	-11.3056
▁보냅니더	-11.3057
▁알람	-11.3057
▁현명	-11.3059
▁트래	-11.3061
▁보낼게예	-11.3061
▁잡혀	-11.3061
▁공책	-11.3062
▁허용	-11.3062
▁있구로	-11.3063
▁아시아	-11.3063
▁손님께	-11.3063
집니데이	-11.3064
▁가져오	-11.3064
▁고랬	-11.3065
▁키울	-11.3066
▁무엇인지	-11.3066
이었지만	-11.3066
차피	-11.3066
▁지나간	-11.3067
▁더이상	-11.3068
▁번거롭게	-11.3069
▁동행	-11.3069
▁있으며	-11.307
▁마세예	-11.307
▁다닌	-11.307
▁반영	-11.3071
▁전환	-11.3071
냐꼬	-11.3071
▁진행될	-11.3071
▁뭇는데	-11.3073
▁알았십니더	-11.3073
▁개안은디	-11.3073
▁좋십니다	-11.3073
▁모르겠십니더	-11.3074
▁대량	-11.3074
▁언제든	-11.3078
▁많았어예	-11.3079
▁웃긴	-11.3079
▁추우	-11.308
▁하나하나	-11.3081
▁이것들	-11.3082
▁근사	-11.3083
일간	-11.3083
▁로마	-11.3084
▁지퍼	-11.3084
▁증거	-11.3087
▁열린다	-11.3087
분정도	-11.3087
▁이웃	-11.3087
▁사정으로	-11.3088
▁대형	-11.3089
▁궁금하데이	-11.3091
▁모르겠노	-11.3097
▁익히	-11.31
▁있었습니데이	-11.31
▁아무거나	-11.31
▁원하시믄	-11.3101
▁배워야	-11.3103
▁넘치	-11.3105
▁않습니데이	-11.3105
▁좋제	-11.3107
인가요	-11.3108
▁않은디	-11.3118
▁쪼매씩	-11.3118
목록	-11.312
▁몰랐네예	-11.312
▁답답해	-11.3125
▁어렵네예	-11.3126
▁가능한디	-11.3128
▁예약금	-11.313
드마	-11.3131
▁야구장	-11.3137
▁시차	-11.3141
▁운동장에	-11.3142
▁걸어가면	-11.3145
▁고객들	-11.3147
IS	-11.315
▁많아졌	-11.3151
▁시작됐	-11.3153
▁웹사이트에	-11.3153
▁없어진	-11.3155
▁등심	-11.3162
▁설명해주	-11.3164
▁명함	-11.3169
▁돌보	-11.3174
하네요	-11.318
▁보여주시	-11.3187
했어야	-11.319
하였십니	-11.3197
▁자연스럽	-11.3204
▁개성	-11.3204
▁출국장	-11.3205
▁왔었	-11.3214
▁과실	-11.3214
▁안되는데	-11.3228
▁인물	-11.3233
▁받아들	-11.3245
▁카운터	-11.3246
해가지고	-11.3251
▁늘었	-11.3257
▁좋으면	-11.3299
▁살피보	-11.33
▁화내	-11.33
▁분께	-11.3303
SA	-11.3307
▁없드라	-11.3319
▁운동회	-11.3321
▁반전	-11.3335
▁완료되	-11.3365
카니까	-11.3369
▁이해했	-11.337
으이께	-11.3389
몰	-11.3401
J	-11.3404
그릇	-11.3406
▁수정해	-11.3425
▁가져왔	-11.3435
▁도바드리	-11.3447
원이라꼬	-11.3452
택시	-11.3453
▁상품들	-11.3456
▁너거들	-11.3473
▁카운터에	-11.3497
장소	-11.3509
oo	-11.3517
포트	-11.3524
▁계곡에	-11.3539
▁알아들	-11.3572
다카데	-11.3582
세트	-11.3583
▁복잡해	-11.3623
▁유아용	-11.3624
▁지각했	-11.363
▁즐거	-11.3633
▁몰겄	-11.3645
▁냉장	-11.366
▁감사한	-11.366
▁판매되	-11.3666
▁있냐	-11.3688
맙	-11.369
▁말했다	-11.3701
균	-11.3703
넷	-11.3704
▁간이침대	-11.3704
▁귀중품	-11.3704
▁내비게이션	-11.3704
▁된장찌개	-11.3704
▁버킷리스트	-11.3704
▁소매치기	-11.3704
▁속눈썹	-11.3704
▁시애틀	-11.3704
▁오프라인	-11.3704
▁웬만하	-11.3704
▁즈렴한	-11.3704
▁클렌징	-11.3704
▁펼쳐	-11.3704
▁핥짝	-11.3704
▁홈스테이	-11.3704
▁확실한	-11.3704
랭	-11.3704
밭	-11.3704
뿍	-11.3704
슐	-11.3704
혁	-11.3704
▁도둑맞	-11.3704
▁이혼하	-11.3704
▁첨부파일	-11.3704
▁프런트	-11.3704
▁휴대용	-11.3704
룬	-11.3704
묘	-11.3704
찹	-11.3704
▁댓글	-11.3704
▁키보드	-11.3704
▁페이팔	-11.3704
▁튼튼	-11.3704
▁저스틴	-11.3704
▁모른데이	-11.3704
▁어르신	-11.3704
▁이쓰까예	-11.3704
▁고등어	-11.3704
▁희생	-11.3704
▁잃어버린	-11.3704
▁빡세	-11.3704
▁우야노	-11.3704
▁탁자	-11.3704
▁엘리	-11.3705
▁링거	-11.3705
거던예	-11.3705
▁겉으로	-11.3705
▁위탁	-11.3705
▁불가합니더	-11.3706
▁빌딩	-11.3706
▁성수기	-11.3706
▁마라톤	-11.3706
▁선크림	-11.3706
▁범인	-11.3707
▁하얀	-11.3707
▁언급	-11.3707
▁때문인	-11.3708
▁접근	-11.3708
▁바꾼	-11.3708
해뿌자	-11.3708
▁우측	-11.3708
▁남녀	-11.3708
▁베스트	-11.3709
▁얼매	-11.3709
▁서핑	-11.3709
▁원칙	-11.371
▁풍선	-11.371
▁접종	-11.371
▁교토	-11.371
▁면회	-11.3711
▁교재	-11.3712
▁긴급	-11.3712
▁유제품	-11.3713
ig	-11.3713
▁리본	-11.3713
▁담백	-11.3714
▁보내드립니더	-11.3715
▁주무시	-11.3715
▁LA	-11.3715
▁신어보	-11.3715
▁소속	-11.3717
구먼	-11.3717
▁코코	-11.3718
▁부정적	-11.3721
▁받아볼	-11.3722
▁안내문	-11.3725
▁올라가시믄	-11.3728
▁왔심더	-11.3729
▁해드렸	-11.3729
▁치워	-11.373
▁부족해	-11.373
▁서양	-11.3731
▁묵을래	-11.3732
▁공동	-11.3736
▁웃어	-11.3737
▁기다리시야	-11.3737
으이까	-11.3738
▁외국에스	-11.3739
▁스페인어	-11.374
▁검수	-11.374
▁치우	-11.3742
▁샀어예	-11.3744
▁보였어예	-11.3745
▁많았습니더	-11.3747
▁몰겠네예	-11.3748
▁볼거리	-11.375
▁세안	-11.3752
▁확실하게	-11.3753
▁심해가꼬	-11.3754
▁마이클	-11.3756
▁생각했는디	-11.3756
▁테이까	-11.3756
▁보내주시면	-11.3759
▁목적으로	-11.376
▁연락드릴게예	-11.3761
▁말해주믄	-11.3761
▁받습니더	-11.3761
▁언쟈든	-11.3764
뿟는데	-11.3765
▁신고해야	-11.3771
▁않았는디	-11.3771
▁추적	-11.3787
▁심해가	-11.3789
BA	-11.3794
▁인원수	-11.3808
▁생수	-11.3812
▁점심때	-11.3832
▁적성	-11.385
▁입원비	-11.3851
▁양쪽	-11.3861
▁버렸	-11.3865
▁실물	-11.3881
▁좋겠네	-11.3901
▁가족덜	-11.3903
▁편리하	-11.3906
▁회원님	-11.3931
▁맛보	-11.3935
▁탑니	-11.3936
▁가스나들	-11.3966
▁위로해	-11.3997
받으셨	-11.401
▁표시되	-11.4014
▁아니었다	-11.4024
▁좋겠십니	-11.404
▁살아있	-11.4056
검진	-11.4057
▁죄송해	-11.4061
▁받아보	-11.4092
폐	-11.4095
델	-11.4102
▁증명	-11.4104
폰	-11.4104
4,000	-11.4105
굽	-11.4106
윤	-11.4106
뒤	-11.4106
Q	-11.4107
특	-11.4107
빼	-11.4107
배송	-11.4111
▁없던데	-11.4121
▁비교해	-11.4127
▁사용되	-11.4141
코드	-11.416
▁남들	-11.4161
순위	-11.4181
▁건너편	-11.4217
▁사용해보	-11.4224
▁무엇인가	-11.4239
준다고	-11.4271
댄다	-11.4285
▁조용하	-11.4287
마저	-11.4288
받았는디	-11.429
▁만드	-11.4298
쁘	-11.4333
▁싶으시	-11.4364
쎄	-11.4403
닛	-11.4403
램	-11.4405
롯	-11.4406
▁Cont	-11.4406
▁ATM	-11.4406
▁MFZ	-11.4406
▁견딜	-11.4406
▁넉넉하	-11.4406
▁로스앤젤레스	-11.4406
▁멍무이	-11.4406
▁박람회	-11.4406
▁우얍니꺼	-11.4406
▁웨이브	-11.4406
▁최초	-11.4406
▁핼러윈	-11.4406
▁협력	-11.4406
▁힙합	-11.4406
갭	-11.4406
꼽	-11.4406
덧	-11.4406
렛	-11.4406
빅	-11.4406
썰	-11.4406
쏙	-11.4406
앗	-11.4406
쿤	-11.4406
흙	-11.4406
▁DHL	-11.4406
▁겉옷	-11.4406
▁광화문	-11.4406
▁교환학생	-11.4406
▁금메달	-11.4406
▁당황스럽	-11.4406
▁디럭스	-11.4406
▁디지털	-11.4406
▁방탄소년단	-11.4406
▁신입생	-11.4406
▁캄보디아	-11.4406
긌	-11.4406
▁더부룩	-11.4406
갠	-11.4406
▁유산소	-11.4406
▁종업원	-11.4406
▁겁니다	-11.4406
▁여배우	-11.4406
▁효율적	-11.4406
▁무례한	-11.4406
▁원정석	-11.4406
▁통신사	-11.4406
▁쿠션	-11.4406
▁손잡이	-11.4406
▁일시불	-11.4406
▁배고파	-11.4406
▁어지럽	-11.4406
▁억울	-11.4406
▁한마디	-11.4406
▁데려다	-11.4406
▁선약이	-11.4407
▁수유실	-11.4407
▁에이드	-11.4407
▁아홉	-11.4407
▁예민한	-11.4407
▁다듬어	-11.4407
▁눌리	-11.4407
▁엽서	-11.4407
▁운전면허증	-11.4407
▁머물렀	-11.4408
▁리뷰	-11.4408
▁감싸	-11.4408
▁응답	-11.4408
▁레몬	-11.4408
▁사과드립니더	-11.4408
▁가져다드릴께예	-11.4409
▁테라스	-11.4409
▁줄어들	-11.4409
▁심해지	-11.4409
▁미룰	-11.4409
fw	-11.4409
▁물어본	-11.441
▁관절	-11.441
▁소요될	-11.441
▁아시안	-11.4411
▁근육량	-11.4411
▁출판	-11.4412
▁세척	-11.4413
▁규칙적	-11.4413
▁가능합니다	-11.4413
▁신규	-11.4414
▁궁금합니데이	-11.4414
▁Mr	-11.4414
▁환영합니데이	-11.4415
▁동창	-11.4415
▁허브	-11.4416
▁돌아온	-11.4416
▁만나재이	-11.4418
▁주의하이소	-11.4418
▁성형	-11.4418
▁중순	-11.4419
▁찾겠어예	-11.4419
▁고맙십니다	-11.4419
▁초과하	-11.442
▁좋겠어요	-11.442
▁알리주세요	-11.442
▁올리브	-11.4421
▁만나제이	-11.4422
▁비결	-11.4424
▁매달	-11.4424
▁신속	-11.4425
▁으때	-11.4425
▁연료	-11.4425
▁깨워	-11.4425
▁발라주이소	-11.4427
▁연체	-11.4427
▁세탁물	-11.443
▁재생	-11.443
▁바빠스	-11.443
▁가볼래	-11.4431
▁해낼	-11.4431
▁합치	-11.4431
▁자랑스럽	-11.4433
갔는지	-11.4433
▁배추	-11.4434
▁들어본	-11.4434
▁갖다주이소	-11.4437
▁현상	-11.4437
▁없어질	-11.4438
▁배웠습니더	-11.4439
▁비행기표	-11.4439
▁만져	-11.444
▁원작	-11.444
▁동화	-11.444
▁으려	-11.4442
▁편집	-11.4443
▁오염	-11.4443
▁후문	-11.4447
▁뜨거	-11.4447
▁차액	-11.445
▁가능하십니더	-11.445
▁대금	-11.445
▁지혈	-11.4451
▁중복	-11.4451
▁시끄러워	-11.4451
▁갔었는데	-11.4453
▁순대	-11.4453
▁두가지	-11.4455
▁자세하게	-11.4455
▁광장	-11.4455
▁장래	-11.4455
▁홍대	-11.4456
▁좋아질	-11.4459
▁시작했는데	-11.4459
▁올라와	-11.446
▁많다꼬	-11.4462
▁공정	-11.4463
▁택배비	-11.4468
▁불만이	-11.4476
▁해놓	-11.4478
▁댕겨오	-11.4481
했을때	-11.4483
▁때문이라	-11.4484
▁Re	-11.449
▁무서웠	-11.4499
▁조별	-11.4518
▁영업시간	-11.4521
▁급해	-11.4521
▁소중하	-11.4523
주시니	-11.4543
▁더워가	-11.4545
▁알려드릴	-11.4559
▁소요되	-11.456
▁키웠	-11.4568
▁비율	-11.4568
▁예정이라	-11.4575
▁회의실	-11.4579
▁성격이라	-11.458
▁공감	-11.4583
▁아름다웠	-11.4601
했었제	-11.4616
▁할인율	-11.4622
▁심각	-11.4716
▁이상하다	-11.4724
▁유행이라	-11.4726
ss	-11.4728
해보니까	-11.4732
▁전문적	-11.4735
▁찾아봤	-11.4737
▁주문하셨	-11.476
▁오팡	-11.4781
▁뜨신	-11.4781
▁꾸복	-11.4782
▁달라진	-11.4791
줄끄마	-11.4793
▁예약하셨	-11.4807
▁아래쪽	-11.4834
넣	-11.4852
$	-11.4859
섬	-11.4861
엄	-11.4861
갖	-11.4862
경기장	-11.4863
슨생님	-11.4863
서비스	-11.4864
받았던	-11.4866
공항	-11.4867
땜시	-11.4868
신청	-11.4886
▁어무이께	-11.4897
구매	-11.4902
and	-11.4919
32	-11.494
▁존재하	-11.4943
▁경제적	-11.4952
겠지먼	-11.4966
▁지불하시	-11.4972
▁상처받	-11.4973
▁나쁘다	-11.5
▁$10	-11.5008
▁작품들	-11.5021
▁도바줄	-11.5045
▁오래되	-11.5049
▁얼라들	-11.5052
다카더라	-11.5052
▁참석하	-11.5071
▁해봐	-11.5076
▁구입하	-11.5082
섯	-11.5129
▁실례합니다	-11.5139
▁깊었	-11.515
첩	-11.5161
삔	-11.5161
넬	-11.5161
츄	-11.5161
roject	-11.5161
tion	-11.5161
▁ABC	-11.5161
▁New	-11.5161
▁글쿤요	-11.5161
▁놀랐어예	-11.5161
▁다운로드	-11.5161
▁미세먼지	-11.5161
▁브런치	-11.5161
▁삼계탕	-11.5161
▁스탠다드	-11.5161
▁어쨌든	-11.5161
▁엑스레이	-11.5161
▁와그라냐카	-11.5161
▁응급처치	-11.5161
▁이코노미	-11.5161
▁전광판	-11.5161
▁쫄깃	-11.5161
▁축하드립니데이	-11.5161
▁컬렉션	-11.5161
▁탄산음료	-11.5161
▁트레이닝	-11.5161
▁팸플릿	-11.5161
▁하룻밤	-11.5161
▁햇볕	-11.5161
뎌	-11.5161
뚱	-11.5161
뱉	-11.5161
벅	-11.5161
셜	-11.5161
숲	-11.5161
즙	-11.5161
쪄	-11.5161
톨	-11.5161
폼	-11.5161
▁비즈니스	-11.5161
▁크루즈	-11.5161
갓	-11.5161
왓	-11.5161
▁겸손	-11.5161
▁구급차	-11.5161
▁오디션	-11.5161
▁틀림없	-11.5161
▁눌렀	-11.5161
십시오	-11.5161
▁즐깁니더	-11.5161
▁춘천	-11.5161
▁사물함	-11.5161
▁월미도	-11.5161
▁멋져	-11.5161
▁밀가루	-11.5161
▁자빠지	-11.5161
▁들렀다	-11.5161
▁격려해	-11.5161
▁버릇	-11.5161
▁분실신고	-11.5161
▁샤넬	-11.5161
▁운동기구	-11.5161
▁규모	-11.5161
▁짤라	-11.5162
▁퇴실	-11.5162
▁비슷해	-11.5162
qu	-11.5162
▁냉면	-11.5162
▁더러워	-11.5163
▁누굴	-11.5163
▁맥힐	-11.5163
▁리얼	-11.5163
▁아름다움	-11.5163
ork	-11.5163
▁도자기	-11.5163
▁흥분	-11.5163
▁경비실에	-11.5163
▁설득	-11.5163
▁즐거워	-11.5163
▁옳지	-11.5163
▁탑니더	-11.5163
▁사귈	-11.5163
▁목도리	-11.5164
▁엔화	-11.5164
▁추측	-11.5164
▁소개팅	-11.5164
▁씨끄	-11.5164
▁바랄게예	-11.5164
▁기쁨	-11.5164
▁xxx	-11.5165
▁단독	-11.5165
▁국밥	-11.5166
▁투표	-11.5167
▁환상적	-11.5167
▁상징	-11.5167
▁연령	-11.5167
▁1.5	-11.5167
▁예민해	-11.5167
▁서빙	-11.5167
▁가져온	-11.5168
▁허연	-11.5168
▁터키	-11.5168
▁장갑	-11.5169
▁보존	-11.5169
▁속담	-11.5169
▁말씀드렸	-11.5169
▁원하신다	-11.517
▁설날	-11.517
▁등록금	-11.5171
▁가까우	-11.5171
▁무척	-11.5171
▁아니겠나	-11.5172
▁아니에요	-11.5172
▁보라카이	-11.5173
▁않으셨어예	-11.5173
▁하루죙	-11.5173
▁어짜지예	-11.5173
ab	-11.5173
▁있을랑가	-11.5174
▁반값	-11.5174
▁호출	-11.5176
▁치과에	-11.5177
▁효과적이	-11.5177
▁뿌려	-11.5177
▁보내드리겠십니더	-11.5177
▁기쁘네예	-11.5178
▁숙박비	-11.5178
▁짜르	-11.5178
▁화재	-11.5179
▁바이어	-11.5179
▁선박	-11.518
▁조직	-11.5181
▁소량	-11.5181
▁지킬	-11.5181
▁노란	-11.5181
▁갈라카는데	-11.5182
▁생물	-11.5182
▁여행객	-11.5183
▁전송	-11.5183
▁강조	-11.5183
▁받으이소	-11.5184
튼데	-11.5185
▁목록에	-11.5186
▁안내판	-11.5187
▁해드려	-11.5188
▁맞출	-11.5189
▁포함해서	-11.5189
▁구매했는디	-11.5189
▁드렸어예	-11.5189
▁갖꼬	-11.519
▁호우	-11.519
▁돼있	-11.5191
▁괜찮으니까	-11.5191
▁관점	-11.5191
▁말씀이신가	-11.5193
▁부칠	-11.5195
VR	-11.5196
▁헤어진	-11.5197
▁교대	-11.5198
▁보내주신	-11.5199
▁불리는	-11.5203
▁해주시야	-11.5205
▁어려브	-11.5205
▁다릅니	-11.5206
했으요	-11.5207
▁창의적	-11.5208
▁바빠가꼬	-11.5216
▁불편하신	-11.5217
▁찍어드릴	-11.5228
▁않으셨	-11.5245
▁입국심사	-11.525
▁빵집	-11.5253
폭	-11.5261
▁탄력	-11.527
▁주고받	-11.5273
▁특이하	-11.5274
▁찍어주시	-11.5275
▁운명	-11.5291
▁조교	-11.531
▁추천해준	-11.5319
뿐인데	-11.5328
▁보내줄게	-11.5366
▁기도할게	-11.5386
▁빌렸	-11.5393
자뿐	-11.5421
▁아일까	-11.5426
▁불안해	-11.5428
르케	-11.5499
▁가득하	-11.5501
▁멋있어	-11.5503
▁내려오	-11.5512
▁증가하	-11.5519
▁추천받	-11.5523
▁누워있	-11.5544
흑	-11.556
▁바뀌었	-11.5562
원치	-11.561
▁돌아갔	-11.5627
▁멤버들	-11.5651
하자꼬	-11.5665
펜	-11.5674
뷔	-11.5674
힘	-11.5679
백화점	-11.5679
샀	-11.5679
낫	-11.5679
주차장	-11.568
해보이까	-11.5688
하몬	-11.5704
▁자극적	-11.5747
봐야겠다	-11.5756
▁마닐라	-11.5771
▁선수들	-11.5802
▁생각해봤	-11.585
▁댕겨	-11.589
▁뿌듯하	-11.59
▁어떠세	-11.5914
▁말해주시	-11.5915
▁걸리나	-11.5929
념	-11.5956
뇨	-11.597
▁해줍니	-11.5976
톡	-11.5976
▁ᅡᅡ	-11.5978
퉁	-11.5978
샘	-11.5978
텍	-11.5978
핍	-11.5978
▁돌잔치	-11.5978
▁떨어뜨	-11.5978
▁떨어질	-11.5978
▁뚜껑	-11.5978
▁로맨틱	-11.5978
▁마일리지	-11.5978
▁매니큐어	-11.5978
▁머릿속	-11.5978
▁베스트셀러	-11.5978
▁벼락치기	-11.5978
▁빅뱅	-11.5978
▁슈퍼마켓	-11.5978
▁시외뻐스	-11.5978
▁신촌역	-11.5978
▁쌀국수	-11.5978
▁애니메이션	-11.5978
▁연세대학교	-11.5978
▁유람선	-11.5978
넌	-11.5978
덩	-11.5978
덱	-11.5978
렐	-11.5978
룡	-11.5978
썻	-11.5978
쑥	-11.5978
찻	-11.5978
텨	-11.5978
°	-11.5978
젓	-11.5978
샤	-11.6566
뭇	-11.6567
쪼	-11.6567
총	-11.6569
뵙	-11.6576
쁜	-11.681
딘	-11.6861
쇠	-11.6861
꿀	-11.6863
깅	-11.6865
랙	-11.6867
긍	-11.6867
슥	-11.6867
춧	-11.6867
궈	-11.6867
깰	-11.6867
껄	-11.6867
뱀	-11.6867
줌	-11.6867
쫓	-11.6867
틉	-11.6867
펍	-11.6867
혐	-11.6867
덤	-11.6867
댄	-11.7024
뜩	-11.7341
겜	-11.7343
곰	-11.7531
틈	-11.7542
땅	-11.7543
맘	-11.7545
셋	-11.7551
럴	-11.7763
큼	-11.7764
렵	-11.7825
팡	-11.7837
쑤	-11.7838
엇	-11.7839
끗	-11.7842
윈	-11.7842
섹	-11.7843
셰	-11.7843
쬐	-11.7843
탱	-11.7843
꿉	-11.7843
첼	-11.7843
꽈	-11.7843
둤	-11.7843
뻑	-11.7843
엎	-11.7843
짔	-11.7843
칫	-11.7843
틸	-11.7843
돔	-11.7843
떴	-11.7843
밋	-11.7843
벡	-11.7843
엣	-11.7843
짬	-11.7843
텁	-11.7843
펄	-11.7843
휠	-11.7843
캠	-11.8369
쉽	-11.8618
떠	-11.8619
맵	-11.8623
춤	-11.8624
졸	-11.8626
깊	-11.8626
뭐	-11.8627
꼭	-11.8627
톱	-11.8921
꿔	-11.8921
룩	-11.8925
붐	-11.8925
땝	-11.8925
얌	-11.8925
웁	-11.8925
깬	-11.8925
맬	-11.8925
빘	-11.8925
욜	-11.8925
잣	-11.8925
짚	-11.8925
쩡	-11.8925
쪘	-11.8925
챗	-11.8925
츤	-11.8925
캉	-11.8925
켈	-11.8925
콕	-11.8925
텝	-11.8925
돗	-11.8925
뺀	-11.8925
웍	-11.8925
쵸	-11.8925
’	-11.8925
샐	-11.8925
홍	-11.9835
콩	-11.9837
좁	-11.9837
탐	-11.9838
팬	-11.9839
튀	-11.9839
낙	-11.9839
쭉	-11.984
젤	-11.984
템	-12.0136
엡	-12.0137
뻘	-12.0138
굿	-12.0138
셉	-12.0138
댓	-12.0138
킥	-12.0138
궂	-12.0138
넨	-12.0138
늄	-12.0138
넛	-12.0138
큰	-12.1221
귄	-12.1511
쩌	-12.1513
롸	-12.1517
뱃	-12.1519
숫	-12.1519
펌	-12.1519
륭	-12.1519
뽑	-12.2823
앱	-12.2823
퀴	-12.3044
룹	-12.3073
땜	-12.3107
얀	-12.3116
랴	-12.3117
솥	-12.3121
닷	-12.3122
ᅡ	-12.3122
팸	-12.3122
딧	-12.3122
큐	-12.3122
꼴	-12.473
뵈	-12.4731
넘	-12.4733
잖	-12.5024
봇	-12.503
팽	-12.5031
갯	-12.5031
넥	-12.5031
댑	-12.5031
쿼	-12.5031
벙	-12.5031
쨌	-12.5031
륩	-12.6142
검	-12.7079
싼	-12.7088
봄	-12.7089
붓	-12.7091
흰	-12.7091
흔	-12.7091
쥐	-12.7091
잇	-12.7092
헤	-12.7092
잠	-12.7094
멀	-12.7096
귈	-12.7384
씀	-12.7386
둡	-12.7386
땠	-12.7386
걱	-12.7392
숭	-12.7392
툼	-12.7392
탬	-12.7392
벳	-12.7392
뻔	-12.9718
팁	-13.0187
밑	-13.0188
맴	-13.0189
삶	-13.0189
릇	-13.0438
닙	-13.0467
쁨	-13.0472
쇄	-13.0485
ᄋ	-13.0487
렷	-13.0487
ᄑ	-13.0487
룻	-13.0487
낳	-13.4686
톰	-13.4687
뺄	-13.4687
엉	-13.4687
쌤	-13.4687
갸	-13.4689
맡	-13.4689
맻	-13.469
쫌	-13.469
홉	-13.498
펫	-13.4986
ᄇ	-13.4987
ᄃ	-13.4987
ᄀ	-13.4987
뮬	-13.4987
ᄅ	-13.4987
ᄒ	-13.4987
띄	-13.8025
윗	-14.3024
흉	-14.3025
낯	-14.3025
땀	-14.3026
첫	-14.3026
곧	-14.3027
눠	-14.3315
쿄	-14.3318
슘	-14.332
갛	-14.332
ᄂ	-14.3321
ᄆ	-14.3321
ᄉ	-14.3321
ᄌ	-14.3321
ᄎ	-14.3321
ᄐ	-14.3321
ᅤ	-14.3321
ᅨ	-14.3321
ᅩ	-14.3321
ᅭ	-14.3321
ᅲ	-14.3321
왈	-14.3321
펠	-14.3321
낵	-15.2689
뀝	-15.269
홥	-15.2691
펩	-15.2692
튬	-15.2693
퀵	-15.2694
퀄	-15.2695
쿨	-15.2696
짖	-15.2697
뻗	-15.2698
붑	-15.2699
뭄	-15.27
눕	-15.2701
껌	-15.2702
힜	-15.2703
흩	-15.2704
쫍	-15.2705
읎	-15.2706
쏠	-15.2707
맷	-15.2708
낡	-15.2709
곽	-15.271
슛	-15.2711
쟤	-15.2712
잴	-15.2713
윙	-15.2714
얽	-15.2715
얹	-15.2716
씌	-15.2717
숏	-15.2718
멕	-15.2719
뤘	-15.272
딨	-15.2721
눴	-15.2722
귤	-15.2723
켤	-15.2724
윷	-15.2725
룝	-15.2726
뛸	-15.2727
깼	-15.2728
팥	-15.2729
촛	-15.273
쫀	-15.2731
볕	-15.2732
맺	-15.2733
뚫	-15.2734
땄	-15.2735
뒈	-15.2736
뉘	-15.2737
껑	-15.2738
괌	-15.2739
뀨	-15.274
횟	-15.2741
헙	-15.2742
킴	-15.2743
췄	-15.2744
얍	-15.2745
뵌	-15.2746
멸	-15.2747
꿨	-15.2748
픔	-15.2749
퀘	-15.275
캄	-15.2751
앓	-15.2752
쏘	-15.2753
멧	-15.2754
덟	-15.2755
뇌	-15.2756
낱	-15.2757
굶	-15.2758
“	-15.2759
}	-15.276
{	-15.2761
^	-15.2762
;	-15.2763
#	-15.2764
옹	-15.2765
뺏	-15.2766
붉	-15.2767
믈	-15.2768
갤	-15.2769
갇	-15.277
헛	-15.2771
핼	-15.2772
펼	-15.2773
엓	-15.2774
쐬	-15.2775
쉰	-15.2776
늑	-15.2777
[	-15.2778
짞	-15.2779
윿	-15.278
봊	-15.2781
칵	-15.2782
<	-15.2783
챔	-15.2784
잦	-15.2785
윌	-15.2786
갱	-15.2787
텀	-15.2788
앵	-15.2789
늙	-15.279
깥	-15.2791
ᅴ	-15.2792
ᅱ	-15.2793
ᅰ	-15.2794
ᅯ	-15.2795
ᅬ	-15.2796
ᅫ	-15.2797
ᅪ	-15.2798
ᅦ	-15.2799
ᄍ	-15.28
ᄊ	-15.2801
ᄈ	-15.2802
ᄄ	-15.2803
ᄁ	-15.2804
횡	-15.2805
뵐	-15.2806
벚	-15.2807
밟	-15.2808
깍	-15.2809
갚	-15.281
컸	-15.2811
캘	-15.2812
찝	-15.2813
쩐	-15.2814
맑	-15.2815
ᅢ	-15.2816
쫄	-15.2817
둠	-15.2818
굵	-15.2819
딪	-15.282
힙	-15.2821
쏟	-15.2822
쌍	-15.2823
쁍	-15.2824
걀	-15.2825
쿵	-15.2826
훔	-15.2827
큽	-15.2828
맽	-15.2829
핫	-15.283
탠	-15.2831
숟	-15.2832
섰	-15.2833
삿	-15.2834
뽕	-15.2835
뜰	-15.2836
늬	-15.2837
낚	-15.2838
얇	-15.2839
댈	-15.284
얄	-15.2841
뭣	-15.2842
뀔	-15.2843
‘	-15.2844
ᅧ	-15.2845
ᅣ	-15.2846
핵	-15.2847
킵	-15.2848
뭉	-15.2849
땡	-15.285
꺾	-15.2851
긁	-15.2852
콧	-15.2853
뿡	-15.2854
ᅥ	-15.2855
웅	-15.2856
삣	-15.2857
*	-15.2858
뻤	-15.2859
늠	-15.286
젭	-15.2861
앨	-15.2862
낏	-15.2863
끓	-15.2864
홓	-15.2865
뀐	-15.2866
펙	-15.2867
찢	-15.2868
솜	-15.2869
덥	-15.287
댁	-15.2871
ᅵ	-15.2872
빔	-15.2873
뢰	-15.2874
덮	-15.2875
닮	-15.2876
웬	-15.2877
썹	-15.2878
뜯	-15.2879
돕	-15.288
ᅮ	-15.2881
볍	-15.2882
딥	-15.2883
걔	-15.2884
탭	-15.2885
켰	-15.2886
뽀	-15.2887
젖	-15.2888
샴	-15.2889
땃	-15.289
둑	-15.2891
펴	-15.2892
팠	-15.2893
찼	-15.2894
쥴	-15.2895
섞	-15.2896
녔	-15.2897
핥	-15.2898
짭	-15.2899
쩰	-15.29
왠	-15.2901
롤	-15.2902
닿	-15.2903
겪	-15.2904
헷	-15.2905
빴	-15.2906
닦	-15.2907
굉	-15.2908
묶	-15.2909
멤	-15.291
릎	-15.2911
짠	-15.2912
씻	-15.2913
쌉	-15.2914
듈	-15.2915
젯	-15.2916
곁	-15.2917
젊	-15.2918
륙	-15.2919
쁩	-15.292
픕	-15.2921
춥	-15.2922
뎁	-15.2923
넉	-15.2924
꽂	-15.2925
딜	-15.2926
씁	-15.2927
싹	-15.2928
꽉	-15.2929
꼈	-15.293
협	-15.2931
쭤	-15.2932
푹	-15.2933
믓	-15.2934
괴	-15.2935
렉	-15.2936
튜	-15.2937
웹	-15.2938
삽	-15.2939
멍	-15.294
쌓	-15.2941
훌	-15.2942
쉴	-15.2943
뀌	-15.2944
젝	-15.2945
썼	-15.2946
뱅	-15.2947
넓	-15.2948
굳	-15.2949
뮤	-15.295
뒷	-15.2951
벗	-15.2952
깎	-15.2953
탔	-15.2954
ᅳ	-15.2955
쓴	-15.2956
껍	-15.2957
잤	-15.2958
랗	-15.2959
킷	-15.296
쳤	-15.2961
쩔	-15.2962
묻	-15.2963
숨	-15.2964
캤	-15.2965
녹	-15.2966
쌀	-15.2967
헬	-15.2968
ᄏ	-15.2969
흡	-15.297
닫	-15.2971
흘	-15.2972
괘	-15.2973
끊	-15.2974
얻	-15.2975
걷	-15.2976
닭	-15.2977
깝	-15.2978
봅	-15.2979
밝	-15.298
웨	-15.2981
뭡	-15.2982
홈	-15.2983
옮	-15.2984
잃	-15.2985
뛰	-15.2986
옛	-15.2987
줍	-15.2988
짧	-15.2989
훨	-15.299
깜	-15.2991
촬	-15.2992
볶	-15.2993
낌	-15.2994
덕	-15.2995
낮	-15.2996
벽	-15.2997
냄	-15.2998
붙	-15.2999
뭘	-15.3
잊	-15.3001
캐	-15.3002
퓨	-15.3003
높	-15.3004
옵	-15.3005
꿈	-15.3006
밌	-15.3007
녕	-15.3008
믿	-15.3009
딸	-15.301
냈	-15.3011
획	-15.3012
똑	-15.3013
앉	-15.3014
읽	-15.3015
몸	-15.3016
듣	-15.3017
떨	-15.3018
랐	-15.3019
완	-15.302
싫	-15.3021
낍	-15.3022
괜	-15.3023
떻	-15.3024
밖	-15.3025
찮	-15.3026
옆	-15.3027
왜	-15.3028
뭔	-15.3029
놀	-15.303
늦	-15.3031
녁	-15.3032
최	-15.3033
렇	-15.3034
혼	-15.3035
험	-15.3036
찾	-15.3037
뻐	-15.3038
확	-15.3039
됩	-15.304
많	-15.3041
않	-15.3042
햄	-15.3042
