<s>	0
</s>	0
<unk>	0
<pad>	0
▁	-3.49312
.	-3.51411
?	-3.82716
을	-4.07285
,	-4.11316
가	-4.35753
를	-4.44389
는	-4.46842
이	-4.59606
은	-4.72115
에	-4.84607
도	-4.86138
▁수	-4.99301
의	-5.18439
▁내가	-5.43688
▁그	-5.47537
로	-5.48213
고	-5.48639
지	-5.4875
▁안	-5.50596
▁것	-5.55196
▁내	-5.59957
▁이	-5.62687
서	-5.71171
으로	-5.80602
게	-5.86721
▁있는	-5.87797
▁더	-5.95449
▁제가	-5.97006
만	-5.97426
▁한	-5.97617
▁오늘	-6.006
에서	-6.01699
▁잘	-6.04168
한	-6.04596
▁거	-6.0588
▁지금	-6.0618
요	-6.06874
▁저는	-6.07873
▁내는	-6.10542
예	-6.10894
▁우리	-6.17583
▁나는	-6.19221
다	-6.20465
하고	-6.2094
나	-6.24541
▁할	-6.26264
▁네	-6.26333
할	-6.30923
야	-6.33836
▁너무	-6.36934
기	-6.37988
▁다	-6.41302
면	-6.41929
▁때	-6.43602
과	-6.44802
▁좀	-6.5012
히	-6.51679
시	-6.52828
▁게	-6.53037
스	-6.55782
인	-6.57547
▁같이	-6.57896
▁혹시	-6.5806
라	-6.58524
하는	-6.62558
▁일	-6.62732
와	-6.63591
▁제	-6.6406
▁못	-6.65268
▁1	-6.66008
해	-6.66694
▁다른	-6.66948
▁니	-6.67444
▁2	-6.70106
어	-6.73472
▁주	-6.73699
▁많이	-6.76412
▁우리는	-6.77595
▁하는	-6.78984
▁좋은	-6.7987
▁다시	-6.80928
잉	-6.8122
▁저	-6.82017
▁당신	-6.83518
▁가는	-6.83859
▁있어요	-6.8432
▁두	-6.86182
데이	-6.86302
▁내일	-6.868
▁당신은	-6.87908
▁시간	-6.88957
▁정말	-6.89302
▁있나요	-6.8996
▁건	-6.91885
▁나	-6.92161
분	-6.92447
▁몇	-6.92772
까지	-6.93735
상	-6.94639
▁바로	-6.94908
▁어떤	-6.95545
▁난	-6.95555
▁3	-6.97571
▁해	-6.97608
는데	-6.98956
▁그럼	-6.98983
랑	-6.99102
▁하고	-7.00554
믄	-7.00756
리	-7.00768
일	-7.00853
▁기	-7.03183
▁줄	-7.0364
입니더	-7.04011
▁갈	-7.0605
▁있습니다	-7.06457
▁있습니더	-7.08561
▁사	-7.088
자	-7.0981
▁사진	-7.10104
니	-7.11684
▁있어예	-7.11936
▁당신이	-7.12171
▁여	-7.13869
▁정도	-7.14896
▁지	-7.15731
▁영화	-7.17744
▁진짜	-7.17908
주	-7.18116
▁예약	-7.18167
▁가	-7.18908
하	-7.18959
입니다	-7.21213
▁예	-7.22679
▁시간이	-7.235
▁있을	-7.25762
▁아직	-7.25894
▁전	-7.25997
▁말	-7.26099
▁마이	-7.26828
▁고	-7.27705
▁전에	-7.28694
▁요	-7.29563
▁있어	-7.29682
▁다음	-7.29772
네예	-7.29944
▁왜	-7.30342
러	-7.30345
▁니가	-7.31131
수	-7.31255
하지	-7.31296
▁가장	-7.31307
▁많은	-7.318
▁억수로	-7.32228
▁같아	-7.32248
▁사람이	-7.32777
▁10	-7.3298
아	-7.33629
▁생각	-7.33639
가꼬	-7.33704
▁너	-7.33836
▁이번	-7.34159
대	-7.34162
▁하나	-7.3419
▁집에	-7.346
부터	-7.35148
해야	-7.35432
▁여기	-7.35487
▁사람	-7.35817
네	-7.35967
▁어떻게	-7.36768
▁걸	-7.36799
▁있는데	-7.37578
▁5	-7.38137
▁해야	-7.38691
던	-7.39271
▁여행	-7.39339
▁전화	-7.39373
해서	-7.39609
▁차	-7.39773
▁그는	-7.40219
▁영어	-7.40749
인데	-7.41032
▁우리가	-7.41181
▁번	-7.41423
습니더	-7.41923
▁오	-7.42454
노	-7.43082
▁친구	-7.43237
▁어제	-7.43265
진	-7.43854
▁얼마	-7.43906
이랑	-7.44227
▁열	-7.4423
▁보고	-7.44283
▁같은	-7.44369
하게	-7.44535
니까	-7.44722
▁하는데	-7.44847
▁아	-7.44983
▁살	-7.45192
▁거야	-7.45478
▁오늘은	-7.45653
▁꼭	-7.45732
▁될	-7.45738
된	-7.46065
▁연락	-7.46496
▁그라믄	-7.46619
실	-7.46882
▁윽수	-7.47941
▁와	-7.48152
▁있습니꺼	-7.48514
에는	-7.48519
네요	-7.48682
심	-7.48841
▁합니더	-7.48868
▁주문	-7.49127
들이	-7.49667
라고	-7.49857
▁보	-7.50182
▁니는	-7.50669
▁4	-7.51784
▁일이	-7.52475
▁음식	-7.53384
▁항	-7.53484
▁너는	-7.54146
▁함께	-7.54442
보다	-7.54839
습니다	-7.54923
!	-7.55458
▁한국	-7.55772
▁좋아하는	-7.56497
▁그런	-7.57034
▁그냥	-7.5776
▁버스	-7.57791
▁저희	-7.57867
▁요즘	-7.57892
▁가야	-7.58089
▁거예요	-7.58133
▁큰	-7.58289
▁확인	-7.5843
▁개	-7.59002
장	-7.59257
사	-7.59314
▁몬	-7.59375
다고	-7.59519
▁해요	-7.59527
▁중	-7.59557
제	-7.59945
▁알고	-7.60037
개	-7.60065
▁같아요	-7.60841
어요	-7.61744
▁집	-7.62258
▁알	-7.62361
▁같다	-7.63713
하기	-7.63766
▁또	-7.63862
▁올	-7.63909
▁볼	-7.64236
데	-7.64911
지만	-7.64985
▁가지	-7.66356
▁하	-7.66497
▁제일	-7.66534
▁제품	-7.66843
▁그래도	-7.66991
▁것이	-7.67539
▁우째	-7.677
까	-7.67855
월	-7.67916
신	-7.68518
▁온	-7.68703
▁싶은데	-7.68713
번	-7.68762
▁날	-7.69033
▁약	-7.69226
이에요	-7.69421
▁보내	-7.69491
▁물	-7.69511
▁이제	-7.69708
▁따로	-7.70033
▁비	-7.70094
보	-7.70194
▁됩니더	-7.70255
▁뻐스	-7.70955
에게	-7.71263
▁먼저	-7.7129
디	-7.71343
들	-7.71467
▁쪼매	-7.7147
▁타고	-7.71502
▁동안	-7.71528
합니더	-7.71816
▁합니다	-7.71892
▁옷	-7.72502
하면	-7.72976
치	-7.73343
거	-7.7354
년	-7.73613
▁결제	-7.7407
▁준비	-7.7431
원	-7.74423
질	-7.74495
▁주세요	-7.7488
드	-7.75419
▁그래서	-7.75671
▁공부	-7.75959
▁책	-7.76056
▁주이소	-7.76447
▁계속	-7.77147
▁데	-7.7718
▁정	-7.77294
▁저녁	-7.77443
▁뭐	-7.77687
▁본	-7.78267
한테	-7.78416
▁말고	-7.78734
▁위해	-7.78829
어예	-7.79146
▁그녀는	-7.79254
▁타	-7.79453
▁같은데	-7.7956
▁남자	-7.79573
▁곳	-7.79888
▁무슨	-7.80118
긴	-7.80235
▁것을	-7.80508
시간	-7.80526
이나	-7.80967
▁빨리	-7.81171
▁여자	-7.81921
▁가서	-7.8268
▁언제	-7.82911
▁마	-7.8307
으면	-7.83117
▁시	-7.83398
▁방	-7.83556
▁모두	-7.8455
▁그렇게	-7.84785
▁길	-7.84985
▁낸	-7.85269
도록	-7.8553
▁학교	-7.85871
나요	-7.86398
▁내한테	-7.86592
▁있	-7.8677
▁중에	-7.86891
▁때문에	-7.869
▁추가	-7.87001
▁무	-7.87577
▁근데	-7.87621
▁자	-7.87634
▁땜시	-7.87717
▁그래	-7.87835
는디	-7.87992
▁나도	-7.88423
▁있다	-7.88468
께	-7.88653
▁건가요	-7.88704
▁후	-7.88751
▁조금	-7.88799
▁아니	-7.88965
▁원	-7.89076
시에	-7.89106
▁짐	-7.8911
▁없는	-7.89421
꼬	-7.8958
▁어	-7.89647
▁그녀	-7.90014
▁하지	-7.90153
▁좋아	-7.90254
▁같아예	-7.90335
▁하지만	-7.90513
▁되는	-7.90702
▁카드	-7.91018
명	-7.9114
▁있어서	-7.91511
들은	-7.91785
▁되	-7.91992
▁그라모	-7.92023
▁됩니다	-7.92803
▁사용	-7.93494
엔	-7.93568
▁대해	-7.93787
▁30	-7.94131
▁모든	-7.94636
▁후에	-7.94647
했어요	-7.94915
▁자주	-7.95041
합니다	-7.9511
▁지하철	-7.95171
길	-7.95187
▁오래	-7.95294
▁운동	-7.95361
▁이용	-7.95474
▁처음	-7.95542
▁수업	-7.95747
▁그라고	-7.95884
▁배	-7.9615
▁됩니꺼	-7.96358
▁간	-7.97644
▁부	-7.97678
▁시험	-7.98327
▁이거	-7.98399
▁6	-7.98441
▁택시	-7.98468
▁식사	-7.99152
▁쫌	-7.99444
트	-7.99452
▁가고	-7.99471
▁달	-7.99545
▁7	-7.99802
▁않	-8.00198
▁이미	-8.00211
▁저도	-8.00369
비	-8.00618
▁아침	-8.00687
▁없	-8.01018
▁되나요	-8.01067
▁있을까요	-8.01818
되	-8.02126
▁가면	-8.02164
으	-8.02349
여	-8.02388
▁문제	-8.02419
▁메뉴	-8.02903
▁요리	-8.03961
부	-8.04115
▁한번	-8.0425
▁즈희	-8.043
정	-8.04595
해요	-8.04893
▁어느	-8.05043
▁좋을	-8.05949
▁가지고	-8.06127
▁비행기	-8.06909
▁여서	-8.06985
▁바	-8.07136
▁적	-8.07172
▁필요	-8.07242
▁호텔	-8.07311
▁어데	-8.07449
죠	-8.0798
▁얘기	-8.08559
▁분	-8.08592
▁일찍	-8.08648
▁미리	-8.08711
▁이렇게	-8.0877
▁8	-8.08869
▁사람들	-8.08888
▁윽수로	-8.09283
▁것은	-8.09527
▁혼자	-8.09839
▁세	-8.09969
▁친구가	-8.09979
▁있나	-8.09986
▁이번에	-8.10263
▁들어	-8.10295
▁죄송하지만	-8.10434
마	-8.10475
▁없어요	-8.1048
▁수도	-8.10623
▁사고	-8.107
려	-8.10748
라꼬	-8.1089
▁싶어요	-8.10894
▁없어	-8.10927
▁싶은	-8.10985
▁그러면	-8.11026
래	-8.11496
▁가격	-8.11513
▁회사	-8.11546
▁먹고	-8.11678
▁하루	-8.11733
▁배송	-8.12114
▁할인	-8.12335
▁선물	-8.12422
▁사실	-8.12556
▁있는지	-8.12609
▁머리	-8.12748
구	-8.1277
오	-8.12886
▁싶어	-8.12932
▁가방	-8.12997
▁봐	-8.13209
▁안에	-8.13451
▁앞으로	-8.13454
▁내도	-8.13522
▁이런	-8.13549
▁하나요	-8.13628
▁또한	-8.13826
▁받을	-8.13875
점	-8.14115
▁잘못	-8.14161
▁그건	-8.14955
▁집에서	-8.15593
▁커피	-8.15858
▁상품	-8.15927
▁반	-8.16173
▁된	-8.16507
▁하면	-8.16567
▁한국에	-8.16625
▁이상	-8.1723
니더	-8.17237
이라	-8.17604
▁있으면	-8.17673
▁밥	-8.17948
▁해서	-8.17963
▁물건	-8.18257
▁아까	-8.18432
▁잠	-8.18485
▁대	-8.18766
▁기다리	-8.19125
용	-8.19379
적인	-8.20166
들을	-8.20256
소	-8.2047
▁옆에	-8.2073
▁만나	-8.21024
해가	-8.21049
처럼	-8.21062
었	-8.21078
▁구매	-8.21142
▁곳이	-8.21142
▁사랑	-8.2123
▁말을	-8.22006
▁될까요	-8.22278
▁음식을	-8.2252
▁여기서	-8.22818
▁먹을	-8.22852
드라	-8.22919
▁9	-8.22985
차	-8.23338
▁아마	-8.23387
우	-8.23613
▁문제가	-8.23892
▁원래	-8.2426
▁신	-8.24288
▁있을까예	-8.24504
▁날씨	-8.24605
▁시작	-8.24675
습니꺼	-8.24741
워	-8.24772
주이소	-8.24822
▁입	-8.25022
▁점	-8.25464
▁했는데	-8.25911
▁걱정	-8.25921
다가	-8.26032
시면	-8.26115
▁모	-8.26178
▁산	-8.26195
했습니더	-8.2621
▁아무	-8.26224
▁앞에	-8.26458
▁있십니더	-8.26799
▁대한	-8.27037
▁구	-8.27415
▁참	-8.2753
세요	-8.27645
▁것도	-8.27726
▁그것	-8.27767
▁그들은	-8.27819
선	-8.27963
▁그리고	-8.27979
십니꺼	-8.28031
▁들	-8.28118
▁당신을	-8.286
▁함	-8.28612
▁있고	-8.2917
전	-8.29227
▁을매나	-8.29235
▁수가	-8.2928
▁맛있	-8.29344
지예	-8.29372
까예	-8.29379
십니더	-8.29598
▁여러	-8.29704
▁돈	-8.29842
성	-8.2996
에스	-8.30024
내	-8.30142
식	-8.30611
인가요	-8.30721
주세요	-8.30758
▁때는	-8.30854
▁계산	-8.31024
▁20	-8.31053
▁그거	-8.31245
▁따라	-8.31277
라예	-8.31314
▁아이	-8.31362
화	-8.31458
▁직접	-8.31577
▁엄마	-8.31767
▁새로	-8.31841
운	-8.3185
▁어디	-8.31991
▁일단	-8.32029
▁여행을	-8.32205
▁나가	-8.32511
▁편	-8.32581
e	-8.32617
▁싶어예	-8.3267
▁별로	-8.32676
▁나와	-8.32701
▁가게	-8.32785
단	-8.32838
▁이름	-8.33059
했어예	-8.33143
▁사이즈	-8.33566
▁노래	-8.33997
지는	-8.34022
▁스	-8.34047
▁포장	-8.34114
▁아주	-8.34184
▁도착	-8.34203
하믄	-8.34212
그	-8.34412
▁갑자기	-8.34482
는지	-8.34734
▁기분이	-8.34849
▁찍어	-8.34906
▁필요한	-8.3544
▁A	-8.35589
▁점심	-8.35726
▁사람들이	-8.35791
▁근처에	-8.35991
▁했어요	-8.36028
줄	-8.3615
a	-8.36236
밖에	-8.36302
져	-8.36314
▁현재	-8.36636
▁테니	-8.37069
▁적이	-8.37316
려고	-8.37436
▁크	-8.38171
▁환불	-8.38281
▁합니꺼	-8.3835
▁다음에	-8.3874
마다	-8.3889
▁새	-8.3897
라는	-8.38974
이고	-8.39023
세	-8.39074
▁미	-8.3964
당	-8.39799
했	-8.39886
▁사람은	-8.39973
▁등	-8.40123
▁유	-8.40179
▁아니라	-8.40199
▁곧	-8.4022
▁건강	-8.40229
대로	-8.40442
▁확인해	-8.40559
이라예	-8.40581
▁게임	-8.40621
▁글	-8.40801
▁우	-8.40923
▁이것	-8.41018
▁자리	-8.41113
▁지내	-8.41301
합니데이	-8.41384
▁우선	-8.4146
▁힘들	-8.41814
▁교환	-8.41925
▁보이	-8.41925
▁그런데	-8.42147
▁명	-8.4249
▁않아요	-8.42593
▁없이	-8.4261
▁공연	-8.4261
▁종류	-8.42675
건	-8.42706
▁않고	-8.42952
▁돈을	-8.43016
브	-8.4312
방	-8.43234
▁손	-8.4388
▁장	-8.43942
▁응	-8.43991
▁있데이	-8.44653
▁먹는	-8.44671
▁야	-8.44907
▁이건	-8.44925
해가꼬	-8.45139
하신	-8.45219
▁않아	-8.45369
▁나에게	-8.45451
버	-8.45492
▁유명한	-8.45513
▁많	-8.45617
▁돼	-8.45647
십니다	-8.45666
▁변경	-8.45937
르	-8.45985
▁번호	-8.46008
▁감사합니다	-8.462
▁결혼	-8.46212
요잉	-8.4626
산	-8.4629
▁생일	-8.4666
▁이야기	-8.46692
▁주말에	-8.47391
▁계획	-8.47711
▁왔	-8.4777
▁겁니더	-8.48001
든	-8.48227
인지	-8.48353
다는	-8.48363
▁문	-8.48547
▁가격이	-8.48571
다꼬	-8.4885
▁장소	-8.48936
▁젤	-8.48952
▁아침에	-8.48993
▁오는	-8.49032
▁가능한	-8.49144
▁당신에게	-8.49152
적	-8.49264
▁핸드폰	-8.4936
▁소	-8.4986
▁12	-8.49913
▁오후	-8.49916
▁않은	-8.49999
모	-8.50171
▁총	-8.50175
▁신청	-8.50398
▁없는데	-8.50471
▁발	-8.50531
▁보는	-8.50812
▁기차	-8.51182
▁될까예	-8.51526
▁식당	-8.51592
▁드	-8.52054
▁있다고	-8.52102
당께요	-8.52109
타	-8.52141
층	-8.52152
▁만날	-8.52187
▁술	-8.52205
무	-8.52252
관	-8.52318
▁쓰	-8.5235
▁표	-8.52481
적으로	-8.52602
▁말씀	-8.52627
기가	-8.52674
▁저한테	-8.52798
▁방법	-8.52882
린	-8.52961
▁매우	-8.52991
걸	-8.53333
▁말이	-8.53417
▁늦게	-8.53455
카	-8.53468
▁서로	-8.53518
▁취소	-8.53574
▁불	-8.53666
▁상	-8.53864
▁있습니까	-8.53974
▁공항	-8.54123
동	-8.54198
미	-8.54216
▁있지	-8.54237
거나	-8.54369
▁사는	-8.54527
것	-8.54546
▁생각해	-8.54667
▁받아	-8.5471
▁고객님	-8.54874
기를	-8.54887
꺼	-8.54957
▁주에	-8.55142
▁이유는	-8.55182
▁있었	-8.55236
될	-8.55355
▁요청	-8.55372
▁시간에	-8.55518
였	-8.55622
▁그때	-8.5577
▁매일	-8.56251
▁음식이	-8.56278
▁만약	-8.5638
▁기다	-8.5656
▁날짜	-8.56582
간	-8.56868
했는데	-8.56939
▁돼요	-8.56941
▁음악	-8.56982
▁무료	-8.57005
▁나서	-8.57176
▁찾고	-8.57186
▁벌써	-8.57188
▁나온	-8.574
▁새로운	-8.57426
▁밤	-8.57432
▁안내	-8.57629
▁탈	-8.57672
이라고	-8.57782
▁공	-8.58034
▁뒤에	-8.58079
층에	-8.58095
▁않을	-8.58152
있	-8.58268
▁없어예	-8.58444
하시면	-8.5864
하실	-8.58693
▁피	-8.58784
▁좋	-8.58784
입니꺼	-8.58809
▁부탁	-8.58848
▁나의	-8.58867
▁맛있는	-8.58912
▁지가	-8.59037
▁너의	-8.59138
▁전부	-8.59163
▁시에	-8.59549
▁보러	-8.59678
▁없을	-8.59962
되어	-8.60145
▁꿈	-8.60212
▁없어서	-8.60249
라도	-8.6035
▁나오는	-8.60494
▁그게	-8.60608
▁해도	-8.60744
했던	-8.60808
▁누구	-8.60889
▁들어가	-8.60987
▁없다	-8.61031
프	-8.61161
▁지는	-8.61181
▁드라마	-8.61553
▁작은	-8.61626
울	-8.6163
물	-8.61786
니께	-8.61807
▁되어	-8.61909
▁배달	-8.61942
▁차가	-8.61992
▁찍	-8.62241
▁무엇	-8.62292
▁방문	-8.62295
▁보여	-8.62334
▁매	-8.6236
▁경우	-8.62574
▁보면	-8.6264
▁거로	-8.62707
졌	-8.62851
▁생각이	-8.62923
▁선택	-8.63276
▁누가	-8.63334
▁강	-8.63366
▁겁나게	-8.63453
▁드릴	-8.63481
란	-8.63531
▁보통	-8.63574
▁없습니다	-8.63757
▁청소	-8.63861
▁알려	-8.6415
▁넣어	-8.64159
▁가가	-8.64211
▁대신	-8.6449
▁이해	-8.64874
▁되고	-8.64996
음	-8.65088
갈	-8.65416
바	-8.65477
호	-8.65493
▁기억	-8.65634
▁맛	-8.65669
▁깁니더	-8.65757
▁운전	-8.65762
▁재	-8.65913
o	-8.65968
▁노력	-8.66051
시믄	-8.66288
학	-8.66481
석	-8.6665
▁나오	-8.667
t	-8.66772
▁학교에	-8.66876
▁화장실	-8.6694
▁니한테	-8.66979
▁번째	-8.67015
2	-8.67164
▁설명	-8.67348
▁건데	-8.67441
▁죄송합니다	-8.67442
▁받고	-8.67492
▁않는	-8.67603
▁주실	-8.67627
▁운동을	-8.67671
하여	-8.67782
▁중요한	-8.68034
▁됐	-8.68115
▁그가	-8.68169
▁컴퓨터	-8.6826
▁저번에	-8.68381
▁손님	-8.68397
▁싶습니다	-8.6842
회	-8.68425
으예	-8.68515
▁와서	-8.68529
▁영수증	-8.68721
▁기대	-8.69388
▁방금	-8.69918
▁저녁에	-8.70153
▁딱	-8.70209
기는	-8.70228
때	-8.70402
l	-8.70465
던데	-8.70646
▁않았	-8.70749
두	-8.70783
집	-8.70879
해도	-8.70888
며	-8.70973
니꺼	-8.71092
구나	-8.71098
▁여권	-8.71116
▁뒤	-8.71189
했습니다	-8.71228
▁출발	-8.71318
▁눈	-8.71531
면서	-8.71563
▁같습니다	-8.71699
▁잔	-8.71819
▁가족	-8.72002
하러	-8.72038
▁없습니더	-8.72126
위	-8.72213
1	-8.7229
▁내용	-8.72495
▁저기	-8.7257
▁지난	-8.72665
으믄	-8.72771
덜	-8.72874
▁내리	-8.72896
▁쓸	-8.72956
더	-8.72975
▁판매	-8.73002
▁애	-8.73011
▁서	-8.73053
▁배우	-8.73099
다니	-8.73456
▁대화	-8.7361
▁아이가	-8.73771
▁있으니	-8.73775
▁있나예	-8.74149
나예	-8.74172
었는데	-8.74193
▁주문한	-8.74206
▁진행	-8.74211
▁담	-8.74248
▁묵고	-8.74295
▁실	-8.74639
▁뭘	-8.7466
중	-8.74686
되는	-8.74856
안	-8.75056
▁오전	-8.7523
▁원하는	-8.75242
▁일주일	-8.75277
이소	-8.75278
시까지	-8.75331
등	-8.75351
▁비싸	-8.75401
▁인	-8.75459
▁한국에서	-8.75468
▁남	-8.75501
▁싶데이	-8.75735
예요	-8.75833
▁15	-8.75987
▁뭐가	-8.76097
▁찾아	-8.76114
금	-8.76169
▁마지막	-8.76226
겠습니다	-8.7625
▁음료	-8.76313
▁위치	-8.76441
코	-8.76447
▁뭔	-8.76451
▁했	-8.76566
▁낼	-8.76608
▁마지막으로	-8.76691
▁경기	-8.77019
출	-8.77219
▁쉬	-8.77267
▁한다	-8.77327
▁저에게	-8.77472
▁팀	-8.77618
▁양	-8.7778
▁맞는	-8.77847
▁결과	-8.77972
▁환전	-8.78126
▁과제	-8.78179
군요	-8.78329
▁딴	-8.78373
▁드릴게요	-8.78526
▁말해	-8.78613
A	-8.78683
▁생각에	-8.78782
었어요	-8.78878
게요	-8.78976
▁팔	-8.79012
▁먹	-8.79224
▁나라	-8.79356
▁주소	-8.79476
지도	-8.79546
▁맛이	-8.79586
▁일정	-8.79621
▁나중에	-8.7973
역	-8.79875
▁만들어	-8.79894
▁입고	-8.79903
해주세요	-8.80035
색	-8.80156
▁연	-8.80268
▁요금	-8.8051
행	-8.80626
종	-8.80641
▁겁니꺼	-8.80646
▁11	-8.80677
니다	-8.80716
▁추천	-8.80728
▁일본	-8.80748
▁매장	-8.80894
약	-8.80904
▁아니요	-8.81082
▁통	-8.81159
이라서	-8.81203
교	-8.81629
보다는	-8.81833
▁S	-8.81858
▁마음에	-8.81925
▁당연	-8.81965
통	-8.8219
▁강아지	-8.82289
▁투어	-8.82383
븐	-8.82484
▁추	-8.82542
▁티켓	-8.82554
▁좋지	-8.82623
날	-8.82643
▁아닌	-8.82898
▁소리	-8.82912
루	-8.8314
▁주말	-8.83192
겨	-8.83291
m	-8.83305
▁정보	-8.83362
▁앞	-8.83491
▁거기	-8.83641
까요	-8.83679
▁들고	-8.83868
▁오랜만	-8.83951
▁당슨	-8.8424
살	-8.844
블	-8.84417
님	-8.84454
▁봤	-8.84458
▁돈이	-8.84484
▁건물	-8.84499
5	-8.84512
형	-8.84602
▁도움이	-8.84624
크	-8.84686
▁절대	-8.84959
입니데이	-8.84965
입	-8.85013
레	-8.85091
▁진	-8.85222
▁어디에	-8.85268
▁화	-8.85305
▁길이	-8.85442
▁파	-8.85509
▁최대한	-8.85588
▁당슨은	-8.85595
혀	-8.85734
매	-8.8575
인디	-8.85803
▁가까운	-8.86063
하세요	-8.86069
유	-8.86087
▁미국	-8.86318
▁연습	-8.86341
▁것입니다	-8.86452
▁있기	-8.86711
더라	-8.86799
▁아는	-8.86828
▁개인	-8.87094
▁첫	-8.87152
▁금방	-8.87177
▁조	-8.87185
▁같	-8.87253
▁이유	-8.87333
기도	-8.87341
▁꽤	-8.87438
▁대부분	-8.87438
▁결정	-8.87455
▁친구들	-8.87473
▁같데이	-8.87543
▁바랍니다	-8.87605
▁많아서	-8.87708
다면	-8.87803
▁속	-8.87846
이라는	-8.87945
▁학생	-8.87996
▁가믄	-8.88029
았	-8.88061
▁묵	-8.8808
시는	-8.88119
▁거에요	-8.88346
▁그림	-8.88355
▁최고	-8.88557
▁추천해	-8.88568
▁재밌	-8.88599
▁좋아요	-8.88634
▁대학	-8.88765
▁휴가	-8.88852
▁지도	-8.88879
▁그렇다면	-8.89147
저	-8.8919
하려고	-8.89203
▁한데	-8.89245
i	-8.89253
▁자기	-8.89278
반	-8.89349
▁싫어	-8.8951
▁맞	-8.89536
계	-8.89583
따	-8.89616
셔야	-8.89672
▁단	-8.8981
▁된다	-8.8983
▁마음	-8.89872
잖아	-8.8989
이라도	-8.89913
▁객실	-8.90147
발	-8.90168
달러	-8.90179
▁마음이	-8.90209
▁있게	-8.90248
▁최근에	-8.90262
▁생활	-8.90269
▁요번	-8.9028
▁써	-8.90285
▁감	-8.90299
▁체크인	-8.90323
▁부모님	-8.90378
▁밤에	-8.90422
▁방법이	-8.9053
▁좌석	-8.90723
▁가능합니다	-8.90743
▁저번	-8.90797
체	-8.90901
▁따	-8.90917
판	-8.90928
개월	-8.90982
▁좋아하	-8.91026
생	-8.9109
▁프로그램	-8.91167
▁세트	-8.91445
▁막	-8.91592
▁탑승	-8.91688
▁메시지	-8.91701
▁어데서	-8.91893
▁괜찮	-8.9192
박	-8.91929
▁있으	-8.91989
▁신경	-8.9201
▁알아	-8.92059
▁다르	-8.92092
터	-8.92136
기로	-8.92192
▁없나요	-8.92208
▁해예	-8.92217
▁안녕하세요	-8.92282
▁당신한테	-8.92327
▁신발	-8.92421
달	-8.92542
▁니랑	-8.92591
었던	-8.92673
▁생각보다	-8.9268
▁싶	-8.92738
▁신고	-8.92857
▁처리	-8.9294
▁병원	-8.92953
▁같네예	-8.9299
▁빼	-8.92992
▁기회	-8.93024
으니	-8.93079
▁하기	-8.93123
연	-8.93125
▁아무래도	-8.93163
▁위	-8.93283
▁침대	-8.93286
▁여러분	-8.93421
하도록	-8.93467
▁차이	-8.93554
른	-8.9356
▁날이	-8.93591
▁카메라	-8.93753
합니꺼	-8.93817
▁기다려	-8.93862
▁왔는데	-8.93865
▁메일	-8.93889
▁B	-8.93894
이야	-8.94085
▁치	-8.941
3	-8.94111
▁서비스	-8.94123
▁있어가	-8.94228
▁것이에요	-8.94273
▁넘	-8.94323
겠다	-8.94404
▁살고	-8.94414
▁모습	-8.94491
▁있습니다잉	-8.94496
라서	-8.94595
▁디자인	-8.94728
▁그라	-8.94745
겠어요	-8.94797
▁둘	-8.94813
▁졸업	-8.95021
▁내랑	-8.9518
▁충분	-8.95235
품	-8.95268
▁나올	-8.95315
▁했어예	-8.95332
▁있어가꼬	-8.95404
▁잡	-8.95417
문	-8.9548
▁어때	-8.95582
에서는	-8.95588
▁초	-8.95615
▁텐데	-8.95622
릴	-8.95636
▁늘	-8.95814
▁우린	-8.95885
공	-8.95895
▁않아예	-8.95917
됐	-8.95931
▁카	-8.9599
▁가능하	-8.9606
렸	-8.96112
▁행동	-8.9613
함	-8.96139
해주이소	-8.96319
▁인기	-8.96418
▁가능합니더	-8.96485
▁맥주	-8.96498
하는데	-8.96561
가요	-8.96674
습니데이	-8.9677
티	-8.96837
▁되지	-8.96955
▁촬영	-8.96959
▁지나	-8.97013
▁크기	-8.97028
즈	-8.97126
s	-8.9717
주실	-8.97209
▁아니예	-8.97215
▁그걸	-8.9741
▁싶습니더	-8.97438
▁가능한가요	-8.97445
권	-8.97593
▁먹어	-8.97612
▁집으로	-8.9763
▁걸리	-8.97701
▁행사	-8.97724
▁하믄	-8.97755
▁숙소	-8.97863
▁보기	-8.97905
▁학생들	-8.97943
▁갖고	-8.9795
&	-8.9799
▁잠시	-8.98058
▁나이	-8.98108
▁동	-8.98158
난	-8.98382
▁병원에	-8.98415
▁월요일	-8.9845
명이	-8.98523
▁축구	-8.98613
▁가자	-8.98621
▁죄송합니더	-8.98622
▁하는지	-8.98693
▁곳에	-8.98866
▁없고	-8.98873
▁전혀	-8.99027
표	-8.99038
▁좋다	-8.99097
▁일은	-8.99219
▁여름	-8.99269
라믄	-8.99316
▁도움	-8.99324
▁보니	-8.99387
라면	-8.99488
▁바꿔	-8.99524
▁싸	-8.99533
▁아래	-8.99558
▁위해서	-8.9956
▁갔다	-8.99671
▁약속	-8.99741
▁모르	-8.99745
▁냄새	-8.99862
▁근처	-8.99866
▁걱정하지	-9.00002
하시믄	-9.00082
▁며칠	-9.00178
▁그랬	-9.00233
▁분이	-9.00236
조	-9.00313
어서	-9.00397
▁서울	-9.00408
▁역	-9.00446
▁고기	-9.00456
습니까	-9.00478
▁윽시	-9.00497
▁피부	-9.00761
▁해가	-9.00872
▁방이	-9.00925
▁있으믄	-9.01001
▁직원	-9.01019
▁위한	-9.01078
▁파티	-9.01166
▁같습니더	-9.01199
▁중국	-9.01223
▁변	-9.01305
'	-9.0132
▁도착할	-9.01556
▁아프	-9.01772
▁치료	-9.01776
본	-9.01798
▁분명	-9.01872
▁100	-9.01913
▁너희	-9.02063
▁낫	-9.02098
▁감사합니데이	-9.02113
▁그럴	-9.02115
▁잠깐	-9.02163
▁않습니다	-9.02213
들의	-9.02266
▁감사	-9.02296
▁놀러	-9.02414
▁특별	-9.025
▁좋겠다	-9.02542
▁있지만	-9.02658
▁씨	-9.02767
▁오른쪽	-9.02783
▁쉽게	-9.02806
▁오면	-9.02843
▁입원	-9.02868
▁대해서	-9.02907
▁올해	-9.03006
▁이용할	-9.0319
학년	-9.0332
씩	-9.03343
▁쿠폰	-9.03388
▁지금까지	-9.03396
▁눈이	-9.035
▁주는	-9.03583
▁그러	-9.03676
▁덕분에	-9.03715
▁힘든	-9.03721
▁내를	-9.03742
▁나한테	-9.03755
해주	-9.03837
▁이게	-9.03847
보고	-9.03848
▁끝나	-9.03892
양	-9.03893
▁아니면	-9.03905
▁있는디	-9.03916
▁말씀해	-9.03964
키	-9.03992
가예	-9.04116
▁고등학교	-9.04211
▁겁니다	-9.04263
x	-9.04322
▁이곳	-9.04514
▁즈희가	-9.04568
▁제공	-9.04653
00	-9.04756
료	-9.04783
국	-9.04804
십니까	-9.04899
▁어렵	-9.04981
▁이래	-9.05032
▁교수님	-9.05109
▁끝나고	-9.05122
▁재미있	-9.05177
원이	-9.05255
▁맞아	-9.05324
준	-9.05486
▁같은디	-9.05591
▁준비해	-9.05605
▁제품은	-9.0561
S	-9.05615
▁선	-9.05735
▁어디로	-9.05902
▁얼굴	-9.05914
▁그것은	-9.0598
▁굉장	-9.06033
입니까	-9.06168
▁찾으	-9.06352
▁마사지	-9.0637
▁아빠	-9.06386
▁자리가	-9.0652
▁몰	-9.06525
할게요	-9.06558
셔서	-9.06615
▁거는	-9.06627
▁돌아가	-9.06678
▁치킨	-9.06711
▁좋겠어요	-9.06748
▁경험	-9.06777
주시믄	-9.06865
▁되었	-9.06913
▁그리	-9.07025
▁불러	-9.07108
▁드리	-9.07209
▁어디서	-9.0741
▁금액	-9.07415
▁감사합니더	-9.07429
일에	-9.07517
시부터	-9.07551
▁스트레스	-9.07656
▁만들	-9.07681
▁주시면	-9.07709
▁카페	-9.07776
다믄	-9.07818
▁죄송한데	-9.0784
▁하는디	-9.08006
릿	-9.08042
▁주차	-9.08063
▁말하는	-9.0836
▁활동	-9.08406
▁피자	-9.08465
호선	-9.08531
하겠습니다	-9.08621
씬	-9.08659
류	-9.08715
▁C	-9.08723
▁대로	-9.08899
으니까	-9.08996
▁기라예	-9.09026
▁자꾸	-9.09104
▁걸릴	-9.09192
▁타야	-9.09205
▁인기가	-9.09209
동안	-9.09222
▁예전에	-9.09242
▁마이소	-9.09322
▁면세점	-9.09527
▁마세요	-9.09533
었습니더	-9.09582
▁이사	-9.09603
▁은행	-9.09682
▁남편	-9.09701
▁때까지	-9.09708
▁비가	-9.09727
했을	-9.09777
▁케이크	-9.09787
▁색	-9.09804
▁접수	-9.09825
셔도	-9.09918
했다	-9.09952
왔	-9.10016
▁보냈	-9.10025
▁외	-9.10143
직	-9.10154
▁질	-9.10182
▁받은	-9.10345
▁부분	-9.10383
▁우리의	-9.10491
▁목표	-9.10497
▁통화	-9.10519
▁주변	-9.10636
▁다리	-9.10706
했어	-9.10769
▁가시면	-9.1081
▁많아	-9.11113
▁너에게	-9.11115
▁여기에	-9.11126
인가예	-9.11283
▁효과	-9.11331
▁잠시만	-9.11372
▁걸로	-9.11481
▁발생	-9.11688
려면	-9.11969
▁고민	-9.12017
▁당신과	-9.1203
웠	-9.12103
▁낍니더	-9.12252
온	-9.12279
▁추가로	-9.12292
▁영상	-9.12347
다이가	-9.12352
친	-9.12354
▁노	-9.12514
▁싶지	-9.12613
업	-9.12765
▁영어로	-9.12789
▁올라가	-9.12814
▁제품이	-9.12983
▁환승	-9.13044
▁식	-9.13058
▁출구	-9.13093
었다	-9.1313
봐	-9.13179
됩니다	-9.13183
▁뭔가	-9.13249
▁색상	-9.13257
▁밖에	-9.13327
▁찾을	-9.13328
▁발표	-9.13351
▁되면	-9.13352
▁가기	-9.13355
▁삶	-9.13367
▁첨	-9.1342
▁퇴근	-9.13486
M	-9.13566
n	-9.13586
▁갔	-9.13596
▁다양한	-9.13689
▁맨날	-9.13695
▁마시고	-9.13719
▁닌	-9.13745
▁테니까	-9.13833
어야	-9.13885
▁상황	-9.141
▁있도록	-9.14191
▁살아	-9.14334
▁작품	-9.14358
▁카드로	-9.14392
▁있다는	-9.14473
에요	-9.14489
받	-9.14494
▁여자친구	-9.14586
▁없으	-9.14655
▁남자친구	-9.14686
하다	-9.14689
▁시키	-9.14859
▁키	-9.14916
▁깨	-9.14937
▁자신	-9.14999
▁준	-9.15042
▁있으니까	-9.15053
▁통해	-9.15067
-	-9.15146
▁꽃	-9.15229
▁가꼬	-9.15257
▁관심	-9.1531
▁드릴게예	-9.15428
있는	-9.15487
▁영	-9.15488
▁합니데이	-9.15554
▁쓰는	-9.1558
▁알리	-9.15613
▁사용할	-9.15643
▁보이는	-9.15892
▁역시	-9.16059
거든요	-9.16152
▁타는	-9.16178
▁끼다	-9.16196
하이소	-9.16229
▁친	-9.16265
재	-9.16298
▁감기	-9.16382
▁실수	-9.16402
▁별	-9.16429
▁거라	-9.1646
▁거죠	-9.16493
▁아니야	-9.16515
▁당장	-9.16681
▁동아리	-9.16694
▁금요일	-9.16786
▁당	-9.16948
▁챙겨	-9.16998
▁고객	-9.17011
볼	-9.17036
시고	-9.1705
주셔서	-9.17155
▁택배	-9.17306
하시는	-9.17322
▁저희는	-9.1741
▁나왔	-9.17542
분이	-9.17573
▁달에	-9.1768
▁쪼매만	-9.17718
▁행복	-9.17737
하시고	-9.17932
d	-9.17966
▁포	-9.17975
▁관람	-9.18123
C	-9.18135
▁입학	-9.18145
허	-9.18154
▁묵을	-9.18169
급	-9.1819
▁목	-9.18282
▁있어야	-9.18321
드릴	-9.18368
▁금	-9.18432
▁그렇군요	-9.18504
넌	-9.18504
▁빵	-9.18519
▁만든	-9.18539
▁파는	-9.18613
쯤	-9.18779
▁현금	-9.18971
▁도와	-9.18999
▁하나도	-9.1925
▁순	-9.19261
▁출근	-9.1927
▁서류	-9.19296
더니	-9.19401
▁느끼	-9.19402
▁두고	-9.19489
플	-9.19579
▁어쩔	-9.19649
▁직장	-9.19744
▁겨울	-9.19747
▁어데로	-9.19779
▁위에	-9.1985
▁술을	-9.19954
▁때마다	-9.20012
▁도대체	-9.20034
▁바랍니더	-9.20038
▁기분	-9.20092
▁벌	-9.20169
거리	-9.20198
케	-9.20215
▁풀	-9.2029
▁친구들과	-9.20292
▁소스	-9.20333
게예	-9.20534
이면	-9.20541
피	-9.20636
강	-9.20749
▁것으로	-9.20859
▁하루에	-9.20864
▁행복하	-9.21006
▁않아서	-9.21143
p	-9.21184
▁보낼	-9.21218
▁아무것	-9.21247
▁없었	-9.213
▁샀는데	-9.21332
▁아이라	-9.21342
▁할지	-9.21527
▁만난	-9.21608
D	-9.21703
▁이유가	-9.21839
▁끼	-9.22039
감	-9.22097
▁관광	-9.22132
▁지각	-9.22141
만큼	-9.22149
▁그룹	-9.22373
▁염색	-9.22374
▁퍼뜩	-9.22374
▁어떻노	-9.22413
▁토요일	-9.2248
▁조금만	-9.22553
▁만큼	-9.22628
▁거리	-9.22646
▁앉아	-9.22742
▁기는	-9.22759
▁좋아예	-9.22819
▁사과	-9.22956
▁바다	-9.23049
▁특별한	-9.23059
이다	-9.23151
돼	-9.23151
▁다이어트	-9.23169
▁알려주세요	-9.23232
▁의사	-9.23328
칠	-9.23375
▁대학교	-9.23386
▁수학	-9.23542
▁특히	-9.23564
▁몰랐	-9.23585
배	-9.23724
▁남아	-9.23817
8	-9.23831
▁마음을	-9.2396
▁기계	-9.24095
었어	-9.24217
▁소개	-9.24234
▁해결	-9.2427
▁봤는데	-9.24276
▁내일은	-9.24343
▁받는	-9.24352
▁전화해	-9.24553
▁지갑	-9.24803
▁취미	-9.24804
겄	-9.24832
▁했습니더	-9.24832
▁관리	-9.24906
▁사이	-9.24982
▁줘	-9.24992
▁관심이	-9.25025
▁왔어요	-9.25078
락	-9.2514
하셔야	-9.25164
▁허	-9.25218
▁예매	-9.25293
불	-9.25329
▁비용	-9.25329
▁그러나	-9.2542
▁요번에	-9.25535
▁친구를	-9.25544
▁끝	-9.25556
▁휴대폰	-9.2558
복	-9.25846
력	-9.25894
▁세계	-9.26033
▁50	-9.26059
▁경	-9.26095
▁아마도	-9.26109
▁같네요	-9.26188
▁각	-9.26364
▁햄버거	-9.26398
▁직업	-9.26406
▁성함	-9.26439
▁앞에서	-9.26484
▁포함	-9.26496
▁이야기를	-9.26549
▁연기	-9.26676
▁오후에	-9.26728
▁생	-9.26748
▁코스	-9.2676
었어예	-9.26799
▁같아서	-9.26899
▁재료	-9.26929
속	-9.27001
▁관련	-9.27167
▁의미	-9.27206
▁작성	-9.27237
▁치즈	-9.27242
▁그람	-9.2731
▁당슨이	-9.27312
▁받았	-9.27329
▁문의	-9.27422
▁김	-9.27432
▁맞춰	-9.27641
▁만났	-9.27707
▁하자	-9.27708
▁알겠습니다	-9.2772
해예	-9.2783
기에	-9.27884
혔	-9.2789
▁집중	-9.27953
▁있니	-9.27974
▁꺼	-9.28004
증	-9.28042
량	-9.28058
▁맞다	-9.28073
▁하겠습니다	-9.28115
▁40	-9.28132
▁좋았	-9.28148
▁포장해	-9.28197
▁싶은디	-9.282
▁상태	-9.28211
▁개안	-9.28237
▁제발	-9.28247
▁아기	-9.28334
▁커	-9.28443
▁중에서	-9.28506
▁번도	-9.28599
▁회사에	-9.28631
설	-9.28746
다들	-9.28797
▁이동	-9.28877
▁느	-9.28887
▁심	-9.2898
▁천천히	-9.29083
▁것보다	-9.29179
▁쇼핑	-9.29196
▁좋겠어	-9.29337
줘	-9.29351
심더	-9.29388
▁지원	-9.29427
▁M	-9.29516
▁수영	-9.29564
씨	-9.29624
▁정확히	-9.29739
▁검사	-9.2974
▁월요일에	-9.29959
▁아무리	-9.29993
됩니더	-9.29994
▁깊	-9.3021
▁되는데	-9.30419
▁일어나	-9.30519
▁사랑하는	-9.30587
▁듣고	-9.30591
▁바꿀	-9.30594
▁고양이	-9.30595
▁바까	-9.30753
▁호텔에	-9.31074
▁누	-9.31154
▁봐야	-9.31515
작	-9.31595
경	-9.31719
▁작	-9.31831
▁묵는	-9.31853
▁운영	-9.31889
겠지만	-9.31917
▁호	-9.31997
당게	-9.32033
▁다니	-9.32144
▁그짝	-9.3216
포	-9.32245
▁물어보	-9.32274
다아이가	-9.32362
래이	-9.32385
▁내년에	-9.32433
▁남은	-9.32596
▁결국	-9.32766
▁공항에	-9.32875
▁할게요	-9.32885
▁정리	-9.33014
▁필요하	-9.33069
▁스타일	-9.33095
▁인터넷	-9.3316
▁신용카드	-9.33195
▁업무	-9.33195
▁앱	-9.33338
▁났	-9.33623
및	-9.33635
▁자전거	-9.33635
▁부탁드립니더	-9.33643
하면서	-9.33707
▁고마워	-9.33727
▁해주세요	-9.33775
었습니다	-9.33832
▁빌리	-9.3385
임	-9.33878
병	-9.33898
▁드시	-9.33911
▁부탁드립니다	-9.33974
▁자세	-9.33974
법	-9.34114
▁해주	-9.34115
이기	-9.34196
▁쭉	-9.34305
▁너거	-9.34402
겠습니더	-9.34463
▁느낌이	-9.34483
▁발송	-9.3453
편	-9.34551
▁맡	-9.34606
0	-9.34636
▁생기	-9.34697
▁평소에	-9.34767
▁주변에	-9.34808
월에	-9.34813
▁타면	-9.34815
▁보니까	-9.34965
드릴게예	-9.3497
▁담배	-9.34986
y	-9.35017
▁가려고	-9.35229
▁골	-9.35255
7	-9.3529
▁알았	-9.35336
▁회의	-9.35451
▁죽	-9.35531
▁일반	-9.35602
▁문자	-9.35623
▁소식	-9.35636
▁병	-9.35642
입니다잉	-9.35656
▁웃	-9.3566
▁만	-9.35738
▁예약이	-9.35755
kg	-9.35873
P	-9.36024
▁수영장	-9.36159
▁체	-9.36234
▁직원이	-9.36236
▁방에	-9.3624
▁예약하고	-9.36287
▁점이	-9.363
▁자동차	-9.36333
올	-9.3634
▁언제쯤	-9.36385
▁편지	-9.36407
▁사야	-9.36479
▁우리나라	-9.36492
▁그렇지	-9.36518
▁니도	-9.36636
파	-9.36738
토	-9.36751
림	-9.36772
▁몸이	-9.36774
▁멋진	-9.36775
▁아니고	-9.36779
▁떠나	-9.36784
▁전화번호	-9.36807
간이	-9.36924
▁과일	-9.36971
▁받으	-9.36979
▁기가	-9.37018
▁것처럼	-9.37103
▁코	-9.37108
냐	-9.37113
▁부분이	-9.37153
시길	-9.37156
할게예	-9.37185
▁있다면	-9.37189
▁마시	-9.37193
▁성적	-9.37193
▁들었	-9.37265
▁해가꼬	-9.37343
▁고것	-9.37419
▁종	-9.37459
▁했어	-9.375
▁선생님	-9.37601
겠	-9.37648
▁디저트	-9.3769
▁바쁘	-9.37692
▁즐겁게	-9.37808
겠네요	-9.37827
▁수정	-9.37877
▁있을까	-9.37903
▁알려주	-9.38052
▁샐러드	-9.38151
▁너도	-9.38153
▁계	-9.38195
▁고장	-9.38272
▁복	-9.3832
▁행복한	-9.3844
스트	-9.38455
런	-9.38458
▁와인	-9.38475
▁종일	-9.38476
▁법	-9.38512
▁있었어요	-9.38578
▁왼쪽	-9.38578
▁즈희는	-9.38844
▁괜찮아	-9.38863
▁들었는데	-9.3892
▁오지	-9.38955
▁먹으면	-9.38964
드리	-9.39019
▁거짓말	-9.39079
하자	-9.39088
▁요새	-9.39102
▁인생	-9.39131
▁걸어	-9.39189
▁걱정이	-9.39196
▁여는	-9.392
▁달라	-9.39233
▁화장품	-9.39238
▁가능	-9.39285
뿌	-9.39334
▁않나	-9.39515
▁음	-9.39562
말	-9.3963
▁바지	-9.39669
▁인사	-9.39676
▁나갈	-9.39766
습	-9.3978
격	-9.39791
▁거기에	-9.39842
▁토요일에	-9.39889
인실	-9.39986
▁가도	-9.4
▁친구와	-9.40014
▁수수료	-9.40016
4	-9.40048
▁학교에서	-9.40069
▁그동안	-9.40116
▁기간	-9.40149
▁그날	-9.4029
▁어린이	-9.40407
당께	-9.40446
져서	-9.40573
▁친구랑	-9.40618
▁콘서트	-9.40686
한다고	-9.40698
▁성	-9.40705
▁현금으로	-9.40862
▁예상	-9.40948
▁공항에서	-9.40984
▁같십니더	-9.41004
▁갖다	-9.41213
▁위해가	-9.4143
랫	-9.41437
▁출장	-9.41501
▁24	-9.41576
주는	-9.41578
▁자고	-9.41595
어라	-9.41606
▁예정	-9.41649
▁해주이소	-9.41694
태	-9.41772
▁확실히	-9.41916
▁가끔	-9.42001
▁각자	-9.42018
▁금요일에	-9.42061
▁보믄	-9.42211
▁확인하고	-9.42215
까정	-9.42264
▁참고	-9.42268
▁찾는	-9.42396
▁체크아웃	-9.42396
▁주문했는데	-9.42528
▁한다고	-9.42609
갔	-9.42644
▁지역	-9.42823
▁꾸준	-9.42887
▁모델	-9.42889
자가	-9.42901
▁방으로	-9.42938
▁있었는데	-9.42961
▁도시	-9.42992
▁비싼	-9.43106
▁뜨	-9.43118
▁건지	-9.43154
▁샘플	-9.43365
▁아부지	-9.43367
▁쪽	-9.4341
▁이걸	-9.43421
길래	-9.43489
▁위험	-9.43624
▁남았	-9.43715
▁몰라	-9.43761
▁재고	-9.43798
▁높은	-9.43853
▁교	-9.43889
세예	-9.43954
허고	-9.43968
▁걸어가	-9.43991
목	-9.44071
▁물론	-9.44121
▁제게	-9.44142
층으로	-9.44151
▁아픈	-9.44206
▁느낌	-9.44386
▁조심	-9.44396
▁보관	-9.44434
들도	-9.44485
▁놓	-9.44491
능	-9.44514
▁돌	-9.44656
▁만나는	-9.44678
▁허리	-9.44712
▁제대로	-9.44722
레이	-9.44722
I	-9.4477
▁잊지	-9.44836
▁했던	-9.44909
▁정도로	-9.4507
▁일요일	-9.4518
▁보험	-9.45323
/	-9.45331
▁댕기	-9.45337
▁국	-9.45353
▁요금이	-9.45378
▁진짜로	-9.45416
시겠습니꺼	-9.45452
잖아요	-9.45658
▁괜찮은	-9.45664
근	-9.45668
▁카는데	-9.45763
▁우유	-9.4587
▁이메일	-9.45909
▁물어봐	-9.45928
민	-9.45994
주실래예	-9.45997
▁여름에	-9.46056
▁버	-9.46084
▁대기	-9.46121
▁생각에는	-9.4613
주시면	-9.46147
▁사용해	-9.46152
니데이	-9.46161
▁천	-9.46162
▁레스토랑	-9.46236
▁에어컨	-9.46328
▁이벤트	-9.46328
▁즐거운	-9.46331
▁주시겠어요	-9.46372
▁은제	-9.46502
▁나랑	-9.46572
▁P	-9.46638
▁긴	-9.46718
▁입장	-9.46857
▁봐요	-9.46871
▁전시	-9.46888
되지	-9.46935
▁같노	-9.46938
▁그곳	-9.46942
봤	-9.46967
▁해당	-9.46968
▁거라고	-9.47102
▁받	-9.47127
▁싶었	-9.47192
▁있던	-9.47228
O	-9.47355
▁진심으로	-9.47436
▁달라고	-9.47459
▁때문이	-9.47664
▁D	-9.47678
▁귀	-9.47785
믄서	-9.47805
▁드리겠습니다	-9.4789
▁거서	-9.47898
하나요	-9.47945
▁주의	-9.48003
▁우예	-9.48011
▁적어	-9.48121
▁분실	-9.48131
▁있노	-9.48143
▁콜라	-9.4836
▁주고	-9.48444
▁맞나요	-9.48531
▁그대로	-9.4858
▁연락해	-9.48603
▁겁나	-9.48647
▁잠만	-9.48777
▁으	-9.48816
데예	-9.48852
▁답변	-9.48868
▁인천	-9.48886
▁관계	-9.48961
▁똑같	-9.49003
후	-9.49008
▁제작	-9.49023
▁생각해요	-9.49044
▁배송이	-9.49256
장이	-9.49268
▁되나	-9.49346
▁힘들어	-9.49349
▁화가	-9.4937
▁챙기	-9.49386
▁설치	-9.49411
▁T	-9.49416
▁슨생님	-9.49423
▁끝났	-9.49504
▁내야	-9.49615
▁춤	-9.49663
▁엄청	-9.49695
▁바꾸	-9.49725
▁생각합니더	-9.49768
▁창	-9.4987
▁정확한	-9.499
c	-9.49923
쪽	-9.50135
리는	-9.50182
▁없지만	-9.50233
립	-9.50295
▁축제	-9.50422
▁방송	-9.50439
▁도와주	-9.50461
▁따라서	-9.50502
▁예약할	-9.5062
▁좋아하지	-9.50632
▁바라	-9.50733
▁샀	-9.50786
▁추억	-9.50843
뿐	-9.50912
추	-9.50937
▁분위기	-9.50945
▁등록	-9.50949
▁복용	-9.50977
▁않으	-9.51295
▁똑같은	-9.51331
까지는	-9.5146
▁나눠	-9.51471
▁가이드	-9.51478
▁결	-9.51488
▁언니	-9.5152
▁문화	-9.51545
▁공원	-9.51634
▁테이블	-9.51751
▁안전	-9.5177
액	-9.51799
절	-9.51823
▁연락이	-9.51843
▁덜	-9.51875
▁외국	-9.51895
지먼	-9.51997
▁드릴까요	-9.52025
▁말한	-9.52063
천	-9.52077
▁울	-9.52114
▁여기는	-9.52151
▁백화점	-9.5223
▁합니까	-9.52339
쳐	-9.52514
▁회사에서	-9.52573
▁매운	-9.52591
▁급	-9.52603
끼	-9.52613
▁시계	-9.52615
적이	-9.52867
▁일에	-9.5289
겠노	-9.52893
▁잘하는	-9.52921
▁올리	-9.53043
▁얼른	-9.53075
▁보낸	-9.53085
▁박	-9.53093
▁그에게	-9.53112
▁생긴	-9.53122
▁있습니데이	-9.53135
▁질문	-9.53175
▁적용	-9.53353
▁전달	-9.53368
▁너한테	-9.53443
▁명이	-9.53525
▁나머지	-9.53605
전히	-9.53622
▁상담	-9.53622
▁한국어	-9.53697
거든	-9.53736
▁일요일에	-9.53788
▁하러	-9.53841
▁생각하는	-9.53849
▁인자	-9.53917
겠네	-9.54
u	-9.54002
▁듣는	-9.54145
▁한국인	-9.5417
지고	-9.54189
▁L	-9.5422
▁없습니꺼	-9.54266
▁시내	-9.54305
▁인해	-9.54306
▁충전	-9.54415
▁절	-9.54466
▁좋아해요	-9.54572
줘서	-9.54652
▁엘리베이터	-9.54688
▁대체	-9.54745
▁넣	-9.54745
▁발라	-9.54764
▁들어간	-9.54769
▁아니에요	-9.54775
▁시켜	-9.54788
▁예약한	-9.54885
▁박물관	-9.54908
만한	-9.54953
▁친구들이	-9.54992
▁삼	-9.55026
주고	-9.55033
▁미안해	-9.55066
▁모르겠어	-9.5508
▁것입니더	-9.5511
▁호텔에서	-9.552
▁수화물	-9.55236
▁불편	-9.55237
▁때도	-9.55276
▁고런	-9.55332
▁만나서	-9.55414
▁맛있어	-9.55629
▁부르	-9.5566
▁하시	-9.55693
▁파일	-9.55713
▁노트북	-9.55785
▁교통	-9.55799
▁자료	-9.55852
▁많았	-9.55867
▁전해	-9.55881
▁지하	-9.55958
▁이름이	-9.56023
▁디	-9.56211
헌테	-9.56233
▁아이스크림	-9.56337
▁때문이에요	-9.5635
▁입금	-9.56396
▁확인해보	-9.56431
▁말은	-9.56436
▁종이	-9.56442
▁금액이	-9.56467
▁답장	-9.56467
▁축하	-9.56502
▁외국인	-9.56537
▁있었어	-9.56542
▁보내고	-9.56812
▁I	-9.56832
▁보자	-9.56874
▁F	-9.56921
드릴게요	-9.5694
▁사진이	-9.56978
니깐	-9.57018
▁토	-9.57038
▁손님이	-9.57101
중에	-9.57101
▁'	-9.57118
▁하노	-9.5713
하니	-9.57244
▁동네	-9.57245
▁그들이	-9.57386
했십니더	-9.57388
▁피곤해	-9.57417
z	-9.5745
▁버튼	-9.57455
▁아름다운	-9.57457
▁기고	-9.57493
▁파마	-9.57514
▁쓰고	-9.5753
놓	-9.57557
▁가져가	-9.57581
▁상품이	-9.5768
▁드가	-9.57871
▁그래가	-9.57876
▁머리가	-9.57894
▁물이	-9.579
▁가르쳐	-9.58013
▁궁금한	-9.58047
▁싶어서	-9.5812
▁음식점	-9.58184
▁도서관	-9.58228
셨나요	-9.58265
▁잡아	-9.58274
습니다잉	-9.58275
▁만한	-9.58344
▁최선을	-9.58351
▁해외	-9.584
▁알게	-9.58466
▁윽스로	-9.58577
▁크리스마스	-9.58577
▁드디어	-9.58578
▁실망	-9.58587
▁휴식	-9.58589
▁표현	-9.58591
▁기존	-9.58597
▁테이	-9.58607
▁아내	-9.58609
▁힘이	-9.58621
▁가입	-9.58803
▁모르겠어요	-9.58819
▁편이	-9.58843
,000	-9.58977
▁없으면	-9.59104
▁불편하	-9.59135
▁아버지	-9.59147
▁생각하고	-9.5915
▁올려	-9.59168
▁졸업식	-9.59193
▁예전	-9.59268
▁물건이	-9.59347
너	-9.59439
째	-9.59516
▁책임	-9.59542
염	-9.59626
힌	-9.5969
시나요	-9.59711
▁떡볶이	-9.59717
▁쉬는	-9.59725
▁길에	-9.59776
▁기준	-9.59878
잔	-9.5989
▁않았어요	-9.59937
▁해줄	-9.59937
▁모르는	-9.59986
T	-9.60013
▁계신	-9.60035
▁기본	-9.60138
▁환자	-9.60216
g	-9.60266
▁예쁜	-9.60301
▁내려	-9.60305
▁연결	-9.60313
▁해보	-9.60315
▁정류장	-9.60323
영	-9.60465
▁먹기	-9.60477
▁구매할	-9.6053
책	-9.60654
r	-9.60656
▁필리핀에	-9.60668
▁때부터	-9.60673
▁순간	-9.6076
▁차량	-9.6084
싰	-9.6087
▁즐기	-9.60879
스러운	-9.60899
당가요	-9.60965
▁말이야	-9.60966
곤	-9.6098
▁수술	-9.6098
▁열차	-9.61103
▁고르	-9.61108
▁참석	-9.61141
각	-9.61154
했는디	-9.61191
줬	-9.61202
▁중요하	-9.61308
L	-9.61339
편하게	-9.6136
▁들었어	-9.61377
▁무리	-9.61451
▁숙제	-9.61453
▁가능합니꺼	-9.61468
▁계단	-9.61483
▁하셨	-9.61495
록	-9.6154
보이소	-9.61558
▁이틀	-9.61573
▁있십니다	-9.61575
▁어떻	-9.61677
▁않는다	-9.61832
▁널	-9.61984
▁세상	-9.61987
링	-9.62034
▁됩니까	-9.62036
▁알레르기	-9.62036
▁어차피	-9.62036
▁생선	-9.62073
▁원하시는	-9.62106
▁단디	-9.62134
mm	-9.62269
▁베	-9.62293
▁좋겠	-9.62324
리고	-9.62504
▁내게	-9.6253
창	-9.62543
▁형	-9.62601
▁테스트	-9.62629
▁왜냐하면	-9.6264
이니까	-9.62709
▁일하는	-9.62738
▁어때요	-9.6281
▁회	-9.62841
께예	-9.62844
▁즉	-9.62925
겠어	-9.63042
▁가는데	-9.63104
b	-9.63167
▁됩니데이	-9.632
▁어렸을	-9.63217
▁읽어	-9.63265
9	-9.63332
▁하려고	-9.63338
▁같은데요	-9.63347
▁전공	-9.63356
셨어요	-9.63357
▁중이	-9.63398
▁진료	-9.63486
▁참여	-9.635
▁리	-9.63548
▁맞아예	-9.63617
k	-9.63787
▁신분증	-9.63811
▁성격	-9.63892
▁되믄	-9.63927
께서	-9.64097
▁가려면	-9.64107
▁구경	-9.64265
▁마치	-9.64313
▁일하고	-9.64399
▁작업	-9.64428
▁장면	-9.64488
▁한데이	-9.64527
▁보일	-9.64528
들과	-9.64552
주시겠어요	-9.64563
▁부담	-9.64575
▁여유	-9.64583
▁말할	-9.64676
▁가족들	-9.64818
▁맞아요	-9.64831
▁완료	-9.64873
▁세일	-9.64881
충	-9.64921
▁빌려	-9.64982
▁짧은	-9.65012
채	-9.65022
▁만족	-9.65024
▁같아야	-9.65026
▁유럽	-9.65027
▁시청	-9.65051
▁오신	-9.65211
▁광고	-9.65212
▁음료수	-9.65212
겄십니더	-9.65217
▁정도는	-9.65244
▁주문할	-9.65253
▁사용하는	-9.65269
였어요	-9.65292
▁성인	-9.65317
▁찾아보	-9.65337
▁깁니꺼	-9.65398
w	-9.65479
▁가수	-9.65482
▁확인할	-9.65577
▁누군가	-9.65619
▁했다	-9.65626
▁파스타	-9.65628
▁의견	-9.65632
▁뿐이	-9.6566
▁가득	-9.65674
▁죄송합니다만	-9.65691
▁알려주이소	-9.65712
▁너와	-9.65742
▁이상한	-9.65793
수록	-9.65863
더라고요	-9.65898
▁빠지	-9.65904
▁같은데예	-9.65913
▁예정입니다	-9.65991
▁정해	-9.66002
▁샤워	-9.66092
▁하니까	-9.66111
▁가보	-9.66161
▁없데이	-9.66168
▁있으예	-9.6619
▁할머니	-9.66229
▁직	-9.66289
▁계시	-9.66299
▁있십니까	-9.663
▁이용해	-9.66333
▁고맙	-9.66421
▁자세히	-9.66434
▁유지	-9.66501
▁주문하고	-9.66512
전에	-9.66617
▁짜	-9.6663
▁영업	-9.66683
▁생겼	-9.66705
▁일정이	-9.66706
▁없나	-9.6681
▁따뜻한	-9.66842
▁드릴까예	-9.66863
베	-9.66909
▁없어가	-9.66911
▁수리	-9.66927
▁여성	-9.66995
시가	-9.67005
▁보여주	-9.67014
▁하시는	-9.67025
▁비슷한	-9.67043
별	-9.67063
▁보시면	-9.67073
▁되는지	-9.67079
▁약속을	-9.67109
▁화장	-9.67124
▁인상	-9.67146
▁주시고	-9.67147
▁권	-9.67257
▁급한	-9.67428
▁떨어져	-9.67459
▁픽업	-9.67459
▁미용실	-9.67459
▁일로	-9.67607
▁전통	-9.67626
▁늦어	-9.67698
▁빼고	-9.67742
▁그런지	-9.67764
▁가기로	-9.67812
▁생각엔	-9.67832
▁검색	-9.67862
0,000	-9.67906
쓰	-9.67926
▁담아	-9.67928
er	-9.67965
일이	-9.68002
▁않으면	-9.68034
하며	-9.68042
▁브랜드	-9.6808
▁겁니까	-9.68103
▁책상	-9.68118
▁근디	-9.68119
▁있었다	-9.6815
▁속이	-9.68157
▁결혼식	-9.68164
▁옷이	-9.68165
R	-9.68182
▁푸	-9.68183
▁세탁	-9.68239
▁않아도	-9.68241
▁적은	-9.68273
▁듯	-9.68323
▁아파서	-9.68346
▁먹었	-9.68565
슨	-9.6865
▁근육	-9.68683
▁빌릴	-9.68715
▁그란데	-9.68776
▁취	-9.68833
▁제출	-9.68856
▁박스	-9.68875
▁곳에서	-9.68972
용품	-9.69078
▁입을	-9.69107
▁가족은	-9.69172
▁한다는	-9.69209
▁소리가	-9.69271
▁찍고	-9.69289
▁느껴	-9.69333
▁초콜릿	-9.69334
▁근무	-9.69351
▁사장님	-9.69414
▁동물	-9.69424
▁좋습니다	-9.69476
▁아들래미	-9.69481
▁지키	-9.6951
▁거기서	-9.69512
▁기다릴	-9.69633
▁편하	-9.69694
▁기를	-9.69701
▁저랑	-9.69714
보자	-9.69714
▁넘어	-9.69764
한다	-9.69844
▁늦을	-9.69967
▁단체	-9.69999
▁기사님	-9.70087
▁터	-9.70153
평	-9.70155
▁기내	-9.70176
▁기사	-9.70207
▁입구	-9.70263
▁말아	-9.70342
▁와야	-9.70501
▁안내해	-9.70513
리가	-9.70546
▁빠른	-9.70615
▁더욱	-9.70657
▁평	-9.70744
했고	-9.70778
B	-9.70779
하지만	-9.70782
▁인원	-9.70795
▁관해	-9.70803
▁어린	-9.70809
▁주스	-9.70876
▁도착했	-9.70911
▁않았어	-9.70916
▁정지	-9.70964
▁친절	-9.70995
놨	-9.71032
▁떠	-9.7105
가꼬예	-9.71097
탕	-9.7112
▁골라	-9.71142
든데	-9.71199
▁스포츠	-9.71245
▁항공권	-9.71251
▁각각	-9.71256
▁침	-9.71279
▁우산	-9.71326
▁향	-9.71356
▁좋아서	-9.71367
됩니꺼	-9.71436
▁하니	-9.7144
하노	-9.71453
▁했는디	-9.71469
▁낀데	-9.7153
▁했습니다	-9.71544
▁오기	-9.71611
▁쉬고	-9.7167
▁어무이	-9.71897
▁과목	-9.71903
▁나쁜	-9.71904
▁집이	-9.71924
▁데이트	-9.71943
▁하실	-9.71963
▁성공	-9.71994
▁친구들이랑	-9.72163
▁곳으로	-9.72192
▁상관없	-9.72194
▁남아있	-9.72285
▁부모님이	-9.72352
▁번째로	-9.72445
▁계좌	-9.72538
츠	-9.72539
▁교육	-9.72543
▁TV	-9.72546
▁응원	-9.72549
▁인형	-9.72588
줄게	-9.72635
▁청	-9.72669
▁잠이	-9.72678
▁돌아	-9.72794
이니	-9.72832
하느라	-9.72898
개를	-9.72908
▁거여	-9.72931
%	-9.73034
▁오빠	-9.73048
숙	-9.73171
겠네예	-9.7321
▁다닐	-9.73315
▁이따	-9.73444
▁마실	-9.73532
▁쪽으로	-9.73615
시야	-9.73737
▁체험	-9.73851
▁영국	-9.73873
▁골프	-9.73878
▁합니다잉	-9.73967
▁없십니더	-9.73993
▁역사	-9.74067
인이	-9.74099
▁생각하	-9.74109
짝	-9.74217
▁사항	-9.7432
▁상처	-9.74361
하기로	-9.74436
▁있으신가요	-9.74472
션	-9.74495
▁비용이	-9.74534
▁어려운	-9.74573
▁맘에	-9.74636
초	-9.7473
E	-9.74769
▁열어	-9.74845
▁방법은	-9.74873
▁거니	-9.74886
▁싶다	-9.74922
▁고래	-9.75002
▁가져다	-9.75103
▁안되	-9.7513
한데	-9.75151
▁스테이크	-9.7518
▁긴가예	-9.75202
▁아파트	-9.75238
▁독	-9.75272
냥	-9.75348
시쯤	-9.75444
▁공부할	-9.75448
▁갈래	-9.75483
▁그만	-9.75605
▁반납	-9.75646
▁배우고	-9.75668
▁좋아해	-9.75699
▁괜찮을	-9.75699
야겠다	-9.75779
▁만나고	-9.7579
▁그곳에	-9.75833
지요	-9.75834
▁언제까지	-9.75848
▁죄송합니데이	-9.75864
▁18	-9.75891
▁스파	-9.75893
었고	-9.75929
▁간단한	-9.75998
▁할게예	-9.76032
▁포인트	-9.76134
▁서울에	-9.76187
▁받아야	-9.76202
▁제품으로	-9.76281
▁어울리는	-9.76332
▁거지	-9.76344
▁애들	-9.76458
론	-9.76466
▁입어보	-9.7649
▁찾기	-9.76527
▁때문입니더	-9.76529
▁적응	-9.76532
▁때가	-9.76603
▁차라	-9.76605
▁부산	-9.76626
장에	-9.76741
하려면	-9.76828
담	-9.76844
해드리겠습니다	-9.76869
▁않을까	-9.76986
▁같지	-9.76994
겠지	-9.76999
셨어예	-9.77045
h	-9.77118
▁예정이	-9.77156
▁뛰어	-9.77194
▁쪼까	-9.77227
▁약속이	-9.7725
▁완전히	-9.77319
▁수업에	-9.77487
네요잉	-9.77489
▁옛날	-9.77516
▁여자가	-9.77518
▁방해	-9.77518
▁오고	-9.77525
▁우리에게	-9.77565
▁바빠	-9.77577
▁너랑	-9.77582
▁하게	-9.77686
▁주신	-9.77727
▁수건	-9.77778
인가	-9.77814
▁마라	-9.7784
▁많다	-9.77884
▁으케	-9.77907
▁커플	-9.77909
▁짓	-9.77938
▁중간에	-9.7797
▁내일부터	-9.77981
▁오전에	-9.78008
▁급하게	-9.78039
▁줬	-9.78101
▁지불	-9.78112
드려	-9.78113
▁엄청나	-9.7815
▁없다고	-9.78158
항	-9.7817
▁탄	-9.78358
▁H	-9.78498
▁재미	-9.78545
▁면접	-9.78583
▁많아요	-9.78597
▁얼굴이	-9.78654
▁자유	-9.78683
▁갔어요	-9.78707
▁알려주시면	-9.78733
▁들가	-9.78742
▁후회	-9.78754
분에	-9.7877
청	-9.78795
▁맘	-9.78831
▁좋아합니더	-9.78875
▁환불이	-9.78882
▁못할	-9.79012
▁살이	-9.79032
▁들었어요	-9.79044
▁담당	-9.79079
름	-9.79092
▁겨울에	-9.79097
▁바꾸고	-9.79137
끼다	-9.79178
▁내려가	-9.79184
제이	-9.79203
▁것들	-9.79204
▁룸	-9.79247
▁미팅	-9.79295
▁당일	-9.79304
▁입국	-9.79332
▁기다려주세요	-9.79334
났	-9.79348
시키	-9.79357
▁설명해	-9.79369
▁향수	-9.7937
6	-9.79427
▁화요일	-9.79431
셔	-9.79437
글	-9.79465
▁수업이	-9.79486
▁빈	-9.79495
▁주문하신	-9.79535
볼까	-9.79569
▁버리	-9.79591
했다고	-9.79636
▁방향	-9.79705
▁빠르	-9.79779
▁아가	-9.79792
했으면	-9.79822
▁경찰	-9.79838
었데이	-9.79848
▁봐도	-9.79962
▁그라면	-9.79985
▁생각하지	-9.7999
▁머물	-9.79992
보는	-9.80021
처	-9.80043
▁진정	-9.80069
▁자체	-9.80074
▁거를	-9.80078
▁부위	-9.80079
자마자	-9.80203
주시겠습니까	-9.80328
▁않다	-9.80375
▁모습이	-9.8038
번째	-9.80424
▁싶은데예	-9.80468
▁경기장	-9.80493
▁소개해	-9.80504
먹으러	-9.80553
▁언제나	-9.80671
▁립스틱	-9.8068
▁스케줄	-9.8068
▁원피스	-9.8068
▁야채	-9.80711
▁말씀하시는	-9.80717
▁거니까	-9.80729
▁장난감	-9.80765
▁드려	-9.80808
▁모자	-9.80835
▁돌아오	-9.80855
▁만나기	-9.80863
▁모르겠다	-9.80866
▁정거장	-9.81066
▁가시믄	-9.81106
밥	-9.81154
친한	-9.8116
해보	-9.81193
▁여행자	-9.81321
▁입력	-9.8158
▁동생	-9.8164
▁필요합니더	-9.81644
되면	-9.81663
▁주문하	-9.81668
▁갖	-9.81677
▁지하철역	-9.81686
투	-9.8175
▁않습니더	-9.81756
▁보이소	-9.81788
▁안에서	-9.81797
▁역할	-9.81815
▁오해	-9.81847
원입니더	-9.81905
▁라면	-9.8192
열	-9.8193
▁새벽	-9.81931
축	-9.81945
▁과자	-9.81979
▁속도	-9.81989
▁땀	-9.81989
▁뜻	-9.81996
▁합	-9.82074
효	-9.82098
▁카카오톡	-9.82103
▁취업	-9.82115
▁재미있는	-9.82122
▁노선	-9.82163
▁메뉴판	-9.82184
▁방학	-9.82186
▁기름	-9.822
▁얘기해	-9.82226
▁가까이	-9.82249
▁이해해	-9.82271
▁도전	-9.82305
▁못한	-9.8234
▁놓고	-9.82371
▁공부하는	-9.8238
▁잘못된	-9.82412
합	-9.82487
▁주차장	-9.82502
▁궁금하	-9.82507
▁언제부터	-9.82576
▁출발하는	-9.82603
하길	-9.82622
▁나오지	-9.8266
▁R	-9.82673
▁면세점에서	-9.82712
▁괜찮아요	-9.82792
할라꼬	-9.82793
▁작년에	-9.82795
▁하죠	-9.82821
▁참말로	-9.82823
▁어머니	-9.82823
▁회원	-9.82848
▁이쁘	-9.8287
▁꾸	-9.82896
▁망	-9.82904
있었던	-9.82955
짜리	-9.82985
▁물을	-9.82986
▁되기	-9.82995
▁보세요	-9.83065
▁생각합니다	-9.83074
▁알았는데	-9.83078
▁상자	-9.83085
▁만에	-9.8309
▁매주	-9.83099
거든예	-9.8311
▁기억에	-9.83202
▁퇴원	-9.83265
▁입어	-9.83492
▁가족이	-9.83509
▁N	-9.83518
▁좋은데	-9.83524
▁뭡니꺼	-9.83547
▁헬스장	-9.83547
▁목소리	-9.83552
장님	-9.83561
▁가요	-9.83617
▁처음에	-9.83628
▁들어갈	-9.83646
▁수표	-9.83681
▁G	-9.83687
▁드리고	-9.83754
▁외에	-9.83791
▁중국어	-9.83828
▁사이에	-9.83835
▁강의	-9.83859
▁되겠	-9.83912
▁눈에	-9.83925
▁들을	-9.83934
▁있다꼬	-9.83961
▁육	-9.83996
▁고생	-9.84036
▁대회	-9.84094
▁마리	-9.84132
들에게	-9.84143
▁아들	-9.84222
었으면	-9.84228
▁쓰레기	-9.84263
▁아나	-9.84263
쿠	-9.84276
킹	-9.84276
▁대중교통	-9.84277
▁몸에	-9.84277
▁검은색	-9.84277
▁민	-9.8429
▁둘째	-9.84294
▁존	-9.8431
▁자연	-9.84374
▁요런	-9.84396
▁간식	-9.84439
▁필리핀	-9.84533
▁메	-9.84561
▁그녀에게	-9.84607
▁싶은데요	-9.84807
▁가진	-9.84858
▁자리에	-9.84938
V	-9.84998
▁케이팝	-9.85012
▁프로젝트	-9.85012
▁즐길	-9.85013
성이	-9.85069
▁여보세요	-9.85102
년이	-9.85196
▁하세요	-9.85198
▁용	-9.85292
되고	-9.85368
▁학기	-9.85376
외	-9.85415
▁온라인	-9.85451
▁없네요	-9.8551
겠십니더	-9.85601
이었어요	-9.85606
▁체크	-9.85611
▁마을	-9.85618
▁있네예	-9.85627
▁매장에	-9.85663
봐도	-9.85666
▁나을	-9.85676
견	-9.85706
▁보이지	-9.8571
F	-9.85715
▁서비스를	-9.85736
▁스스로	-9.85756
▁닌테	-9.85762
▁작동	-9.8578
▁실제로	-9.85917
▁글고	-9.86055
▁않게	-9.86067
▁점수	-9.86142
▁초대	-9.86148
▁접	-9.86166
▁사면	-9.86204
▁남는	-9.86234
▁기다려야	-9.86254
▁줄이	-9.86275
▁채	-9.86324
▁번역	-9.86326
▁면세	-9.86434
었을	-9.86438
▁알려주실	-9.86463
▁맴	-9.86512
▁상황이	-9.86529
▁국내	-9.86539
드릴께예	-9.86542
이어라	-9.86631
▁오이소	-9.86688
▁있었습니더	-9.86808
머	-9.8692
▁마감	-9.86928
▁대단	-9.87001
▁이해가	-9.87022
▁온다	-9.87028
▁전용	-9.87086
▁발급	-9.87131
▁표시	-9.87133
백	-9.87145
▁갔을	-9.87155
▁칼	-9.87211
▁파란색	-9.87251
▁솔직히	-9.8728
라스	-9.87346
▁움직이	-9.87437
▁듣기	-9.87587
▁쪽에	-9.87593
▁사회	-9.87599
▁예약했는데	-9.87606
더라도	-9.87634
▁운동이	-9.87651
▁필요해요	-9.87656
▁끝내	-9.87694
in	-9.88006
▁그러게	-9.88008
둔	-9.88009
▁발견	-9.8803
N	-9.88039
룸	-9.88039
▁말해주	-9.88047
▁될까	-9.88057
▁유명	-9.88091
▁등산	-9.88104
▁어릴	-9.88113
▁빠	-9.88213
▁실력	-9.88311
▁들어가는	-9.8833
▁의자	-9.88335
▁화장실이	-9.88355
▁연락할	-9.8837
▁많아예	-9.88494
하겠습니더	-9.88527
릅	-9.8862
보세요	-9.88647
▁근	-9.88677
헌	-9.88742
드시	-9.88748
▁와가	-9.88772
▁어려울	-9.88785
▁오늘부터	-9.88832
▁살짝	-9.8884
▁일부	-9.88843
▁힘드	-9.88844
막	-9.88844
▁바르	-9.88872
▁지났	-9.88999
▁사서	-9.89001
▁E	-9.89169
▁먹은	-9.89169
▁오시면	-9.89196
▁이후에	-9.892
▁그래요	-9.89205
▁자신이	-9.89267
▁예약해	-9.89303
▁그사람	-9.89471
▁다니는	-9.8948
▁없어가꼬	-9.89502
▁거고	-9.89534
▁찾았	-9.89541
▁연극	-9.89554
▁궁금해	-9.89576
▁연락처	-9.89605
▁관	-9.89615
▁된다고	-9.89726
▁새우	-9.89762
▁왔습니다	-9.89833
▁키가	-9.89871
▁사러	-9.89913
▁감자	-9.90065
▁없네예	-9.901
▁말했	-9.90313
▁늦었	-9.90316
▁아르바이트	-9.90317
▁창문	-9.90337
▁계란	-9.90348
▁식당이	-9.90467
▁하긴	-9.90502
▁끼라예	-9.90536
하니까	-9.90594
▁건가예	-9.90603
단다	-9.90676
▁아파	-9.90717
▁상상	-9.90754
▁조리	-9.90815
▁포기	-9.90854
▁한잔	-9.90876
▁찾아가	-9.909
▁화면	-9.90915
▁같아요잉	-9.90922
▁켜	-9.90936
▁무게	-9.90937
원입니다	-9.90963
인분	-9.90969
▁야구	-9.91
▁출국	-9.91013
▁밀	-9.91017
▁들어오	-9.91022
▁땐	-9.91058
하다가	-9.91061
닥	-9.91066
▁백	-9.91095
▁프랑스	-9.91098
▁교통사고	-9.91098
▁아뇨	-9.91109
▁좋고	-9.91137
돌	-9.91201
▁배울	-9.91227
▁책자	-9.91273
십	-9.91283
▁받지	-9.91286
▁심사	-9.91329
▁연예인	-9.91364
▁빠르게	-9.91416
▁쉽지	-9.91638
▁일할	-9.91657
▁이러	-9.91733
▁많아가	-9.91828
역에서	-9.91838
▁합격	-9.91895
▁맞추	-9.91906
▁됩니다잉	-9.91914
▁야근	-9.91928
▁것에	-9.91946
▁나가서	-9.92033
왕	-9.92036
분만	-9.92037
▁싼	-9.92045
한다는	-9.92047
▁소중한	-9.92048
▁거래	-9.92081
▁색이	-9.92173
▁못해서	-9.92198
▁약간	-9.92289
▁만드는	-9.92439
▁펜	-9.92459
▁승	-9.92643
▁뉴욕	-9.92679
▁간호사	-9.92679
▁탈의실	-9.92683
▁대답	-9.927
▁끝난	-9.92702
▁짐이	-9.92703
▁해변	-9.92725
▁들으	-9.92782
느라	-9.9286
▁대여	-9.92879
▁시까지	-9.92904
▁남편이	-9.92906
▁하이소	-9.92929
▁않았는데	-9.92946
다카이	-9.92988
▁독일	-9.9304
▁제거	-9.93065
▁지난번에	-9.93097
▁모르겠는데	-9.93106
▁돼서	-9.93128
▁모르겠	-9.93135
이라면	-9.9325
▁풀어	-9.93295
▁긴데	-9.93309
드린	-9.93372
▁싸게	-9.93403
▁대해가	-9.93456
▁딸이	-9.93479
▁무조건	-9.93479
▁우체국	-9.93479
▁훌륭	-9.93479
▁빨간색	-9.93488
이며	-9.93492
▁어깨	-9.93493
▁축하해	-9.9366
▁멀	-9.93666
▁좋습니더	-9.9371
별로	-9.93753
▁호텔로	-9.9376
▁익	-9.9382
▁전체	-9.9389
▁사업	-9.93907
분은	-9.9397
준다	-9.93991
cm	-9.94047
관한	-9.94099
▁머	-9.94127
▁이상이	-9.94133
▁찬	-9.94263
▁긍정적	-9.94285
롬	-9.94285
▁주제	-9.94312
▁기내식	-9.94317
▁작성해	-9.94335
▁이리	-9.94339
▁상태가	-9.94347
▁물품	-9.94349
▁약국	-9.94399
▁주문이	-9.94404
▁타입	-9.9441
▁수프	-9.94445
▁계산대	-9.94447
▁보호자	-9.94459
▁아이고	-9.94463
▁언제든지	-9.94477
먹	-9.94496
잡	-9.94509
▁반대	-9.94558
▁여행용	-9.94608
▁도와줄	-9.94609
▁왔어예	-9.94642
▁이곳에서	-9.94653
▁맞지	-9.94665
▁편의점	-9.94675
해줘	-9.94686
▁그러는데	-9.94693
▁이곳에	-9.94721
▁좋아합니다	-9.9475
▁없으니	-9.94865
애	-9.94884
움	-9.95054
▁굴	-9.95082
▁와이파이	-9.95098
▁셔틀버스	-9.95099
▁코너	-9.95118
▁먹어야	-9.95206
▁간다	-9.95219
▁바람	-9.95222
▁맞나	-9.95257
▁먹지	-9.95284
▁김치	-9.953
▁용기	-9.95303
▁향이	-9.95408
▁물에	-9.95423
▁번에	-9.95442
▁나아	-9.95444
▁선수	-9.95448
▁오셨	-9.95484
하셔서	-9.95493
▁도로	-9.95507
▁제안	-9.95538
▁하면서	-9.95562
▁되게	-9.95686
▁O	-9.95781
▁보다	-9.95808
▁가스	-9.9583
▁옮기	-9.95918
▁흰색	-9.95924
▁있을지	-9.95972
▁예능	-9.96052
▁되가	-9.96158
▁내용이	-9.96186
▁현	-9.96201
▁다행이	-9.96247
▁오세요	-9.9625
▁이후로	-9.96291
▁많아가꼬	-9.96367
▁답	-9.96386
▁수납	-9.96389
▁혼자서	-9.96418
▁일주일에	-9.96422
▁뭔지	-9.96466
사가	-9.96489
▁국가	-9.96496
▁최대	-9.96507
▁과거	-9.96572
▁뽑	-9.96586
▁가능성	-9.96625
▁들었습니다	-9.96649
▁사이트	-9.96716
딩	-9.9674
▁하시면	-9.96803
졌어요	-9.96923
착	-9.9698
▁휴일	-9.96994
▁가들	-9.97033
해줄	-9.97056
▁트	-9.97066
▁않을래	-9.9714
▁과	-9.97158
▁아닌데	-9.97248
▁친구한테	-9.97274
▁사람한테	-9.97316
▁어디에서	-9.97388
▁지금부터	-9.9746
킨	-9.97519
▁장난	-9.97539
택	-9.97555
▁많은데	-9.97563
▁믿을	-9.97578
▁마무리	-9.97578
▁중앙	-9.97617
▁철	-9.97622
재이	-9.97631
스럽	-9.97659
라카	-9.97746
▁본인	-9.9775
▁봄	-9.97774
▁갑니더	-9.97786
▁공장	-9.97791
겠다고	-9.97836
en	-9.97859
뜨	-9.97924
▁19	-9.97926
▁여기에서	-9.98024
▁정류장이	-9.98055
▁요즘에	-9.98136
비가	-9.98146
▁여행이	-9.98161
희	-9.98239
▁가게에	-9.98244
시로	-9.98257
▁아니믄	-9.98316
▁들리	-9.98344
▁깎아	-9.98377
자는	-9.98384
▁중학교	-9.98418
▁텔레비전	-9.98418
▁티셔츠	-9.98418
덜이	-9.9842
▁마침	-9.98421
▁일어났	-9.98423
▁실례지만	-9.98461
했지만	-9.98464
▁관련된	-9.98536
▁언어	-9.98568
▁운행	-9.98593
▁긋	-9.98611
술	-9.98691
▁마트	-9.98716
▁부족	-9.98718
▁맵	-9.98751
싶	-9.98761
▁슬	-9.98813
합니까	-9.9884
▁드는	-9.9886
▁빌	-9.98876
▁물어볼	-9.98948
▁지난주에	-9.98963
▁인터넷으로	-9.99001
지라	-9.99036
▁친구들은	-9.99077
▁케	-9.99086
▁어쩌	-9.99088
▁그래가꼬	-9.99174
이라가꼬	-9.99177
▁비행	-9.99182
▁숙박	-9.99232
▁떨어지	-9.99266
▁뮤지컬	-9.99266
▁캐나다	-9.99266
▁페이스북	-9.99266
▁해산물	-9.99266
▁깁니까	-9.99266
▁해외여행	-9.99271
▁나가는	-9.99273
▁얼음	-9.99283
▁아이돌	-9.99293
▁느무	-9.99306
▁드시고	-9.99371
▁아이다	-9.99378
같이	-9.99408
▁기능	-9.99519
▁학원	-9.99522
▁그것이	-9.99525
▁암	-9.99547
향	-9.99574
값	-9.99581
되었습니다	-9.9962
한데이	-9.99653
둘	-9.99673
▁저쪽	-9.99735
대가	-9.9986
▁과정	-9.99885
▁방문해	-10.0003
▁착용	-10.0011
▁깜짝	-10.0012
▁놀랐	-10.0012
▁늦은	-10.0012
▁워낙	-10.0012
▁계절	-10.0013
▁미술관	-10.0015
▁제한	-10.0016
▁시각	-10.0019
▁시장	-10.0026
▁예정입니더	-10.0028
▁목적지	-10.0032
▁전부터	-10.0033
테	-10.0037
▁좋게	-10.0042
▁감정	-10.0042
▁보이는데	-10.0047
▁갑니다	-10.0052
좋	-10.0052
삐	-10.0055
슬	-10.0055
▁좋아하고	-10.0061
▁알아봐	-10.0065
번호	-10.0067
▁구성	-10.0068
하시나요	-10.0069
▁차로	-10.007
▁힘들었	-10.0077
▁도서관에	-10.0081
▁알아보	-10.0093
▁물어보고	-10.0095
▁심지어	-10.0098
▁환경	-10.0099
▁그여자	-10.0099
▁때문입니다	-10.0101
▁봉사	-10.0101
▁공유	-10.0104
▁아닙니다	-10.0107
▁할인이	-10.0107
▁기술	-10.0108
▁조절	-10.0113
▁맨	-10.0114
ra	-10.0114
▁준비되어	-10.0116
▁상황에	-10.0118
▁둘이	-10.0125
▁얼	-10.0127
▁되었습니다	-10.0136
일까지	-10.0139
▁위로	-10.014
현	-10.0143
▁많고	-10.0143
▁정신이	-10.0149
셔가	-10.0152
▁인간	-10.0153
▁헤어	-10.016
▁몰라서	-10.0161
▁좋으	-10.0163
였어	-10.0175
▁공간	-10.018
팅	-10.0181
아서	-10.0185
▁놀았	-10.0185
▁바랍니데이	-10.0185
▁사귀	-10.0189
▁끈	-10.0192
▁개발	-10.0201
▁수량	-10.0202
시죠	-10.0207
▁중간	-10.0212
브러	-10.0215
주시고	-10.0217
▁학	-10.0232
했는지	-10.0233
▁멀리	-10.0249
▁환전을	-10.025
▁드립니더	-10.0251
▁말하지	-10.0256
▁어려워	-10.0257
▁심해	-10.0262
▁보내주	-10.0271
▁깜빡	-10.0273
▁태국	-10.0273
▁말도	-10.0274
▁드립니다	-10.0275
▁고맙다	-10.0286
▁지급	-10.0294
▁좋아한다	-10.0296
▁하나만	-10.0296
▁있어라	-10.0297
▁제품에	-10.0311
▁꺼내	-10.0312
▁그쪽	-10.0313
▁아이들	-10.0321
했으니	-10.0326
▁뒤로	-10.0341
▁동의	-10.0353
▁언	-10.0354
▁돌려	-10.0357
▁이불	-10.0358
▁편리	-10.0361
▁메이크업	-10.0361
▁휴대전화	-10.0361
▁폰	-10.0362
▁취소하고	-10.0363
▁나면	-10.0364
▁개봉	-10.0366
▁나와서	-10.0369
▁피곤하	-10.0373
▁클	-10.0374
▁자동	-10.0377
점이	-10.0387
였습니더	-10.0388
▁것만	-10.0402
▁내일까지	-10.0404
▁지하철이	-10.0408
▁제주도	-10.0414
▁식당에	-10.042
기에는	-10.0421
▁있으이	-10.0427
겠어예	-10.0428
▁기억이	-10.0435
▁투	-10.0437
주면	-10.0444
고예	-10.0449
▁행복해	-10.0451
▁오렌지	-10.0451
▁밴드	-10.0451
▁홍콩	-10.0451
▁쪼깨	-10.0451
▁소고기	-10.0452
▁드렸	-10.0455
하거나	-10.0457
▁조식	-10.0459
▁반품	-10.0459
▁아닌가요	-10.0461
▁금지	-10.0464
▁신선	-10.0467
▁시작하	-10.0467
▁홍	-10.0472
▁길로	-10.0478
▁심하게	-10.0478
▁가능할까요	-10.048
짜	-10.0483
하이	-10.0484
▁성적이	-10.0487
ar	-10.0488
▁병실	-10.0494
▁하던데	-10.0496
▁출	-10.0496
▁있죠	-10.0499
▁적어도	-10.0499
퍼	-10.05
▁걸려	-10.0501
▁되나예	-10.0504
▁예뻐	-10.0507
곡	-10.0509
▁설	-10.0512
력이	-10.0513
▁레	-10.052
족	-10.0524
▁반지	-10.0525
▁완전	-10.0526
했데이	-10.0535
했기	-10.0539
▁주시	-10.054
▁희망	-10.0541
▁다행히	-10.0541
▁바쁜	-10.0541
▁설정	-10.0544
▁산책	-10.0545
▁개인적으로	-10.0547
▁구두	-10.0551
▁많지	-10.0551
▁들어있	-10.0552
▁사무실	-10.0558
▁영화가	-10.0565
▁요것	-10.0575
▁있어요잉	-10.0581
▁그래예	-10.0588
로부터	-10.0588
▁대학에	-10.0593
▁칸	-10.0596
▁있네요	-10.0598
▁않았다	-10.0598
봤는데	-10.0601
▁피해	-10.0601
알	-10.0604
▁사람에게	-10.0611
▁타믄	-10.0613
▁중이라	-10.0625
▁할까	-10.0627
▁셔틀뻐스	-10.0632
▁기숙사	-10.0632
▁중간고사	-10.0632
▁배터리	-10.0632
▁죄송해요	-10.0634
리를	-10.0639
▁온천	-10.064
▁가시는	-10.0643
더라고	-10.0644
▁발전	-10.0644
▁우리한테	-10.0653
▁주면	-10.0658
▁착	-10.0661
▁빠져	-10.0662
잖아예	-10.0665
▁화장실에	-10.0674
는데예	-10.0675
다니께요	-10.0676
시간이	-10.0681
▁옛날에	-10.0682
▁이자	-10.0686
▁내년	-10.0694
▁미안해요	-10.0695
닐	-10.0695
맨	-10.07
▁멋있	-10.0706
패	-10.0711
v	-10.0723
▁괘안	-10.0723
▁기말고사	-10.0723
▁변화	-10.0731
▁않는데	-10.0732
▁반입	-10.0733
▁감사하	-10.0734
▁알겠습니더	-10.0734
▁선물로	-10.074
자를	-10.0742
▁있었으면	-10.0747
▁임	-10.0772
일부터	-10.0777
▁수령	-10.0781
해스	-10.0784
▁실력이	-10.0785
▁왔다	-10.0786
▁가능한가	-10.0789
▁점심시간	-10.0792
팀	-10.0794
▁이해할	-10.0794
▁흔	-10.0794
곳	-10.0798
▁담에	-10.0798
▁아덜	-10.0805
▁주방	-10.0805
▁않나요	-10.0806
▁정말로	-10.0807
▁걸어서	-10.0808
렌	-10.0816
▁비타민	-10.0816
▁말씀드리	-10.0817
▁채소	-10.082
▁기침	-10.0823
▁고향	-10.0825
▁여그	-10.0828
▁좋겠습니더	-10.083
▁내릴	-10.0834
▁교회	-10.0838
▁찍는	-10.084
▁10,000	-10.0846
▁책이	-10.0849
긋	-10.0852
▁맡기	-10.0857
들한테	-10.086
버렸	-10.0861
▁가능할	-10.0862
▁필요합니다	-10.0863
▁쓰여	-10.0869
▁갔는데	-10.0869
▁주인공	-10.0878
▁검	-10.0879
승	-10.0886
먼	-10.0888
▁바뀌	-10.0891
▁나라에서	-10.0903
센	-10.0908
▁교수님이	-10.091
▁돌아올	-10.0911
립니꺼	-10.0911
▁으른	-10.0912
▁전까지	-10.0915
▁환율	-10.0916
▁잘라	-10.0916
▁알려줄	-10.0917
▁고냥	-10.0921
▁배웠	-10.0922
▁중입니더	-10.0924
▁고맙데이	-10.0926
▁잘몬	-10.0929
▁든	-10.094
▁왔습니더	-10.094
▁못해	-10.094
▁봤을	-10.0947
이지만	-10.0951
하나	-10.0959
▁사려고	-10.096
수가	-10.0963
▁긴장	-10.0964
럽	-10.0964
▁가능한지	-10.0965
▁할까요	-10.0967
▁오믄	-10.0972
▁계약	-10.0973
▁가려	-10.0974
▁넣으	-10.0975
▁있다가	-10.0978
▁학생이	-10.0981
겁니더	-10.0988
▁되니까	-10.0994
▁거지예	-10.0995
▁싫어하는	-10.0996
▁찍을	-10.0997
▁초등학교	-10.1004
▁기념품	-10.1005
▁차례	-10.1007
▁모양	-10.1008
▁있잖아	-10.1011
▁좋아해서	-10.1012
기만	-10.1025
▁1,000	-10.1026
▁국물	-10.1031
원이고	-10.1037
▁내리가	-10.104
▁그저	-10.105
▁단지	-10.1055
▁때매	-10.106
▁만나자	-10.1064
▁통증이	-10.1069
하네요	-10.1072
환	-10.1075
▁환	-10.1077
클	-10.1078
▁경험이	-10.1079
▁고마워요	-10.1082
하믄서	-10.1082
▁앉아서	-10.1084
▁증	-10.1085
▁뭇	-10.1088
줬어	-10.1097
기고	-10.11
▁예쁘	-10.1103
▁맻	-10.1104
▁번만	-10.1104
▁남겨	-10.1105
▁맞습니다	-10.1107
▁정상	-10.111
▁주사	-10.1113
▁가스나	-10.1123
▁가시	-10.113
▁평소	-10.1133
▁얼마인가요	-10.1135
▁있긴	-10.1138
▁불가능	-10.1139
▁속에	-10.1139
▁방향으로	-10.1141
▁여동생	-10.1146
거야	-10.1147
▁좋데이	-10.1147
▁실례	-10.115
▁있었습니다	-10.1151
▁요래	-10.1154
▁판매대	-10.1165
▁있었어예	-10.1167
▁추워	-10.1171
▁할인해	-10.1178
해주시면	-10.118
▁요거	-10.118
커	-10.1184
▁식으로	-10.1186
극	-10.1188
▁목요일	-10.1194
▁xx	-10.1195
혜	-10.1195
▁믿어	-10.1195
▁시스템	-10.1195
▁피아노	-10.1195
▁농구	-10.1195
렁	-10.1195
▁쇼핑몰	-10.1195
▁난주	-10.1197
▁도와드리겠습니다	-10.1198
▁프로	-10.1201
▁알았어	-10.1201
▁필요할	-10.1205
▁실내	-10.1206
▁조회	-10.1209
▁배우는	-10.121
▁시작해	-10.1215
▁운동화	-10.1217
▁가따	-10.1234
▁도착하면	-10.1236
▁다친	-10.1242
▁착각	-10.1242
▁값	-10.1247
▁부족한	-10.1266
혈	-10.1283
▁돈으로	-10.1287
할까	-10.1291
▁되어있	-10.1292
▁있다믄	-10.1292
▁시술	-10.1297
▁모임	-10.13
▁대신에	-10.13
▁영원	-10.1304
▁좋겠데이	-10.1311
▁식당에서	-10.1314
▁201	-10.1316
▁기다렸	-10.132
주셔야	-10.1322
▁날에	-10.1325
▁퍼	-10.1326
▁첨부	-10.1329
▁있지예	-10.133
▁뭐꼬	-10.1332
▁개의	-10.1343
▁중이에요	-10.1353
▁마치고	-10.1364
▁쓰지	-10.1369
▁해보고	-10.1371
▁500	-10.1373
▁갔어	-10.1379
찬	-10.1381
▁구매한	-10.1384
▁싶을	-10.1386
▁갸	-10.1387
▁역에서	-10.1389
▁밖에서	-10.1389
▁미술	-10.139
▁유통기한	-10.139
▁토마토	-10.139
겐	-10.139
▁평균	-10.1391
▁진열	-10.1391
▁생깄	-10.1391
▁대략	-10.1392
▁때문이라예	-10.1395
▁업체	-10.1399
▁먹어보	-10.14
내는	-10.1409
정도	-10.1412
주신	-10.1414
사람	-10.1415
지지	-10.1417
▁연장	-10.1421
on	-10.1424
▁줘서	-10.1428
뿐만	-10.1438
▁줄게	-10.1443
▁불가	-10.1443
볼게	-10.1453
실에	-10.1465
메	-10.1466
드리겠습니다	-10.1477
봉	-10.1478
벌	-10.1485
Z	-10.1486
▁물리치료	-10.1489
▁싫다	-10.1489
▁셔츠	-10.1489
▁수요일	-10.1491
▁다녀오	-10.1493
▁조용히	-10.1496
▁항공사	-10.1497
▁평가	-10.1498
▁짜증	-10.15
▁국제	-10.15
생활	-10.15
▁사무실에	-10.15
번에	-10.1507
어가	-10.1512
자리	-10.1513
▁가방이	-10.1515
▁왔을	-10.152
▁갈라믄	-10.1525
▁느껴지	-10.1527
▁13	-10.1529
드립니다	-10.1532
▁아이들이	-10.1534
▁주시기	-10.1535
이라니	-10.1537
▁마련	-10.154
▁좋다고	-10.1547
▁사용하	-10.155
▁팔고	-10.1553
▁가족과	-10.1556
▁무러	-10.1556
했으예	-10.1558
▁25	-10.1562
▁좋을까요	-10.1562
▁힘들어요	-10.1567
▁나무	-10.1567
▁건강에	-10.1571
망	-10.1575
객	-10.1578
▁생각했	-10.1582
콘	-10.1589
▁동영상	-10.1589
▁모듈	-10.1589
▁읽었	-10.1589
겟	-10.1589
▁스파게티	-10.1589
▁즐겨	-10.1589
▁약이	-10.1589
▁룸서비스	-10.1589
▁양념	-10.159
▁감사드립니다	-10.1591
▁출연	-10.1591
▁선생님이	-10.1598
▁10%	-10.1599
▁세금	-10.1602
▁싸우	-10.1603
▁내부	-10.1603
▁들었다	-10.1608
▁달리	-10.1608
▁저렴한	-10.1609
▁을마	-10.161
▁사항이	-10.1613
▁사용하고	-10.1615
▁그러니까	-10.1629
▁잡고	-10.1629
▁손에	-10.1629
▁둘러보	-10.1631
▁헤어지	-10.1632
▁200	-10.1633
했심더	-10.1633
▁동물원	-10.1636
겠심더	-10.1636
▁심한	-10.164
이었어	-10.1644
▁들어왔	-10.1655
▁말하고	-10.1655
▁어때예	-10.1664
▁하는데요	-10.1673
▁양이	-10.1673
▁이메일로	-10.1674
▁맥	-10.1678
▁기다리는	-10.1679
▁아이스	-10.1682
련	-10.1686
▁시험이	-10.1686
▁보여요	-10.1686
▁낮에	-10.169
▁짧게	-10.169
▁감독	-10.1691
깁니더	-10.1695
▁아인	-10.1696
▁묵으	-10.1698
▁원하	-10.1701
le	-10.1703
▁부탁드려요	-10.1705
▁좋겠습니다	-10.1707
▁고마	-10.1707
▁잘해	-10.171
▁월	-10.1711
▁갔었	-10.1715
▁그려	-10.1717
▁피곤	-10.1722
▁많을	-10.1723
▁아입니더	-10.1727
▁컵	-10.1738
줄래	-10.1749
▁너무나	-10.1749
▁여가	-10.1751
진다	-10.1752
▁관광지	-10.1753
▁사실은	-10.1774
히려	-10.1775
▁뭐라고	-10.1779
▁순서	-10.178
▁없을까요	-10.1781
▁마시는	-10.1784
▁파티에	-10.1786
▁사람이에요	-10.1789
▁제외	-10.179
이라꼬	-10.1792
▁무릎	-10.1792
▁베트남	-10.1792
▁아름답	-10.1792
▁열쇠	-10.1794
▁취직	-10.1794
여서	-10.1795
▁무척	-10.1795
▁즐거웠	-10.1795
탄	-10.1799
▁큰일	-10.1801
▁있으세요	-10.1804
▁바보	-10.1806
았어요	-10.1808
▁말이다	-10.1817
▁돼예	-10.1817
▁맛집	-10.1823
▁갈라꼬	-10.1825
▁반갑	-10.1827
▁연주	-10.1829
▁17	-10.1831
▁좌석이	-10.1832
▁편한	-10.1833
▁지내는	-10.1837
▁맡아	-10.1837
▁시설	-10.1851
▁사이즈로	-10.1853
▁먼	-10.1864
▁구할	-10.1871
제품	-10.1872
▁것들이	-10.1872
겄어예	-10.1875
▁된데이	-10.1877
▁감동	-10.189
▁저기요	-10.1894
▁이탈리아	-10.1895
▁한국은	-10.1897
▁알려줘	-10.1898
▁불편한	-10.19
▁외출	-10.19
▁들어온	-10.1904
▁모르겠지만	-10.1905
U	-10.1905
▁환전소	-10.1907
▁건너	-10.1913
▁중인	-10.1914
하네예	-10.1914
▁혀	-10.1916
▁뻔했	-10.1918
an	-10.1919
▁어떠	-10.1922
이데이	-10.1925
▁저렴하	-10.1927
▁있당께요	-10.1928
▁새해	-10.1928
▁곡	-10.1931
▁고때	-10.1932
한다면	-10.1936
▁칠	-10.1944
원을	-10.1947
▁보내줄	-10.195
▁알아보고	-10.195
▁창가	-10.1953
▁쳐	-10.1963
합니다잉	-10.1965
▁중인데	-10.1967
▁왔어	-10.1968
드리고	-10.1968
▁힘	-10.1979
▁판매하고	-10.1983
▁경우에는	-10.1983
낼	-10.1987
아가	-10.1992
▁렌터카	-10.2
▁에스컬레이터	-10.2
▁가보고	-10.2003
▁알지	-10.2003
▁드릴께예	-10.2004
취	-10.2005
al	-10.2008
▁도쿄	-10.2008
▁북	-10.2009
맞	-10.2012
▁실수로	-10.2013
▁되예	-10.2016
▁않았습니다	-10.2019
보시고	-10.2019
렸어요	-10.2025
▁색깔	-10.2025
께요	-10.2035
▁거랑	-10.2044
든지	-10.2045
▁도착하	-10.2049
▁몰랐는데	-10.2052
▁지켜	-10.2052
▁악	-10.2053
만원	-10.2054
량이	-10.2056
▁있어도	-10.2061
라가꼬	-10.2064
해드리	-10.2065
▁잘하고	-10.2071
▁전기	-10.2074
▁그라는데	-10.2079
▁어려	-10.2079
▁오랜	-10.2082
감이	-10.209
억	-10.209
▁분들이	-10.2096
해주셔서	-10.2099
▁말해줄	-10.2102
찰	-10.2102
켓	-10.2103
▁밖으로	-10.2105
껏	-10.2105
▁흡연	-10.2105
▁겨우	-10.2105
▁드실	-10.2106
▁들어와	-10.2108
▁개안타	-10.211
▁선호	-10.2111
▁없었어요	-10.2112
하다고	-10.2115
밀	-10.2117
이란	-10.2117
줍니다	-10.2117
손	-10.212
주쇼잉	-10.2123
▁맹	-10.2127
▁만들고	-10.2129
▁의심	-10.2131
▁결제해	-10.2131
▁수요일에	-10.2146
▁무시	-10.2153
▁강남	-10.216
▁여자친구가	-10.2161
▁들은	-10.2164
▁시부터	-10.2165
달라고	-10.2169
▁오르	-10.218
▁엄	-10.2183
▁걸렸	-10.2184
주시겠어예	-10.219
re	-10.2198
▁기도	-10.2198
▁층	-10.2204
▁대만	-10.2207
▁밝은	-10.221
~	-10.2211
▁붙이	-10.2211
걍	-10.2211
칩	-10.2211
▁스마트폰	-10.2211
▁연휴	-10.2212
▁극장	-10.2212
▁어떠세요	-10.2214
▁포기하	-10.2214
▁나은	-10.2217
▁간격	-10.2219
▁작가	-10.2219
▁동전	-10.222
▁이루	-10.2223
▁x	-10.2223
▁경치	-10.2225
▁따르	-10.2229
야지	-10.223
▁놓치	-10.2231
▁되었어요	-10.2232
라카면	-10.2235
랑께요	-10.2235
갑	-10.2236
하라고	-10.2239
▁행복했	-10.224
해드릴	-10.2243
▁받았는데	-10.2243
▁친구덜	-10.2243
▁군	-10.2244
▁봤어	-10.2244
▁명의	-10.2245
▁가본	-10.2249
▁해라	-10.2252
▁튀	-10.2256
었나	-10.2261
▁써야	-10.2268
▁사람덜	-10.2273
▁도와드리	-10.2273
▁W	-10.2276
▁좋아지	-10.2282
▁들어서	-10.2286
▁오셔	-10.2288
▁프로그램이	-10.2302
▁불편해	-10.2302
▁비자	-10.2305
▁년	-10.2307
▁내려서	-10.2309
립니더	-10.231
되나요	-10.2313
▁작아	-10.2313
▁문장	-10.2314
앙	-10.2314
감을	-10.2316
라꼬예	-10.2319
▁교체	-10.2322
▁맡겨	-10.2322
신가요	-10.2323
▁일본에서	-10.2325
▁글케	-10.2325
▁우연	-10.2327
들어	-10.2327
▁조건	-10.2328
▁시절	-10.2328
▁불이	-10.2328
▁가가꼬	-10.2328
▁생길	-10.2329
▁필요한데	-10.2332
▁까	-10.2337
욕	-10.2341
K	-10.2342
밤	-10.2343
▁전시회	-10.2344
▁온도	-10.2345
봐라	-10.2346
받을	-10.2346
▁시킬	-10.2347
조차	-10.235
▁보내주이소	-10.2354
▁남기	-10.2354
▁정도면	-10.2357
▁환자분	-10.2358
▁요건	-10.2365
▁크림	-10.2366
▁드리는	-10.239
▁매력	-10.2391
는데요	-10.2392
▁해줘	-10.2393
▁규정	-10.2396
▁정류장에서	-10.2398
▁가세요	-10.24
받은	-10.2411
렴	-10.2416
▁간단	-10.2422
▁개안은	-10.2427
▁놀아	-10.2428
▁샌드위치	-10.2428
▁품절	-10.2428
▁귀엽	-10.2428
▁검토	-10.2429
라니	-10.2429
▁시즌	-10.2429
▁반찬	-10.2431
▁열이	-10.2433
▁분실물	-10.2437
▁찍으	-10.2438
▁슨생님이	-10.2438
▁거라예	-10.244
▁연구	-10.244
▁알리주	-10.2445
▁누르	-10.2451
▁새벽에	-10.2454
▁기라	-10.2454
▁또는	-10.246
▁좋을까예	-10.2464
령	-10.2467
▁몰라요	-10.2469
▁구매하고	-10.2472
▁존재	-10.2478
▁오시	-10.2485
▁분야	-10.2487
였어예	-10.2489
▁만들었	-10.2493
▁가치	-10.2495
▁적혀있	-10.2495
▁통과	-10.2496
트를	-10.2497
▁홈페이지에	-10.2501
드립니더	-10.2502
집니더	-10.2504
▁넣고	-10.2508
▁즐겁	-10.2509
▁정신	-10.2511
▁벨	-10.2518
▁못하는	-10.2519
▁부모님께	-10.2524
황	-10.2533
▁거면	-10.2533
튼	-10.2536
드리겠십니더	-10.2536
▁최근	-10.2536
듭	-10.2537
▁읽고	-10.2537
▁재킷	-10.2537
둥	-10.2537
▁머스마	-10.2537
▁설거지	-10.2537
▁환영	-10.2538
▁출입	-10.2539
▁게이트	-10.254
▁어찌	-10.254
결	-10.2547
군	-10.2549
▁공간이	-10.2559
▁나쁘	-10.2561
광	-10.2566
▁시간표	-10.2574
▁계획이	-10.2576
하였습니다	-10.2576
돼서	-10.2579
▁좋겠는데	-10.258
▁가까	-10.2582
▁연어	-10.2593
▁0	-10.2594
▁방문하	-10.2609
▁자신을	-10.2613
▁가능한데	-10.2618
▁처음으로	-10.2618
▁티	-10.2619
▁맛있다	-10.262
▁갑	-10.2623
▁먹었어요	-10.2625
▁커서	-10.2627
▁도착하는	-10.263
▁가정	-10.2641
▁어울릴	-10.2643
읐	-10.2647
관이	-10.2648
▁정확하게	-10.2649
▁보내는	-10.2649
▁멋지	-10.265
▁돌아왔	-10.2651
▁교복	-10.2651
▁앞쪽	-10.2652
▁보호	-10.2653
▁적립	-10.2654
▁스키	-10.2658
▁현실	-10.2667
혀요	-10.2668
▁그랄	-10.2676
▁거가	-10.2678
해보고	-10.268
▁보내주세요	-10.2684
▁가셔서	-10.2686
▁갔어예	-10.2687
여행	-10.2696
▁가져	-10.27
▁바빠서	-10.2703
▁맞는지	-10.2704
▁받으시	-10.2712
▁감사합니다잉	-10.2717
▁할부	-10.272
▁금액은	-10.2722
▁누워	-10.2723
▁다녀왔	-10.2723
드리겠습니더	-10.2723
사는	-10.2728
▁대학교에	-10.2736
활	-10.2737
▁오른쪽에	-10.2745
냅	-10.2758
▁흥미	-10.276
j	-10.2761
▁떨어졌	-10.2761
▁으떻	-10.2761
▁읽는	-10.2761
▁아메리카노	-10.2761
해드릴게요	-10.2762
▁갈라	-10.2762
▁끝날	-10.2765
▁하겠습니더	-10.2771
▁추석	-10.2775
▁모여	-10.2775
빠	-10.2776
치는	-10.2777
인당	-10.2782
▁해주실	-10.2789
▁포함되어	-10.2789
살이	-10.279
▁당연하지	-10.2791
▁상관	-10.2797
f	-10.2798
▁감상	-10.28
▁없지	-10.2803
드만	-10.2803
▁되어서	-10.2809
▁중이야	-10.2816
▁같습니다잉	-10.2817
▁재밌는	-10.2818
▁s	-10.2818
이예요	-10.2825
▁전화로	-10.2829
▁헌	-10.2834
몬	-10.2835
▁받으면	-10.2848
▁화요일에	-10.285
▁왕	-10.2852
▁돌아오는	-10.2852
▁나쁘지	-10.2852
▁죽을	-10.2856
▁좋아하는데	-10.2861
▁성격이	-10.2863
▁U	-10.2864
턴	-10.2872
▁부족하	-10.2873
젠	-10.2874
▁가깝	-10.2875
▁나옵니더	-10.2876
하셨나요	-10.2876
▁맞을	-10.2881
줬으면	-10.2881
▁가죽	-10.2882
▁보고서	-10.2884
▁지낼	-10.2885
했나	-10.2885
물이	-10.2891
▁어두	-10.2892
▁실례합니다	-10.2893
버예	-10.29
▁5,000	-10.2902
답	-10.2905
▁행	-10.2907
칸	-10.2919
▁자리로	-10.2921
▁않지만	-10.2922
▁없었어	-10.2927
▁열정	-10.293
해드릴까요	-10.2935
▁하더라	-10.2938
▁기본적	-10.2938
▁이전	-10.2947
▁죄송한데예	-10.295
▁알아요	-10.295
▁받아서	-10.2953
원에	-10.2954
▁거라서	-10.2957
봐야	-10.2962
▁안쪽	-10.2964
▁물어봤	-10.2964
▁필요하신	-10.2968
▁보기에는	-10.2968
▁고민이	-10.2969
▁폐	-10.2969
래요	-10.2975
▁소중	-10.2976
▁틀	-10.2977
▁차에	-10.2978
▁했지만	-10.298
▁송금	-10.2983
▁어떨까요	-10.2983
▁안됩니더	-10.2985
▁중으로	-10.2985
▁실패	-10.2992
였다	-10.2995
▁도바	-10.3002
▁졸	-10.3002
▁멀어	-10.3003
▁한참	-10.3013
▁비용은	-10.3014
▁카페에서	-10.3014
▁마셔	-10.3014
▁줄게요	-10.3015
▁아이면	-10.3015
10	-10.3015
▁방식	-10.3019
▁같았	-10.302
▁어울리	-10.3023
실래예	-10.3025
W	-10.3036
H	-10.3036
▁오는데	-10.3037
쯤에	-10.3037
▁동생이	-10.304
려서	-10.304
▁파리	-10.3041
▁기간이	-10.306
▁시작할	-10.3061
▁조각	-10.3074
▁움직	-10.3077
▁이후	-10.3077
▁인터넷에서	-10.308
▁유행	-10.3087
▁뭐야	-10.3096
▁아이디	-10.3103
▁장점	-10.3103
▁옮겨	-10.3106
▁완성	-10.3106
▁바닷가	-10.3106
▁분홍색	-10.3106
▁스티커	-10.3106
▁자유롭게	-10.3106
▁시원한	-10.3106
▁취향	-10.3107
▁적당한	-10.3107
년에	-10.3114
▁예술	-10.3117
▁말씀하신	-10.3119
쇼잉	-10.3119
▁말씀해주세요	-10.3124
▁문구	-10.3125
▁기록	-10.3125
▁괜찮습니다	-10.3125
▁판	-10.3131
▁길어	-10.3131
송	-10.3134
▁세부	-10.3136
▁기쁘	-10.3137
▁방에서	-10.314
▁노력하	-10.3143
▁원해요	-10.3144
▁이른	-10.3145
한티	-10.3159
▁즈	-10.317
▁미국에	-10.3173
든디	-10.3176
▁없다는	-10.3177
▁끄	-10.3188
▁어서	-10.3189
▁직원들	-10.3191
듯이	-10.3196
겠는데	-10.3198
▁죄송	-10.3202
가지고	-10.3204
▁노력해	-10.3204
▁싶으	-10.3206
▁초과	-10.3212
▁무대	-10.3213
▁멈추	-10.3223
▁밸로	-10.3224
▁단순	-10.3224
▁귀여운	-10.3224
층에서	-10.3226
▁잘하	-10.323
데요	-10.3235
▁귀찮	-10.3236
▁갈게	-10.3237
하는지	-10.3237
▁무엇인가요	-10.3237
▁허벌나	-10.3238
였는데	-10.3239
야겠어	-10.324
어가꼬	-10.3241
▁14	-10.325
하려	-10.3252
킬로	-10.3258
▁그래야	-10.3259
▁얼라	-10.326
▁홈페이지	-10.3262
▁찌	-10.3269
어요잉	-10.3275
▁누나	-10.3278
▁욕	-10.3285
▁목이	-10.3285
▁해드릴	-10.3287
▁사전	-10.3288
없	-10.3295
십시오	-10.3295
▁시간도	-10.3299
있어	-10.3299
▁아파요	-10.3301
▁연고	-10.3301
▁달러	-10.3306
▁줘야	-10.3306
▁스페인	-10.3311
▁색깔이	-10.3314
▁들어갔	-10.3322
납	-10.3324
▁않은데	-10.3328
▁이름으로	-10.3328
겠죠	-10.3333
▁J	-10.3333
▁처음이라	-10.3337
콜	-10.3341
냉	-10.3342
듬	-10.3342
찜	-10.3342
▁잃어버렸	-10.3342
▁어찌케	-10.3344
▁처음이	-10.3344
줍니더	-10.3344
▁억시	-10.3347
▁야외	-10.3347
▁영어가	-10.3351
▁사다	-10.3352
▁살았	-10.3352
▁기다려주이소	-10.3353
▁맞습니꺼	-10.3354
놓고	-10.3357
▁정문	-10.336
▁괜찮을까요	-10.3362
▁세워	-10.3368
▁조사	-10.3369
▁싶었는데	-10.3371
▁우울	-10.3371
▁어젯밤에	-10.3371
▁중입니다	-10.3374
했습니데이	-10.338
주실래요	-10.3383
▁개선	-10.3383
▁먹자	-10.3386
▁있으가	-10.339
▁가셔야	-10.339
▁따라가	-10.34
떡	-10.3401
▁21	-10.3404
하십니꺼	-10.3409
▁부분은	-10.3416
▁한복	-10.342
해드릴게예	-10.3425
▁와가꼬	-10.3432
▁오데	-10.3432
▁K	-10.3436
종일	-10.3442
▁부탁해	-10.3445
▁Q	-10.3446
▁가끔은	-10.3447
주일	-10.3451
▁기억나	-10.3451
용으로	-10.3454
▁물어	-10.3459
▁보네	-10.3461
▁보았	-10.3461
▁골목	-10.3461
힐	-10.3462
▁감자튀김	-10.3463
▁올림픽	-10.3463
▁인터뷰	-10.3463
▁깁니다	-10.3463
▁손가락	-10.3463
▁노란색	-10.3463
▁데이터	-10.3464
▁미래	-10.3465
▁상대방	-10.3465
▁이내에	-10.3466
▁쇼핑을	-10.347
▁신호	-10.3476
▁처	-10.3479
▁소화	-10.3479
▁공부하고	-10.3489
▁가한테	-10.349
▁무서	-10.3493
▁고통	-10.3501
침	-10.3503
▁걸리나요	-10.3508
라카는데	-10.3508
▁루	-10.3516
▁얘기할	-10.3516
▁60	-10.3518
찌	-10.3518
▁가실	-10.352
▁자신감	-10.353
▁끌	-10.3531
▁하겠	-10.3532
▁팬	-10.3533
▁당신이랑	-10.3533
▁들어가서	-10.3536
한다꼬	-10.3538
▁먹으	-10.354
▁힘을	-10.3542
▁지금도	-10.3545
▁된다면	-10.3547
▁사랑해	-10.3548
이랑께요	-10.355
▁폭	-10.3553
▁보면서	-10.3559
▁외국인이	-10.3559
▁굽	-10.3567
▁좋아할	-10.3569
▁나가야	-10.3571
▁영향을	-10.3579
▁나라에	-10.3579
댕	-10.3581
▁단어	-10.3582
▁그렇습니다	-10.3585
▁스케쥴	-10.3585
▁웹사이트	-10.3585
▁읽을	-10.3585
▁칭찬	-10.3585
▁태어나	-10.3585
▁뉴스	-10.3585
▁미안하지만	-10.3588
▁간단하게	-10.3591
it	-10.3592
▁알리주이소	-10.3596
▁으데	-10.3598
▁좋았을	-10.3598
▁뵙	-10.3598
▁야간	-10.3601
▁보네요	-10.3602
▁좋겠네예	-10.3603
▁인정	-10.3605
ow	-10.3613
▁고려	-10.3618
▁가격으로	-10.3625
▁노력할	-10.3627
▁보상	-10.3633
▁오게	-10.3635
오는	-10.3636
▁아닐까	-10.364
▁객실로	-10.3642
▁기타	-10.3644
▁늦게까지	-10.3646
해주신	-10.3647
탈	-10.3651
▁그렇지만	-10.3654
▁환불해	-10.366
▁끝에	-10.3667
부러	-10.367
▁테	-10.368
▁대구	-10.3681
▁가졌	-10.3681
▁최소	-10.3684
▁배송비	-10.3689
▁갈아타	-10.3692
▁자르	-10.3694
▁봤어요	-10.3701
▁되니	-10.3708
▁따뜻하	-10.3708
▁전문	-10.3711
▁시킨	-10.3715
▁보내준	-10.3717
▁해봤	-10.3721
▁감사해요	-10.3721
▁남지	-10.3726
▁온다고	-10.3729
▁그것에	-10.3729
▁보네예	-10.3729
▁했었	-10.3731
▁고객님이	-10.3733
▁쫌만	-10.3735
▁문제없	-10.3739
▁엄마는	-10.3739
▁배려	-10.3742
▁무엇이	-10.3751
▁괜찮은데	-10.3752
or	-10.3755
▁운동하는	-10.3765
▁보게	-10.3773
▁좋겠네요	-10.3775
▁휴	-10.3779
딱	-10.3782
▁필요하다	-10.3784
▁잡지	-10.3787
▁한식	-10.3788
압	-10.3791
로코	-10.3793
▁끼야	-10.3795
▁주기	-10.3797
▁내로	-10.3797
▁끼라	-10.3799
▁생각나	-10.3802
▁생각할	-10.3809
▁동아리에	-10.3809
▁도서관에서	-10.3814
득	-10.3821
▁상대	-10.3828
슈	-10.3833
▁고등학생	-10.3833
▁믿고	-10.3833
▁드레스	-10.3833
▁느낄	-10.3834
▁목걸이	-10.3834
▁수하물	-10.3834
▁습관	-10.3834
▁가까워	-10.3836
▁다녔	-10.3837
▁일회용	-10.3837
▁명절	-10.3839
▁있당게	-10.3845
▁학점	-10.3851
▁있당가	-10.3853
▁못했어요	-10.3856
▁가격에	-10.3862
▁생겨서	-10.3864
▁보시믄	-10.3865
▁그곳에서	-10.3866
아야	-10.3867
원으로	-10.387
▁드리면	-10.387
▁걱정되	-10.3877
따라	-10.3882
할라믄	-10.3884
▁물건들	-10.389
▁납	-10.3892
되어야	-10.3893
긋다	-10.3894
끼라	-10.3895
누	-10.3896
▁가족들이	-10.3897
▁메뉴로	-10.3898
▁양해	-10.3899
▁이전에	-10.3901
▁말로	-10.3907
▁증상	-10.3909
▁할까예	-10.3911
팩	-10.3911
▁원하지	-10.3912
▁좋겠어예	-10.3912
▁놔	-10.3913
▁써보	-10.3924
드리께예	-10.3929
스터	-10.3939
겠습니꺼	-10.3944
▁하다	-10.3947
▁어렵습니다	-10.395
▁부족해	-10.3956
▁놀라	-10.3957
논	-10.396
▁붙여	-10.396
▁서둘러	-10.396
▁얻을	-10.396
▁여쭤보	-10.396
▁측정	-10.396
주셨으면	-10.396
▁활용	-10.396
▁채널	-10.396
빡	-10.396
▁오픈	-10.3962
▁무섭	-10.3963
▁아쉽	-10.3963
▁그란	-10.3963
▁생각도	-10.3964
▁Z	-10.3964
▁수준	-10.3967
▁감사하겠습니다	-10.3967
▁데리러	-10.3967
▁고거	-10.3967
▁필	-10.3969
▁대표	-10.3972
▁예정이에요	-10.3976
▁복잡	-10.3979
▁오류	-10.3982
▁잡으	-10.3983
▁있으시면	-10.399
▁그녀와	-10.3993
▁팩	-10.3994
▁매진	-10.3996
▁시작되	-10.4006
드리면	-10.401
▁심각한	-10.4011
▁할게	-10.4014
▁드는데	-10.4018
참	-10.4019
했당께요	-10.402
▁나누	-10.4021
▁오실	-10.4021
▁다행이네요	-10.4025
두고	-10.4036
했십니다	-10.4041
▁불편하게	-10.4042
▁걸리지	-10.4043
▁되죠	-10.4044
▁위해서는	-10.4052
▁전체적	-10.4054
▁교수님께	-10.4058
▁글쎄	-10.4065
▁음식에	-10.4066
▁세상에	-10.407
▁유명해	-10.4073
범	-10.4086
옥	-10.4088
켔	-10.4088
▁높아	-10.4088
▁이어폰	-10.4088
▁그다음	-10.4089
▁자격증	-10.4089
▁데리	-10.409
▁존중	-10.4091
▁즈그	-10.4091
▁우승	-10.4091
▁출력	-10.4091
었지만	-10.4093
▁됬	-10.4093
▁청구	-10.4094
▁주문해	-10.4096
▁않아가	-10.4097
▁그리워	-10.4099
▁다양하	-10.4101
▁오시는	-10.4101
▁가능하다면	-10.4104
허게	-10.4104
▁작년	-10.4108
▁3,000	-10.411
할라고	-10.412
▁원인	-10.412
▁들려	-10.4124
석이	-10.413
래예	-10.4133
▁냉장고	-10.4137
st	-10.4138
▁알려주시	-10.4143
써	-10.4145
겠제	-10.4148
▁생각한	-10.4151
▁같네	-10.4152
▁용서	-10.4156
▁리가	-10.4164
이네예	-10.4165
▁변경할	-10.4168
▁갈까	-10.4175
북	-10.4176
▁비해	-10.4177
▁치수	-10.4179
▁제시간	-10.4179
▁봐예	-10.4181
▁친구에게	-10.4181
▁바라요	-10.4183
끼데이	-10.4185
▁지하철역이	-10.4187
▁보인다	-10.4189
▁가게에서	-10.42
▁일도	-10.4208
즐	-10.421
▁빛	-10.4211
▁배워	-10.4214
델	-10.4215
▁작업이	-10.4217
▁놀이공원	-10.4218
▁빨간	-10.4218
▁한다꼬	-10.4219
▁하늘	-10.422
시나예	-10.4222
머리	-10.4225
▁30%	-10.4225
으며	-10.4225
▁느그	-10.4225
▁시작했	-10.4226
▁발권	-10.4227
▁다음번에	-10.423
▁소음	-10.4231
▁헤	-10.4231
▁고급	-10.4247
▁편해	-10.4247
▁택시가	-10.4249
▁빠진	-10.425
▁정해져	-10.425
▁이용하시	-10.425
▁얼굴에	-10.4251
▁선택할	-10.4253
▁광	-10.4253
▁보입니더	-10.4254
▁차는	-10.4257
▁건물이	-10.4257
▁그러고	-10.4258
▁팀이	-10.4262
▁오늘이	-10.4264
▁도착한	-10.427
텐	-10.4271
▁운전자	-10.4271
▁동료	-10.4272
▁기억하	-10.4274
▁계시는	-10.4277
▁사건	-10.4281
했다는	-10.4283
집에	-10.4292
▁터미널	-10.4293
▁입으	-10.4301
▁23	-10.4303
묵	-10.4306
▁호주	-10.4311
개씩	-10.4312
대학교	-10.4312
▁여행하는	-10.4324
▁해드릴게요	-10.4331
시지예	-10.4333
▁하네요	-10.4338
▁동시	-10.4343
▁제주도에	-10.4344
규	-10.4346
▁걷기	-10.435
▁걷는	-10.435
▁부드럽	-10.435
▁찜질	-10.435
▁런던	-10.435
▁주지	-10.4351
▁사라지	-10.4355
▁전철	-10.4356
▁절차	-10.4356
▁이모	-10.4358
▁왼쪽에	-10.436
▁다행이네예	-10.4361
▁신문	-10.4362
▁나빠	-10.4362
▁고쳐	-10.437
▁지속	-10.4379
▁운이	-10.4379
11	-10.4384
▁코트	-10.4388
겠습니까	-10.4389
▁정차	-10.4389
▁없을까	-10.4399
▁가이소	-10.4412
대에	-10.4413
▁변경해	-10.4416
▁갈아	-10.4434
▁했나	-10.4437
▁시기	-10.4441
▁드리겠습니더	-10.4443
테이	-10.4444
▁알았다	-10.4445
언	-10.4447
맹	-10.4449
▁들어보	-10.4452
▁페	-10.4452
겄다	-10.4468
해주실	-10.4468
▁요가	-10.4472
랍	-10.4478
▁시도	-10.4481
▁복숭아	-10.4483
▁최종	-10.4483
▁눌러	-10.4483
▁맞게	-10.4483
▁슬퍼	-10.4484
▁항공편	-10.4484
▁당황	-10.4484
▁도와드릴게요	-10.4488
▁가져오	-10.4488
▁티비	-10.4489
▁생산	-10.449
▁사기	-10.4493
▁있심더	-10.4495
하던	-10.4497
▁뿌	-10.4498
▁유리	-10.4505
이라스	-10.4506
▁조용한	-10.4506
▁나오면	-10.4506
▁당슨에게	-10.4507
▁교환해	-10.4512
▁결제할	-10.4516
▁틀어	-10.4517
됐습니더	-10.4523
▁사람들과	-10.4532
▁않으믄	-10.4533
▁지나가	-10.4534
졌다	-10.4535
▁스타일이	-10.4536
▁온라인으로	-10.4538
▁보내드리	-10.4546
▁색상이	-10.4548
▁개안으	-10.4549
▁결혼할	-10.4554
▁강한	-10.4555
▁위해스	-10.4555
▁미안	-10.4556
▁들었어예	-10.4556
▁받기	-10.4556
▁괜찮으	-10.4558
▁백화점에	-10.4559
▁맞으	-10.4563
▁쉽	-10.4566
▁접시	-10.457
▁지난주	-10.4574
▁하는데예	-10.4574
독	-10.4575
▁시작한	-10.4582
▁없는디	-10.4586
역에	-10.4586
▁빨	-10.4587
▁생겨	-10.459
갑니더	-10.4591
▁생각한다	-10.4602
▁것과	-10.4606
▁들어요	-10.4608
혀요잉	-10.4611
▁쇼	-10.4611
벤	-10.4618
:	-10.4618
▁딸기	-10.4618
▁라디오	-10.4618
▁리조트	-10.4618
▁앉으	-10.4618
헙니다	-10.4618
▁바란데이	-10.4618
▁귀걸이	-10.4618
합시다	-10.4619
▁왕복	-10.4619
▁김밥	-10.462
▁후식	-10.462
▁조립	-10.4622
▁다섯	-10.4624
▁부산에	-10.4624
▁따른	-10.4625
▁자는	-10.4626
▁반복	-10.4628
▁계정	-10.4628
▁항공	-10.463
▁쉬운	-10.4631
▁매장에서	-10.4633
▁화려	-10.4634
▁갈아타야	-10.4638
란다	-10.4638
▁때메	-10.464
▁메인	-10.4644
▁받았어요	-10.4647
▁가질	-10.4654
▁갈게요	-10.4661
주시기	-10.4661
으시면	-10.4664
▁내리면	-10.4666
▁안정	-10.4667
▁시간대	-10.4668
▁나갔	-10.4673
▁없으니까	-10.4674
았는데	-10.4677
해라	-10.468
▁체력	-10.4685
▁송	-10.4687
▁상관없이	-10.4694
▁기념	-10.4698
▁분들	-10.47
▁선물이	-10.4705
▁같고	-10.471
깐	-10.4718
▁사정이	-10.4727
G	-10.4728
눈	-10.4729
하시겠어요	-10.4729
▁괜찮다	-10.4732
▁편이라	-10.4736
▁부탁드려	-10.4739
▁길게	-10.4744
▁안경	-10.4747
하시기	-10.4751
▁있던데	-10.4754
촉	-10.4755
▁닭고기	-10.4755
▁매표소	-10.4755
▁샴푸	-10.4755
▁안녕하십니꺼	-10.4755
▁오토바이	-10.4755
숍	-10.4755
▁태풍	-10.4755
▁승객	-10.4756
▁환급	-10.4757
▁뜨거운	-10.4757
▁지폐	-10.4758
▁그란디	-10.476
▁없었다	-10.476
▁벌레	-10.476
▁단계	-10.4762
▁삼성	-10.4766
▁불가능하	-10.4766
▁왔는디	-10.4784
해드릴까예	-10.4787
되믄	-10.4791
▁없어졌	-10.4794
▁예쁘게	-10.4796
▁전화가	-10.4799
▁하나는	-10.4799
▁진행하는	-10.4802
▁해주시면	-10.481
실래요	-10.4811
▁만나지	-10.4811
▁생각했는데	-10.4812
▁결제가	-10.4813
했나요	-10.4821
으로부터	-10.4821
▁고맙습니다	-10.4835
▁깨끗	-10.4839
▁네일	-10.4841
▁돌리	-10.4857
▁있으시	-10.486
린다	-10.4865
▁했데이	-10.4865
▁공항까지	-10.4871
풀	-10.4872
▁이걸로	-10.4876
궁	-10.4877
준다고	-10.4878
▁22	-10.4878
▁영화에	-10.4878
▁아들이	-10.4878
▁이쪽	-10.4879
▁공기	-10.4883
▁준비할	-10.4883
시켜	-10.4884
▁연인	-10.4884
▁맹들어	-10.4888
▁궁금	-10.4889
므로	-10.4892
▁운	-10.4893
▁생각해보	-10.4893
▁낍니다	-10.4894
▁놀고	-10.4894
▁캐릭터	-10.4894
▁컨펌	-10.4894
쓱	-10.4894
_	-10.4894
▁렌즈	-10.4894
▁화이트	-10.4894
▁비밀번호	-10.4894
▁돼지고기	-10.4894
▁풍경	-10.4895
센터에	-10.4895
▁불고기	-10.4895
▁조언	-10.4895
▁월급	-10.4896
▁지곰	-10.4896
▁회복	-10.4896
▁초밥	-10.4896
▁출석	-10.4897
▁평생	-10.4897
▁무서워	-10.4897
▁군데	-10.49
▁낯	-10.4901
▁그분	-10.4902
▁결석	-10.4903
et	-10.4905
▁생신	-10.491
▁조정	-10.4911
▁사탕	-10.4913
▁즈히	-10.4914
▁그것들	-10.492
▁성장	-10.4924
▁은행에서	-10.4924
▁규칙	-10.493
▁서울에서	-10.4933
▁할라꼬	-10.4935
▁경비	-10.4942
▁그거는	-10.4942
▁밀려	-10.4943
났어	-10.4946
▁어른	-10.4954
▁모르겄	-10.4958
같	-10.4968
▁하나예	-10.4975
▁있었데이	-10.4976
▁비교	-10.4978
▁있으신가	-10.4981
▁바닥에	-10.4988
▁가방에	-10.4992
▁달려	-10.4993
▁시내에	-10.4998
▁집까지	-10.5
▁아프지	-10.5001
▁힘들다	-10.5003
▁오일	-10.5004
꾸	-10.5006
▁정장	-10.5008
▁판단	-10.5015
돈	-10.5015
▁서명	-10.502
▁딸래미	-10.5035
▁아저씨	-10.5035
닝	-10.5035
칬	-10.5035
▁어저께	-10.5035
▁언젠가	-10.5035
▁일어난	-10.5035
▁뿌듯	-10.5035
▁아닙니더	-10.5036
▁유명하	-10.5043
▁들어올	-10.5044
▁말씀해주시면	-10.5047
▁맞는데	-10.5049
▁안전하	-10.5056
▁세관	-10.5057
▁일나	-10.5059
▁생기면	-10.5061
▁현장	-10.5062
됐다	-10.5063
▁능력	-10.5063
5,000	-10.5063
혔는데	-10.5067
처리	-10.5071
▁모아	-10.5072
▁착한	-10.5073
▁번호로	-10.5077
▁청소년	-10.5088
▁제공해	-10.5091
▁나는데	-10.5092
▁사람들에게	-10.5101
▁그만두	-10.5103
시리	-10.5105
▁생일이	-10.5116
▁뭔가요	-10.5117
▁사원	-10.5121
▁하셔야	-10.5127
▁도와드릴	-10.5128
▁마찬가지	-10.5135
▁팔아	-10.5136
▁찾아봐	-10.5139
▁해드리	-10.5141
▁했을	-10.5141
▁하던	-10.5143
해보세요	-10.515
▁봤다	-10.5154
▁있었나	-10.5155
줄게예	-10.516
▁후기	-10.5161
▁놀이	-10.5176
▁젊은	-10.5178
▁확신	-10.5178
▁비디오	-10.5178
▁증말	-10.5179
▁영광	-10.5179
▁목요일에	-10.518
▁빨래	-10.5181
▁허락	-10.5181
▁부서	-10.5182
▁과연	-10.5182
▁공지	-10.5184
▁사촌	-10.5185
▁걸립니더	-10.5186
보시는	-10.5187
▁가능해요	-10.5188
▁탈색	-10.5188
▁갸덜	-10.5189
▁대리	-10.5189
▁소금	-10.519
▁유학	-10.5192
버리	-10.5199
▁개안을	-10.5199
▁보지	-10.5199
▁출시	-10.5206
▁모레	-10.5208
당가	-10.5209
▁이쪽으로	-10.5209
▁2,000	-10.5209
▁눈치	-10.521
▁뿌리	-10.5211
▁됐어요	-10.5213
▁제목	-10.5217
▁그런가	-10.5224
▁않기	-10.5235
▁시쯤	-10.5245
▁빠졌	-10.5249
20	-10.525
▁제품이라	-10.525
▁공사	-10.5257
했었어	-10.5258
킬	-10.5262
럼	-10.5266
▁주인	-10.5276
▁편할	-10.5284
▁주방에	-10.5293
▁드셔	-10.53
▁카페에	-10.5301
철	-10.5304
▁문제에	-10.5308
남	-10.5309
맛	-10.531
▁도쿄에	-10.5311
헐	-10.5311
짓	-10.5313
춘	-10.5323
▁떨어진	-10.5323
▁업데이트	-10.5323
뤄	-10.5323
▁으떤	-10.5323
▁교통카드	-10.5323
▁삼촌	-10.5323
할라꼬예	-10.5326
▁나고	-10.5329
▁부러	-10.533
▁하겠십니더	-10.533
▁고럼	-10.5331
집니다	-10.5332
▁b	-10.5335
이어서	-10.534
▁할인된	-10.5342
▁구매했는데	-10.5342
▁영화관에	-10.5345
▁갔습니더	-10.5348
▁가족을	-10.535
▁남았는데	-10.5352
▁알아서	-10.5353
▁기내에	-10.5356
▁봤던	-10.5357
해주시기	-10.5368
▁먹었어	-10.5369
끼리	-10.5373
▁친구로	-10.5378
겠십니다	-10.5378
없이	-10.5381
▁책임감	-10.5382
▁진행하	-10.5387
님께	-10.5392
▁사용하지	-10.5395
▁출고	-10.5398
▁손상	-10.5402
▁알려줄게	-10.5408
▁운전을	-10.5418
▁줄래	-10.5423
▁남아있는	-10.543
""	-10.5432
▁일본에	-10.5437
▁지하철로	-10.5439
▁해서요	-10.5443
▁머무	-10.5445
죠잉	-10.5449
▁풍	-10.5451
▁객실이	-10.5458
이었다	-10.5462
▁의지	-10.5463
됬	-10.5464
▁전망	-10.5464
톤	-10.5469
몽	-10.547
줐	-10.547
▁업그레이드	-10.547
▁진통제	-10.547
둬	-10.547
▁표지판	-10.547
슴더	-10.5471
▁50%	-10.5472
▁연착	-10.5472
혔어요잉	-10.5476
▁빨라	-10.5476
▁타기	-10.5477
▁바람에	-10.5478
▁입학식	-10.5479
▁어렵다	-10.548
▁식단	-10.548
▁개안아예	-10.548
▁타임	-10.5484
▁회사를	-10.5484
▁만화	-10.5485
▁치마	-10.5486
▁좋겠노	-10.549
▁게다가	-10.549
▁말씀해주이소	-10.5491
▁생각한데이	-10.5494
▁번씩	-10.5498
▁신나	-10.5498
▁남성	-10.5503
▁보안	-10.5504
▁시방	-10.5507
▁병원에서	-10.5521
▁바닥	-10.5525
▁담당자	-10.5526
▁들지	-10.5526
▁달러로	-10.5529
▁일본어	-10.5538
▁뽑아	-10.5542
▁충전기	-10.5544
▁증상이	-10.5545
ic	-10.5547
▁교실	-10.5547
허는	-10.5548
▁소원	-10.5555
▁역에	-10.5568
▁말아요	-10.5571
▁부분에	-10.5571
▁적용되	-10.5573
▁음식물	-10.5575
▁외국에서	-10.5576
▁해봐야	-10.5582
▁근처에서	-10.5596
▁하네예	-10.5604
▁키우	-10.5607
새	-10.5609
미가	-10.5611
▁여행사	-10.5612
▁담요	-10.5614
▁간다고	-10.5615
▁같기	-10.5615
▁그렇구나	-10.5619
▁낮은	-10.5619
▁바뀐	-10.5619
▁렌트	-10.5619
▁케이스	-10.5619
▁무서운	-10.5622
▁구역	-10.5624
▁웃음	-10.5625
▁버전	-10.5627
봤어	-10.5628
▁아는데	-10.5629
▁불가능합니다	-10.5632
▁없었는데	-10.5632
▁거울	-10.5634
▁아시나요	-10.5635
▁먹어서	-10.5639
▁구매하신	-10.5642
▁갔던	-10.5645
▁하나씩	-10.5649
▁배운	-10.5652
▁됐다	-10.5652
▁어떠한	-10.5653
▁싶네예	-10.5655
▁저런	-10.5655
매번	-10.566
▁싶으면	-10.5661
▁생각해예	-10.5662
겠나	-10.5663
▁온나	-10.5667
구로	-10.567
▁좋네예	-10.5681
회에	-10.5683
▁몰랐어	-10.5688
▁편안하	-10.569
박스	-10.5692
▁그럼요	-10.5699
▁몰라예	-10.57
▁답답	-10.5702
▁없으믄	-10.5703
뿟	-10.5707
▁빠를	-10.5708
▁하지예	-10.5709
척	-10.5711
해야겠다	-10.5714
▁정류장에	-10.5716
▁많습니다	-10.5717
▁그러는	-10.5723
▁디자인이	-10.5729
▁말하면	-10.5729
▁해스	-10.5731
었는디	-10.5743
▁거에	-10.5757
▁되었어	-10.576
▁이것이	-10.576
야겠네예	-10.5761
쟁	-10.5762
겠습니데이	-10.5762
춰	-10.5769
▁최악	-10.577
휘	-10.577
▁승무원	-10.577
▁땅콩	-10.577
▁품목	-10.5771
▁태워	-10.5771
▁봉투	-10.5771
▁팔찌	-10.5772
▁재활	-10.5773
벨	-10.5773
▁시골	-10.5774
됩니데이	-10.5774
▁입술	-10.5775
▁진심	-10.5776
▁재능	-10.5776
▁공포	-10.5777
▁단발	-10.5778
빛	-10.5778
▁가슴	-10.578
▁조심해야	-10.5781
▁외식	-10.5781
▁팁	-10.5782
▁끼고	-10.5784
▁들었는디	-10.5786
▁나옵니다	-10.5787
금액	-10.5791
▁상세	-10.5791
▁성실	-10.5791
▁향상	-10.5794
드릴까요	-10.5796
▁정도만	-10.5802
▁과학	-10.5807
개의	-10.5811
▁환전할	-10.5811
증이	-10.5816
▁호텔이	-10.5817
▁한꺼	-10.5818
됐어요	-10.5819
▁반대편	-10.582
▁갈색	-10.5822
▁저장	-10.5829
▁애가	-10.5833
▁거절	-10.5839
듯	-10.5842
▁운전하는	-10.5843
▁상당	-10.5847
하겠십니더	-10.5857
▁벌어	-10.5861
▁수행	-10.5867
▁이용하는	-10.5868
▁가능하면	-10.5868
▁지도에	-10.5873
▁기재	-10.5884
▁한류	-10.5888
▁찍어주실	-10.5892
파크	-10.5897
▁나오고	-10.59
우면	-10.5902
▁고치	-10.5919
롭	-10.592
쇼	-10.5921
▁삼겹살	-10.5924
▁찢어	-10.5924
컨	-10.5924
▁쿠키	-10.5924
▁낭비	-10.5924
▁얼맙니	-10.5924
윾	-10.5926
▁볼펜	-10.5926
▁대접	-10.5926
▁가져다드릴게요	-10.5927
▁연애	-10.5927
▁그렇다믄	-10.5932
놔	-10.5932
사이즈	-10.5934
▁드시는	-10.5938
▁고장이	-10.5938
▁무엇인지	-10.594
신가예	-10.5945
▁진행되	-10.5946
▁다치	-10.5946
▁드려요	-10.5948
▁어디인가요	-10.5949
▁기다리야	-10.5953
▁싶노	-10.5956
▁제품들	-10.5957
▁선물해	-10.5958
▁앉아있	-10.5959
▁돼지	-10.5959
▁분석	-10.596
▁해볼	-10.5964
▁볼게요	-10.5968
▁하기로	-10.5973
▁피부에	-10.5973
▁충분한	-10.5974
▁모이	-10.5978
▁그르	-10.5989
▁보이네예	-10.6006
적이고	-10.6013
▁그라서	-10.6013
▁것이라예	-10.6014
▁예의	-10.6015
▁동네에	-10.6015
인데요	-10.6021
▁운동할	-10.6026
졌어예	-10.6042
▁시작하는	-10.6046
▁마주	-10.6049
▁나왔는데	-10.6051
드릴까예	-10.6064
▁같아가	-10.6065
바로	-10.6066
▁않았나	-10.6066
▁바람이	-10.6067
▁시험에	-10.6072
명인데	-10.6076
▁연결해	-10.6077
징	-10.6078
▁공휴일	-10.608
▁캠핑	-10.608
죙	-10.608
▁당분간	-10.608
▁싱글	-10.608
▁충격	-10.608
▁마스크	-10.6081
▁냉동	-10.6081
뚜	-10.6081
▁알기로는	-10.6081
▁품질	-10.6081
▁반응	-10.6082
▁계곡	-10.6082
▁힘내	-10.6084
▁있겠나	-10.6085
▁부탁드리	-10.6086
▁내역	-10.6086
▁발목	-10.6088
▁등이	-10.6089
풍	-10.6089
▁이럴	-10.6091
널	-10.6094
▁어리	-10.6096
▁공원에	-10.6099
▁전원	-10.6101
▁와도	-10.6101
▁아플	-10.6105
식품	-10.6106
▁환불하고	-10.611
▁기념으로	-10.6115
▁16	-10.6125
"	-10.6125
▁참아	-10.6133
▁붙어	-10.6133
▁낫지	-10.6134
▁하차	-10.6134
▁한글	-10.614
▁쪼	-10.6156
▁삐	-10.616
▁걸려요	-10.6161
▁지방	-10.6162
하셨다	-10.6163
주시겄어예	-10.6166
▁하신	-10.6169
▁점수를	-10.6174
▁가봤	-10.6175
▁걸리는	-10.6177
했었는데	-10.6177
▁모른다	-10.6179
▁걸까	-10.6179
▁했고	-10.6186
▁알아야	-10.6191
▁지정	-10.62
▁없네	-10.621
하잖아	-10.6211
▁테니스	-10.6216
▁오라고	-10.622
▁된다는	-10.622
▁허벌	-10.6221
▁좋았어요	-10.6227
▁거다	-10.6235
한다믄	-10.6236
그든	-10.6237
뼈	-10.6239
▁선풍기	-10.6239
▁가르치	-10.6239
▁후회하	-10.6239
▁환전해	-10.624
▁아이폰	-10.6241
▁반대쪽	-10.6241
▁미안타	-10.6242
▁리스트	-10.6243
▁있대	-10.6243
▁더욱더	-10.6243
▁다니고	-10.6244
▁금연	-10.6245
▁왜냐	-10.6247
되는데	-10.6249
▁줄여	-10.625
▁소문	-10.6251
▁이쁜	-10.6252
▁몰랐다	-10.6253
▁기다리셔야	-10.6255
▁편안한	-10.6256
짐	-10.6259
▁상영	-10.6261
▁명세	-10.6261
▁미소	-10.6265
▁일행이	-10.6268
▁거여라	-10.6274
▁주위	-10.6277
▁상품으로	-10.6277
▁겁	-10.6279
▁끝까	-10.628
▁동생은	-10.6281
▁멤버	-10.6282
▁전날	-10.6282
▁사인	-10.6286
었나요	-10.6294
▁생각했던	-10.6299
▁가족이랑	-10.63
▁없었어예	-10.6301
▁사진으로	-10.631
▁종이에	-10.6311
▁택시비	-10.6311
▁사람입니더	-10.6311
▁했으면	-10.6315
하재이	-10.6319
들이랑	-10.6323
▁뭐든	-10.6324
▁맞았	-10.6327
▁끝내고	-10.6328
▁퇴근하고	-10.6329
▁가능할까	-10.6334
▁사람과	-10.6338
했다이가	-10.634
ro	-10.6341
▁먹어요	-10.6344
▁통로	-10.6344
▁준비해야	-10.6346
▁볼게예	-10.6359
나요잉	-10.636
▁이제부터	-10.6361
▁공연이	-10.6363
▁노는	-10.6367
▁봐라	-10.6375
으세요	-10.6377
해주시는	-10.6379
▁싶지만	-10.6382
▁입맛에	-10.6387
▁걸린	-10.639
▁자랑	-10.6395
▁영양	-10.6398
깄	-10.6399
릭	-10.64
덴	-10.64
▁가벼운	-10.64
▁선글라스	-10.64
▁인스타그램	-10.64
벘	-10.64
▁논문	-10.6401
▁볶음밥	-10.6401
▁운송	-10.6401
▁용돈	-10.6401
▁평범	-10.6401
▁도시락	-10.6404
▁슬프	-10.6404
km	-10.6404
▁보이네요	-10.6406
▁가져왔	-10.6406
▁글씨	-10.6409
낸	-10.641
▁알겠십니더	-10.6412
▁느끼고	-10.6416
▁좋아하기	-10.6416
▁마래이	-10.6416
▁바랄게	-10.6418
▁조금씩	-10.6419
▁대출	-10.642
▁드세요	-10.6423
얼	-10.6424
▁받았습니더	-10.6425
▁배경으로	-10.6429
▁c	-10.643
▁은행에	-10.6431
군예	-10.6434
▁되네요	-10.6434
▁이해하기	-10.6438
▁고라믄	-10.6444
▁않을까요	-10.6449
▁노트	-10.6449
▁파이	-10.645
▁가보자	-10.6452
▁달라꼬	-10.6454
▁미안하다	-10.6455
▁막상	-10.6456
▁찾아오	-10.6458
▁말해주이소	-10.6459
▁70	-10.6459
▁방문할	-10.6459
▁아프고	-10.6464
▁예정인데	-10.6464
▁서비스로	-10.6468
르고	-10.647
달에	-10.6473
▁좋겄	-10.6475
▁놓을	-10.6489
▁행복할	-10.6492
▁않네요	-10.6493
▁$	-10.6494
▁하이	-10.6496
▁않네예	-10.6496
▁그림이	-10.6505
▁수속	-10.6508
율	-10.6516
카든데	-10.6516
▁형태	-10.6525
▁싶다고	-10.6532
▁다녀	-10.6533
▁경찰이	-10.6536
▁진행해	-10.6537
▁없다면	-10.6547
▁문자로	-10.6553
▁하루만	-10.6559
빙	-10.6561
▁장기	-10.6563
좌	-10.6563
짱	-10.6564
▁채식주의자	-10.6564
▁할아버지	-10.6564
씹	-10.6564
▁컬러	-10.6565
▁튀김	-10.6565
▁상태로	-10.6565
▁단골	-10.6566
▁면세품	-10.6567
▁‘	-10.6567
▁우찌	-10.6568
함이	-10.6568
느냐	-10.6569
▁걸립니다	-10.657
▁처방해	-10.6574
▁로비에	-10.6575
▁경찰서에	-10.6575
▁얘기하는	-10.6575
▁외부	-10.658
▁포장이	-10.6584
▁부른	-10.6584
▁지역에	-10.6585
▁남동생	-10.6586
50	-10.6586
역까지	-10.6586
▁육수	-10.6587
▁통해서	-10.659
▁주문할게요	-10.6596
▁좋지만	-10.6598
▁것인지	-10.6598
사진	-10.6599
▁오븐	-10.6603
사항	-10.6604
▁귀찮게	-10.6604
▁다행이다	-10.6605
▁용량	-10.6608
▁묵자	-10.6614
▁대단하다	-10.6618
▁촬영이	-10.6623
▁손님들	-10.6628
▁거제	-10.6629
▁열리는	-10.6629
▁옷들	-10.663
▁나왔어요	-10.6632
느	-10.6637
▁피우	-10.6641
▁나가면	-10.6642
▁갑다	-10.6647
▁찾겠	-10.6648
▁떡	-10.6649
▁크고	-10.6649
▁싶네요	-10.6659
▁이야기해	-10.6659
▁채로	-10.6662
로운	-10.6662
▁문의해	-10.6666
▁했잖아	-10.6675
▁f	-10.6675
▁졸업하고	-10.6676
▁세탁기	-10.6679
집이	-10.6681
▁80	-10.6685
▁끝이	-10.6695
▁여기까지	-10.6695
▁카페가	-10.6696
▁땅	-10.6697
▁견적	-10.6698
30	-10.6699
회가	-10.6705
았습니다	-10.6713
려고요	-10.6715
▁색으로	-10.6716
▁만들기	-10.6716
▁카던데	-10.6718
▁갑니꺼	-10.672
촌	-10.6722
▁말해줘	-10.6723
섭	-10.6727
▁넘었	-10.6728
▁확인이	-10.6728
▁코너에	-10.673
▁늦잠	-10.6731
▁월드컵	-10.6731
▁유튜브	-10.6731
▁잊고	-10.6731
▁펌웨어	-10.6731
▁확정	-10.6731
▁면허증	-10.6732
▁죄송하지먼	-10.6732
▁토론	-10.6733
▁만남	-10.6733
▁카드라	-10.6734
▁보람	-10.6736
▁채워	-10.6737
켜	-10.6738
▁같던데	-10.6741
▁영화관	-10.6741
혀서	-10.6744
말고	-10.6744
▁띄	-10.6744
▁요곳	-10.6745
▁발음	-10.6747
▁주십시오	-10.6748
▁길거리	-10.6749
▁낳	-10.6752
▁복사	-10.6755
그든예	-10.6755
us	-10.6755
▁무야	-10.6758
▁대단한	-10.6761
페	-10.6762
▁더워서	-10.6764
육	-10.6764
▁좋아합니데이	-10.6767
▁있는데예	-10.677
받고	-10.677
▁즌	-10.6772
▁해본	-10.6783
▁흐	-10.6789
▁사실이	-10.6791
시겠어요	-10.6793
▁되도록	-10.6794
▁가만	-10.6799
학기	-10.68
▁해보는	-10.6801
▁같아서요	-10.6807
▁깨끗하	-10.6807
▁모르겠어예	-10.6812
▁데가	-10.6814
▁같으니	-10.6815
▁지하철에서	-10.6819
▁뭐라	-10.6826
▁만나면	-10.6834
▁모르겠네요	-10.6838
▁여부	-10.684
▁입는	-10.6842
▁쓰시	-10.6843
랄	-10.6855
▁단점	-10.6855
▁전달해	-10.6856
▁섬	-10.6871
소리	-10.6872
▁상태를	-10.6872
▁입구에	-10.6877
▁취소해	-10.688
▁피곤한	-10.6881
▁대학원	-10.6881
▁그러니	-10.6883
▁되가꼬	-10.6883
일로	-10.6884
시장	-10.6887
▁넘어가	-10.6895
▁흔들	-10.6896
봅	-10.69
샤	-10.69
컴	-10.6901
▁그렇죠	-10.6901
▁닫아	-10.6901
▁읽으	-10.6901
깃	-10.6901
밨	-10.6901
▁흘러	-10.6901
률	-10.6901
▁혜택	-10.6901
▁무언가	-10.6901
▁인도	-10.6901
▁겁니데이	-10.6901
▁까먹	-10.6902
▁경쟁	-10.6902
▁동작	-10.6906
▁자극	-10.6908
▁소설	-10.6909
▁데려다	-10.691
할까요	-10.6911
▁마음으로	-10.6912
변	-10.6915
ou	-10.6916
▁페이지	-10.692
▁그라는	-10.6921
하쇼잉	-10.6932
▁모르니까	-10.6933
▁제외하고	-10.6934
▁들었습니더	-10.6937
▁아니다	-10.6939
▁올게요	-10.6941
▁기업	-10.6946
년간	-10.6946
실로	-10.6948
▁넣었	-10.6953
▁현지	-10.6956
▁아픈데	-10.6956
▁잊어	-10.6959
▁하다가	-10.696
되기	-10.6962
▁일상	-10.6962
▁적에	-10.6972
▁좋네요	-10.6973
▁잘하지	-10.6975
▁먹는데	-10.6976
▁있다니	-10.698
▁유아	-10.6984
으려고	-10.6984
▁꿈이	-10.6986
▁없노	-10.6988
▁나간	-10.6989
12	-10.6993
▁하나가	-10.6994
▁않았어예	-10.6994
었습니데이	-10.6997
▁바구니에	-10.6997
▁박물관에	-10.7003
▁관해서	-10.7006
▁지워	-10.7007
▁신발이	-10.7008
▁것이라고	-10.701
▁기다리면	-10.7015
▁계속해서	-10.7016
▁기차역	-10.7017
▁화장품을	-10.7018
▁해소	-10.7019
▁되길	-10.7019
▁좁	-10.7024
▁취해	-10.7024
▁보믄서	-10.704
▁주문하시	-10.7043
▁싶으신	-10.705
랑께	-10.7054
▁배경	-10.7057
▁식품	-10.7065
▁태어났	-10.7073
▁패션	-10.7073
봅시다	-10.7073
▁텐디	-10.7073
▁아이템	-10.7073
▁식탁	-10.7074
▁돈가스	-10.7075
▁처방전	-10.7076
▁로션	-10.7076
▁비밀	-10.708
▁손목	-10.7081
▁출신	-10.7083
▁왜냐믄	-10.7083
▁사라졌	-10.7084
▁인연	-10.7085
▁조카	-10.7086
▁을매	-10.7086
▁존경하는	-10.7091
▁쉬워	-10.7091
▁맞고	-10.7091
▁추천해주세요	-10.7101
늘	-10.7102
▁머무르	-10.7106
▁나오는데	-10.7109
▁추억이	-10.7109
▁있었는디	-10.7111
▁바란다	-10.7111
▁없는지	-10.7116
▁불량	-10.7116
필	-10.7117
끄	-10.7117
익	-10.7118
▁기야	-10.7118
▁당시	-10.7119
▁애들이	-10.7119
겁니꺼	-10.7123
▁주인공이	-10.7133
▁없다꼬	-10.7135
▁소주	-10.7146
▁갈게예	-10.7148
운동	-10.7153
▁치고	-10.7172
▁더워	-10.7172
▁힘들게	-10.718
신데	-10.7184
▁좋을까	-10.7185
▁있네	-10.7185
하긴	-10.7187
▁지나면	-10.7187
▁저쪽에	-10.7188
▁날은	-10.7189
▁개수	-10.719
▁"	-10.7197
▁집에스	-10.7197
더라고예	-10.7206
▁한국어로	-10.721
▁준비한	-10.7211
ch	-10.7215
▁둘러	-10.7215
▁들어오는	-10.7215
▁평일에	-10.7216
▁내고	-10.7218
▁신기	-10.722
해달라고	-10.7223
했다꼬	-10.7235
▁도시에서	-10.7242
핑	-10.7245
▁운영하는	-10.7248
셀	-10.7248
▁괴롭	-10.7248
▁디자이너	-10.7248
▁시끄럽	-10.7248
▁완벽하	-10.7248
▁젓가락	-10.7248
▁그카면	-10.7249
▁객실에	-10.7249
▁느낀	-10.725
▁심장	-10.725
▁별도로	-10.725
▁앞머리	-10.725
▁달콤	-10.7251
답니다	-10.7251
하셨어예	-10.7251
▁그랬어	-10.7251
▁어두운	-10.7252
▁엄청난	-10.7253
▁레스토랑에	-10.7256
▁착용해	-10.7256
▁우편	-10.7258
▁맛난	-10.7258
▁소재	-10.7259
▁맡길	-10.7263
▁내려야	-10.7263
▁엉	-10.7267
▁발이	-10.7268
▁아프다	-10.7271
▁모르지만	-10.7276
▁집안일	-10.7276
▁써서	-10.728
▁않았으면	-10.7281
▁맞습니더	-10.7286
▁드라마에	-10.729
죽	-10.7291
겠니	-10.7292
인데예	-10.7298
▁들어가지	-10.7298
▁성공할	-10.7299
삼	-10.7301
김	-10.7303
되어서	-10.7303
또	-10.7303
▁역이	-10.7308
▁알았어요	-10.7312
▁뷔	-10.7312
아가꼬	-10.7314
▁구비	-10.7317
▁그러믄	-10.7319
▁쓰기	-10.7325
▁난다	-10.7329
▁않을까예	-10.733
▁날씨에	-10.7334
▁늘어나	-10.7335
▁곰	-10.7335
▁이미지	-10.7339
▁탐	-10.734
일까	-10.7341
▁받았습니다	-10.7347
▁하네	-10.7348
▁봐서	-10.7349
▁났어요	-10.7351
▁익숙해	-10.7351
▁여보	-10.7352
▁저렴	-10.7353
▁중이라예	-10.7353
▁걸어야	-10.7354
▁셋	-10.7356
▁인터넷에	-10.7357
▁그렇다	-10.7359
▁쓰면	-10.736
▁멀지	-10.7368
▁어떤가요	-10.7369
소한	-10.7372
봐요	-10.7381
▁말했어요	-10.7386
웠어요	-10.7389
▁만지	-10.7389
▁윤	-10.7396
▁무면	-10.7396
▁달라서	-10.7399
▁계산할	-10.7416
▁가봐야	-10.7418
▁좋아했	-10.7419
▁분들은	-10.7424
▁시끄러	-10.7425
하시야	-10.7425
▁다이어트에	-10.7425
q	-10.7426
▁볶음	-10.7426
잭	-10.7427
▁섞어	-10.7427
▁안전벨트	-10.7427
▁어제저녁	-10.7427
▁여름방학	-10.7427
▁필라테스	-10.7427
읍	-10.7427
핏	-10.7427
▁범죄	-10.7427
괄	-10.7427
▁가운데	-10.7427
▁블록	-10.7427
▁델꼬	-10.7427
▁인쇄	-10.7427
▁잔뜩	-10.7428
▁불쾌	-10.7429
▁아름다워	-10.7429
하하하	-10.7429
▁가져갈	-10.743
▁취급	-10.743
▁풍부	-10.7431
▁도망	-10.7431
▁돌아갈	-10.7432
▁종료	-10.7432
▁영양제	-10.7433
▁양말	-10.7433
▁경유	-10.7433
▁구글	-10.7434
▁집안	-10.7435
▁흉	-10.7436
▁소포	-10.7436
▁찾으시는	-10.7436
▁지루하	-10.7437
▁근력	-10.7437
▁영향	-10.7438
드립니데이	-10.7439
▁자격	-10.7441
▁미루	-10.7443
▁같아가꼬	-10.7444
▁한국말	-10.7447
▁좋십니더	-10.7449
▁외국인들	-10.745
▁받으실	-10.745
▁찍었	-10.7451
▁시원하	-10.7452
▁교정	-10.7454
▁구워	-10.7459
▁배우들	-10.7465
으로써	-10.7469
▁좋았어	-10.7472
▁막히	-10.7475
▁보이까	-10.7476
▁정식	-10.7476
▁좋노	-10.7478
▁역까지	-10.748
▁같으	-10.7481
▁아동	-10.7482
▁경우는	-10.7488
해보이소	-10.75
았어예	-10.7502
▁센터	-10.7506
▁마지막에	-10.7507
이었어예	-10.7512
▁고수	-10.7514
▁세우	-10.7516
▁흔들리	-10.7516
▁수입	-10.7522
▁하나랑	-10.7527
▁기운	-10.7534
▁효과적	-10.7536
▁서울역	-10.7539
▁여행할	-10.7539
▁아끼	-10.7545
▁됐는데	-10.7548
이여라	-10.755
▁위험한	-10.7571
▁나에	-10.7583
▁사용한	-10.7585
▁학원에	-10.7586
▁나옵니	-10.7587
▁기구	-10.7594
슴	-10.7596
립니다	-10.7601
▁도서	-10.7603
▁w	-10.7603
냐고	-10.7606
▁스타벅스	-10.7609
▁싱가포르	-10.7609
▁테레비	-10.7609
▁흘리	-10.7609
▁섭취	-10.7609
▁스위스	-10.7609
▁올라오	-10.7609
▁학기에	-10.7611
▁새롭	-10.7612
혔습니다잉	-10.7612
▁죄송하	-10.7612
▁기다려주시면	-10.7614
▁우짜노	-10.7615
▁어묵	-10.7615
▁한디	-10.7616
▁회식	-10.7617
▁싶습니데이	-10.7617
▁있다카이	-10.7618
▁일정에	-10.7625
▁좋겄어예	-10.7627
▁선생님께	-10.7629
었다고	-10.7633
대요	-10.764
▁그라제	-10.7641
▁아쉽다	-10.7646
▁학과	-10.7646
▁모르겠네예	-10.7648
▁중이다	-10.765
▁그렇다고	-10.7652
▁상해	-10.7652
▁혀요잉	-10.7655
▁남자친구랑	-10.7656
▁자야	-10.7662
▁오자	-10.7662
▁상의	-10.7662
▁않았을	-10.7662
겠지예	-10.7663
▁클럽	-10.7666
공원	-10.7669
▁건강하게	-10.7671
▁거리에	-10.7672
▁하셔	-10.7673
▁검색해	-10.7676
달라	-10.7676
▁맞지예	-10.7677
졌습니더	-10.7677
▁불가능한	-10.7678
▁안부	-10.7682
▁정리해	-10.7686
▁Y	-10.7686
▁스타	-10.7692
▁고기가	-10.7694
▁아니지만	-10.7696
드리겄습니다잉	-10.7696
▁사랑한다	-10.7697
▁평일	-10.7702
▁뭐고	-10.7704
했으니까	-10.7706
▁뒤쪽	-10.7708
▁소요	-10.771
▁의자를	-10.7716
보단	-10.7731
▁가나요	-10.7747
▁복도	-10.7747
▁결혼한	-10.7751
▁일어나서	-10.7754
뻔	-10.7754
▁마시면	-10.7755
쓰요	-10.7756
줍니	-10.7758
▁변경이	-10.7771
▁있는데요	-10.7775
▁존경	-10.7777
▁진행되는	-10.7778
▁운동장	-10.7784
들끼리	-10.779
▁배송해	-10.7793
엘	-10.7794
퀴	-10.7794
▁김치찌개	-10.7794
▁늦으	-10.7794
▁뱅기	-10.7794
▁옮길	-10.7794
▁잃어버린	-10.7794
빗	-10.7794
▁러시아	-10.7794
▁변호사	-10.7794
▁청바지	-10.7794
▁극복	-10.7794
▁불구하고	-10.7794
▁때때로	-10.7795
▁손톱	-10.7795
▁2017	-10.7796
▁놀이터	-10.7796
▁주부터	-10.7796
랜드	-10.7798
mL	-10.7799
▁돌아다니	-10.7799
▁신제품	-10.7799
▁메모	-10.7799
▁피로	-10.7799
▁즉석	-10.78
▁도와드릴게예	-10.78
▁연말	-10.78
▁설마	-10.7801
▁가능합니데이	-10.7803
▁무엇입니까	-10.7804
▁미안합니다	-10.7807
▁진학	-10.7808
▁전번에	-10.7809
▁회신	-10.781
▁반가웠	-10.781
분쯤	-10.7813
▁어떨까예	-10.7814
▁보통은	-10.7814
나마	-10.7814
▁공부해야	-10.7818
▁의미가	-10.782
▁쪽에서	-10.782
▁머리카락이	-10.7821
▁봤는디	-10.7821
▁유용	-10.7825
틀	-10.7828
▁어렵습니더	-10.7828
▁안된다	-10.7828
▁병동	-10.783
▁어딘지	-10.7833
▁조심해	-10.7834
▁리더	-10.7859
▁때문이야	-10.786
▁서점	-10.786
▁먹었는데	-10.7861
▁싶어서요	-10.7864
▁화상	-10.7864
▁요걸	-10.7866
▁말해도	-10.7868
▁부어	-10.787
트리	-10.787
볼게예	-10.7875
▁나타	-10.7876
▁해결해	-10.7877
▁원합니더	-10.7878
▁증가	-10.7879
신다면	-10.7888
▁콩	-10.7891
▁버스로	-10.7893
할때	-10.7895
▁말하기	-10.7895
▁이루어	-10.7897
▁못했습니다	-10.7898
▁확인해야	-10.7902
받아	-10.7903
으신	-10.7906
▁못해요	-10.7908
▁구하기	-10.7914
▁있겄	-10.7915
▁내린	-10.7924
▁선물할	-10.7924
▁클럽에	-10.7925
▁데로	-10.7928
▁사람덜이	-10.7939
▁될까요잉	-10.7944
▁통장	-10.7951
▁뻐스로	-10.7952
▁여긴	-10.7954
▁갈지	-10.7957
▁애기	-10.7966
▁노래가	-10.7971
▁길리	-10.7972
▁될지	-10.7973
짤	-10.7976
깔	-10.7979
했더니	-10.798
럭	-10.7982
▁똑똑한	-10.7983
▁애플리케이션	-10.7983
▁어울린다	-10.7983
▁여쭤봐	-10.7983
▁저렇게	-10.7983
▁캐리어	-10.7983
▁어덴지	-10.7983
▁봅니다	-10.7983
▁봅니더	-10.7983
▁괜찮으신가요	-10.7983
랑가요	-10.7984
▁실제	-10.7984
▁목욕	-10.7985
▁신상품	-10.7985
▁20%	-10.799
같은	-10.7991
끄마	-10.7992
▁외모	-10.7994
▁지나가는	-10.7995
▁실행	-10.7996
▁현대	-10.8002
▁시티	-10.801
겠군요	-10.8014
하려는	-10.8016
▁할라고	-10.8017
▁고파	-10.8017
ce	-10.8019
▁우짜	-10.8026
▁있으니께	-10.8028
하네	-10.803
▁무엇보다	-10.803
▁커트	-10.8035
▁저녁으로	-10.8037
▁어떡하	-10.804
카드	-10.804
▁쓰던	-10.8044
▁유감	-10.8045
▁정해지	-10.8049
▁막혀	-10.8056
터미널	-10.8064
끌	-10.8068
▁수선	-10.8069
▁회의에	-10.8076
▁그라지	-10.8077
▁물론입니다	-10.8078
▁적혀	-10.8078
▁한국서	-10.8079
▁납니더	-10.8084
▁비싼데	-10.8085
▁시설이	-10.8086
▁미국에서	-10.8087
▁숙소에	-10.8091
▁사주	-10.8092
▁응원해	-10.8093
▁묵기	-10.8096
▁보여서	-10.8099
▁공연장	-10.8105
▁못하고	-10.8118
▁비치	-10.812
층이	-10.8126
▁했지	-10.8126
▁입에	-10.814
▁싶어가꼬	-10.8147
▁텐데요	-10.8151
▁고만	-10.8153
▁입어야	-10.8154
했어라	-10.8157
▁묵어	-10.8165
▁이용하면	-10.817
▁칭구	-10.8174
▁시럽	-10.8174
▁브레이크	-10.8175
▁앉았	-10.8175
▁착륙	-10.8175
▁묻어	-10.8175
▁숟가락	-10.8175
▁시험공부	-10.8175
▁깜박	-10.8175
▁삭제	-10.8175
▁섹시	-10.8175
▁사은품	-10.8175
▁친해지	-10.8176
▁속옷	-10.8176
▁소독	-10.8177
▁점검	-10.8177
하우스	-10.8177
십니데이	-10.8177
▁요리사	-10.8177
▁복근	-10.8178
▁떠날	-10.8179
▁입장권	-10.818
▁아쉽지만	-10.8182
▁벌금	-10.8183
▁구입하	-10.8183
▁걸릴까요	-10.8184
▁같습니데이	-10.8184
▁불가능합니더	-10.8184
▁소파	-10.8184
▁홍보	-10.8185
▁첫날	-10.8185
▁기차표	-10.8188
,500	-10.8194
▁코드	-10.8195
▁홀	-10.8196
▁장르	-10.82
▁왔십니더	-10.8202
▁두번째	-10.8204
▁서운	-10.8207
▁알겠다	-10.8207
▁바뀌었	-10.821
▁보조	-10.821
▁규정이	-10.8215
▁부탁합니더	-10.8217
▁발급받	-10.8217
▁맞제	-10.8217
▁30,000	-10.8217
▁뜻이	-10.8218
▁지났는데	-10.8224
▁취소해야	-10.8225
▁순간이	-10.8226
▁재미있어	-10.8227
▁사랑에	-10.8228
▁있으신	-10.8229
▁뵈	-10.8233
▁저렴하게	-10.8235
▁노나	-10.8236
▁자정	-10.8241
기간	-10.8244
▁되었어예	-10.8246
골	-10.8259
즉	-10.8265
좀	-10.8266
▁자서	-10.827
▁뒤쪽에	-10.8271
▁있으스	-10.8271
▁편인데	-10.8273
▁휴지	-10.8277
▁유일	-10.828
▁짝	-10.8284
▁날이에요	-10.829
▁하셨는데	-10.8293
▁주문하실	-10.8295
▁시대	-10.8302
▁선적	-10.8303
▁힘들어예	-10.8306
거에요	-10.8312
줘야	-10.8318
▁늘어	-10.8319
▁중심	-10.8319
▁들으면	-10.8327
▁전화기	-10.8327
▁작품이	-10.8328
▁상처를	-10.833
▁보입니다	-10.8335
▁운전할	-10.8335
▁다르다	-10.8339
▁바르는	-10.8339
▁해봐	-10.8348
▁가시나	-10.8352
▁좋겄다	-10.8359
자들이	-10.836
▁건물에	-10.8366
챙	-10.8369
▁열차는	-10.8371
컬	-10.8371
틴	-10.8371
▁버스정류장	-10.8371
▁특이한	-10.8371
랩	-10.8371
▁중학생	-10.8371
▁일어날	-10.8371
▁그남자	-10.8371
▁어려움	-10.8372
▁설탕	-10.8373
▁종합	-10.8374
▁모르는데	-10.8375
▁쓰레기통	-10.8375
▁괜찮으세요	-10.8377
▁마침내	-10.8377
▁카레	-10.8381
▁커버	-10.8381
▁불어	-10.8382
▁계세요	-10.8383
▁동일	-10.8385
▁후로	-10.8386
▁있으며	-10.8388
▁양식	-10.8391
▁계산서	-10.8393
있어요	-10.8401
▁위해가꼬	-10.8401
납니더	-10.8403
▁미래에	-10.8404
▁구운	-10.8404
▁기다리시면	-10.8408
▁을마나	-10.841
▁신용	-10.841
▁여분	-10.8418
▁가능하고	-10.8421
▁청소기	-10.8424
▁아입니꺼	-10.8429
▁알려드리	-10.8431
▁많습니더	-10.8437
▁압니	-10.8437
였습니다	-10.8439
▁일행	-10.844
▁일케	-10.8441
▁듯한	-10.8442
▁통해가	-10.8446
▁하믄서	-10.8453
▁된다믄	-10.8453
었십니더	-10.8456
▁이상하게	-10.8457
▁예쁘고	-10.8458
▁걸린다	-10.8458
▁해주는	-10.8459
▁없잖아	-10.846
쉬	-10.8462
▁거예요잉	-10.8463
악	-10.8466
▁고객이	-10.8466
▁테이블에	-10.847
▁다른데	-10.8472
였데이	-10.8475
동에	-10.8477
▁치는	-10.8482
▁싶고	-10.8485
▁못합니다	-10.8492
람	-10.8499
▁되네예	-10.8502
▁연예인들	-10.8503
▁음식들	-10.851
▁사랑하지	-10.8516
▁해드릴게예	-10.8519
▁냉장고에	-10.8519
▁주문하면	-10.8519
▁있드라	-10.8522
▁지불해	-10.8524
▁예약했	-10.8528
▁대해가꼬	-10.8535
▁나오나요	-10.8535
▁숙소를	-10.854
해봐	-10.8552
▁취소할	-10.8565
▁확인했	-10.8567
▁먹어봐	-10.8569
▁상사	-10.857
솔	-10.8571
+	-10.8571
▁바비큐	-10.8571
▁앨범	-10.8571
▁짬뽕	-10.8571
뿠	-10.8571
▁멈춰	-10.8571
▁팝콘	-10.8571
꼴	-10.8571
▁해열제	-10.8571
▁모바일	-10.8571
▁시리즈	-10.8571
▁댄스	-10.8571
▁칼로리	-10.8571
▁중요합니더	-10.8572
▁장애인	-10.8572
▁외롭	-10.8573
▁아쉬워	-10.8573
▁번거로	-10.8574
하시겠습니까	-10.8574
▁하와이	-10.8577
▁강화	-10.8577
▁알려주시겠어요	-10.858
▁형식	-10.858
▁태도	-10.8581
▁대충	-10.8581
▁어떠노	-10.8583
▁리그	-10.8583
▁멀미	-10.8584
다카드라	-10.8585
▁AS	-10.8586
▁한개	-10.8589
▁눈물	-10.8589
▁규정상	-10.8589
▁버거	-10.859
▁행동이	-10.8593
▁군대	-10.8594
▁니네	-10.8594
▁노래방	-10.8598
▁예정이라예	-10.8604
▁부모	-10.8607
▁기다리주이소	-10.8609
▁경주	-10.861
▁재질	-10.8611
▁돌아와	-10.8612
▁쥐	-10.8612
▁출발할	-10.8613
▁하드라	-10.8616
▁거랑께요	-10.8617
▁하나요잉	-10.8619
▁주시는	-10.8619
▁있다이가	-10.8621
▁""	-10.8623
▁위주	-10.8626
▁주위에	-10.8626
▁동기	-10.8627
있는데	-10.8637
▁싶다는	-10.8641
▁싶었어	-10.8644
▁통증	-10.8644
▁사람들한테	-10.8653
000	-10.8653
▁속에서	-10.8654
▁들어가야	-10.8666
▁해수욕장	-10.867
▁할인받	-10.8672
▁독서	-10.8674
휴	-10.8675
컵	-10.8677
▁솔직하	-10.8677
▁주셔야	-10.8678
▁치아	-10.868
▁달아	-10.868
▁데려	-10.8681
▁오리	-10.8684
▁불안	-10.8684
▁되노	-10.8688
me	-10.8691
▁여자들	-10.8693
▁모르겠네	-10.8699
▁느껴져	-10.8699
▁주소로	-10.8701
▁소식이	-10.8703
▁느끼는	-10.8704
▁위험하	-10.8709
▁말해야	-10.8714
보입시더	-10.8716
▁알려주면	-10.8721
갑네	-10.8722
ss	-10.8726
▁피곤할	-10.8727
왔던	-10.8731
▁능력이	-10.8735
▁거기까지	-10.8736
▁팝니	-10.8739
▁울고	-10.8745
▁주믄	-10.8745
▁털	-10.8746
▁대학생이	-10.8749
▁심하	-10.8749
ir	-10.8751
▁아닙니	-10.8754
마리	-10.8756
▁같드라	-10.8759
스타	-10.8765
례	-10.8767
▁군대에	-10.8767
쾌	-10.8773
싱	-10.8774
핀	-10.8775
칭	-10.8775
▁고속도로	-10.8775
▁모닝콜	-10.8775
▁싫으	-10.8775
▁어쩐지	-10.8775
▁인천공항	-10.8775
▁컨디션	-10.8775
돋	-10.8775
▁눈썹	-10.8775
▁엉망	-10.8776
뚝딱	-10.8776
▁재미없	-10.8776
▁빈자리	-10.8776
▁그중에서	-10.8777
▁확인되	-10.8777
▁나믄	-10.878
▁하루종일	-10.878
▁CD	-10.8781
▁모양이	-10.8782
▁추운	-10.8784
▁어짜	-10.8785
▁실례합니더	-10.8785
▁119	-10.8788
▁늦어지	-10.879
▁그만큼	-10.8791
▁살라꼬	-10.8793
▁이해하지	-10.8796
▁가능하세요	-10.8799
▁가리	-10.88
▁먹으려고	-10.8802
▁보냈어요	-10.8805
▁살피	-10.8807
▁지구	-10.8814
▁그러지	-10.8814
▁않십니더	-10.882
▁나온다	-10.8827
보시겠어요	-10.883
놓은	-10.8834
▁진실	-10.8834
분이나	-10.8837
▁놓은	-10.884
▁대해스	-10.8847
▁쪽이	-10.8856
▁부탁합니다	-10.8862
▁안전한	-10.8863
▁걸려서	-10.8864
▁포함되	-10.8866
▁해외에서	-10.8866
▁매니저	-10.8868
▁예방	-10.8868
▁기간에	-10.8873
▁죄송합니다잉	-10.8877
▁됐어예	-10.8877
겁	-10.888
35	-10.8882
▁호주에	-10.8884
▁사람이랑	-10.8884
▁해주시고	-10.8886
▁힘들고	-10.8891
▁맞죠	-10.8891
갑니다	-10.8893
▁엄마랑	-10.8896
▁버려	-10.8898
▁안타깝	-10.8898
았습니더	-10.8901
▁살아요	-10.8909
헌당께	-10.891
▁해드려	-10.8914
▁손님들이	-10.8916
▁고맙고	-10.8917
▁지난번	-10.8918
▁봉	-10.8921
▁않니	-10.8921
▁없기	-10.8922
낀데	-10.8926
원씩	-10.8928
▁지점	-10.8931
▁해물	-10.8932
▁재미있었	-10.8935
▁알아예	-10.8937
므	-10.8941
▁보려고	-10.8942
▁끝나는	-10.8955
▁중독	-10.8958
줄끼라	-10.896
▁아인데	-10.8965
▁소통	-10.8967
▁않으셔	-10.897
략	-10.898
▁됐어	-10.8982
눌	-10.8982
농	-10.8983
뚝	-10.8983
폴	-10.8983
햄	-10.8983
▁SNS	-10.8983
▁넓어	-10.8983
▁녹차	-10.8983
▁대통령	-10.8983
▁떠오르	-10.8983
▁마카롱	-10.8983
▁몸무게	-10.8983
▁블로그	-10.8983
▁안녕하쇼잉	-10.8983
▁초록색	-10.8983
▁파운데이션	-10.8983
▁여드름	-10.8983
▁롯데	-10.8984
▁운임	-10.8985
▁정수기	-10.8986
▁가능합니까	-10.8986
▁결론	-10.8986
▁사귄	-10.8986
▁대학생	-10.8987
▁싸움	-10.8987
▁언제든	-10.8987
▁설레	-10.8987
▁단추	-10.8989
▁선배	-10.899
▁포크	-10.8992
▁위반	-10.8994
▁다가오	-10.8998
▁그러시면	-10.9001
▁드이소	-10.9002
▁가격표	-10.9004
sh	-10.9005
▁구체적으로	-10.9006
▁톰	-10.9007
▁인식	-10.901
▁평소보다	-10.9013
▁레스토랑이	-10.9013
▁기초	-10.9013
▁마시지	-10.9015
▁보여주세요	-10.9017
▁너희들	-10.9018
▁이용하실	-10.9019
▁전원을	-10.902
▁우정	-10.9024
▁귀하	-10.9024
▁저보다	-10.9025
▁떼	-10.9027
▁감사하고	-10.9027
▁어려워요	-10.9027
▁임시	-10.903
▁고객센터	-10.903
▁실례합니다만	-10.9031
▁배차	-10.9035
▁20,000	-10.9035
▁경력	-10.9045
▁마찬가지로	-10.9045
▁도착했어요	-10.9046
▁음주	-10.9048
▁되지만	-10.9052
▁어려웠	-10.9055
▁수박	-10.906
▁경우에	-10.906
▁퇴원하	-10.9066
▁아세요	-10.9068
▁유물	-10.907
▁필기	-10.9071
▁고걸	-10.9072
▁가겠습니다	-10.9081
▁들러	-10.9083
▁상점	-10.9087
해드리겠십니더	-10.909
▁대화할	-10.909
▁여동생이	-10.9091
▁전자	-10.9093
▁장만	-10.9096
왔는데	-10.9099
▁편입니더	-10.9101
X	-10.9105
Y	-10.9106
으니께	-10.9109
▁핸드폰으로	-10.9111
▁행운	-10.9123
▁했노	-10.9125
▁보신	-10.9125
▁지치	-10.9126
▁거잖아	-10.9134
▁표정	-10.9138
▁구경하	-10.9146
바라	-10.9149
했노	-10.9158
▁50,000	-10.916
▁대사	-10.916
▁머리카락	-10.9165
▁알지만	-10.9167
하입시더	-10.9169
▁많다고	-10.9173
▁보였어	-10.9173
▁가볼	-10.9173
▁소년	-10.9177
호실	-10.9179
▁김에	-10.918
▁추천해주	-10.9182
▁어떨까	-10.9185
버릴	-10.9186
시겠어예	-10.9189
쁠	-10.9193
▁보기에	-10.9194
▁넣을	-10.9194
밴	-10.9196
▁FedEx	-10.9196
▁놀랍	-10.9196
▁딸내미	-10.9196
▁블라우스	-10.9196
▁콧물	-10.9196
▁할아부지	-10.9196
▁헷갈리	-10.9196
띠	-10.9196
툴	-10.9196
▁배고프	-10.9196
▁아깝	-10.9196
▁사우나	-10.9196
▁갑니데이	-10.9198
▁잔돈	-10.9199
▁휴무	-10.92
▁신중하	-10.9201
시겄	-10.9204
▁들어예	-10.9207
▁비닐	-10.9207
▁생각이야	-10.9212
▁뜨거	-10.9213
▁있으십니꺼	-10.9215
▁올게예	-10.9225
▁보내주실	-10.9227
▁맛볼	-10.9228
▁생각하노	-10.9237
▁했었는데	-10.9238
▁물어보자	-10.9239
병원	-10.9243
▁동일한	-10.9248
▁노력하고	-10.9254
▁않았습니더	-10.9255
▁가수가	-10.9257
▁맛나	-10.9257
▁아파예	-10.9259
해주시고	-10.9263
▁내한티	-10.9266
▁그란지	-10.9269
▁작동이	-10.9275
▁고프	-10.928
드라고요	-10.9281
▁조명	-10.9284
▁좋아해예	-10.9289
▁긴지	-10.9293
▁가지다	-10.9298
▁세트에	-10.9298
▁고대로	-10.93
▁미안하	-10.9302
▁비슷하	-10.9304
▁미만	-10.9311
▁기데이	-10.9313
▁유치원	-10.9316
▁무믄	-10.9317
▁아름다	-10.9317
귀	-10.9321
▁싫어요	-10.9325
옷	-10.9328
까진	-10.9331
크림	-10.9334
▁이번주	-10.9344
▁건너편에	-10.9351
▁사용하면	-10.9354
된다고	-10.9355
▁우짜지	-10.9362
▁공원에서	-10.9365
▁기부	-10.9365
▁취하	-10.9367
랬	-10.9371
▁심각하	-10.9372
▁질문이	-10.9378
▁시도해	-10.9379
▁미치	-10.9382
했으믄	-10.9387
했었다	-10.9392
▁생각했어요	-10.9397
랜	-10.9403
▁부스	-10.9405
▁몬해가	-10.9406
▁운전면허	-10.9413
펀	-10.9414
@	-10.9414
▁데이비드	-10.9414
▁미끄러	-10.9414
▁배드민턴	-10.9414
▁비빔밥	-10.9414
▁스트레칭	-10.9414
▁잃어버리	-10.9414
헨	-10.9414
샷	-10.9414
셈	-10.9414
▁내일모레	-10.9414
▁농담	-10.9414
▁오징어	-10.9414
▁케이블	-10.9414
▁소비자	-10.9414
▁어떡해	-10.9414
▁으뜬	-10.9414
▁카톡	-10.9414
▁복싱	-10.9415
▁채팅	-10.9415
▁학습	-10.9416
▁과외	-10.9417
▁첫째	-10.9419
▁반송	-10.9419
▁궁금합니더	-10.9421
▁울산	-10.9423
▁회화	-10.9423
▁탑	-10.9424
▁캡	-10.9424
▁다릅니더	-10.9424
▁욕심	-10.9424
▁안되는	-10.9425
▁만나요	-10.9426
▁빠질	-10.9427
▁음마	-10.9429
▁유료	-10.9429
▁헐	-10.9431
▁학교까지	-10.9434
▁향기	-10.9435
▁사이드	-10.9439
▁글타	-10.9439
▁부품	-10.944
▁종점	-10.9442
▁일으	-10.9446
▁나름	-10.9447
▁진행할	-10.9449
▁자라	-10.945
▁흰	-10.945
▁원두	-10.945
▁봤나	-10.9451
▁맞은	-10.9453
▁필요합니데이	-10.9453
▁진료비	-10.9455
▁수정할	-10.9457
▁상한	-10.9462
▁의자에	-10.9464
▁북한	-10.9465
▁편안	-10.9469
▁막히는	-10.947
▁아이들은	-10.9471
▁인생에	-10.9474
▁계산하고	-10.9475
▁여까지	-10.9476
하셨던	-10.9477
▁누르면	-10.9486
▁가자고	-10.9493
▁봤어예	-10.9496
▁깊이	-10.9497
▁여러분들	-10.9499
▁가루	-10.9507
▁가을에	-10.9511
▁정오	-10.9514
▁축하한다	-10.9516
으몬	-10.9519
▁미니	-10.9522
▁열리	-10.9523
▁성분이	-10.9524
▁찾아야	-10.9527
▁들여	-10.9529
ca	-10.9536
▁사정	-10.9537
있어서	-10.9537
접	-10.9553
암	-10.9557
빈	-10.9557
당한	-10.9567
▁장비	-10.9569
▁아니니	-10.9576
▁기쁘다	-10.958
음식	-10.9582
▁감정이	-10.959
▁잠깐만	-10.9591
▁생각하면	-10.9592
겠데이	-10.9597
▁완료되었	-10.9605
그나	-10.961
있습니더	-10.9611
▁어째	-10.9618
▁달리기	-10.9622
▁포장지	-10.9626
▁찾아왔	-10.9626
▁갈비	-10.9629
혹	-10.9633
▁없었습니다	-10.9635
땜	-10.9635
죄	-10.9636
▁부끄러	-10.9636
▁읽기	-10.9636
롱	-10.9636
▁블랙	-10.9636
▁함부로	-10.9636
▁그라게	-10.9637
갈비	-10.9637
▁알러지	-10.9637
▁물론이죠	-10.9637
▁파악	-10.9638
▁혹은	-10.9639
▁절반	-10.9642
▁부탁드릴게요	-10.9643
▁로비	-10.9646
▁공급	-10.9647
더군요	-10.965
미처	-10.9652
▁친절하게	-10.9657
▁결심	-10.966
▁없습니데이	-10.9661
▁그린	-10.967
▁들었나	-10.9673
▁추천합니더	-10.9675
▁해주고	-10.9676
다카면	-10.9676
▁승인	-10.9677
▁최소한	-10.9679
▁경찰에	-10.9683
▁부탁할	-10.9686
공학	-10.9687
하제이	-10.9699
▁부부	-10.9703
▁봉지	-10.9705
▁잠시만요	-10.9705
▁진지하	-10.9714
▁베개	-10.9717
▁구매하는	-10.9717
하께예	-10.9721
▁조용	-10.9724
왔어요	-10.9725
de	-10.9728
ing	-10.9729
▁X	-10.9732
▁익숙	-10.9733
▁참여하	-10.9733
▁보내줄게	-10.9735
▁무사	-10.9749
▁대비	-10.9756
▁가능하다	-10.9768
▁구조	-10.9774
▁가시가	-10.9775
▁아닐	-10.9776
순	-10.978
▁이쪽에	-10.9781
▁운전해	-10.9794
▁판매하는	-10.9797
▁친구야	-10.9799
▁있제	-10.98
결제	-10.9801
▁벗어	-10.981
영이	-10.9811
▁갈라고	-10.9813
▁하기에	-10.9815
▁문서	-10.9821
▁받았다	-10.9829
▁살라고	-10.983
▁몰랐어요	-10.9842
▁않데이	-10.9842
▁오니까	-10.9844
▁샵	-10.9853
낭	-10.9859
픈데	-10.9861
훈	-10.9863
·	-10.9863
▁낮잠	-10.9863
▁뒷자리	-10.9863
▁러닝머신	-10.9863
▁스페셜	-10.9863
▁피드백	-10.9863
▁햇빛	-10.9863
잎	-10.9863
▁베이징	-10.9863
닉	-10.9863
▁짜장면	-10.9863
▁디즈니랜드	-10.9863
▁액션	-10.9863
▁범위	-10.9863
룬	-10.9863
▁그카니까	-10.9863
야말로	-10.9864
▁워터	-10.9864
▁리포트	-10.9864
▁적극적	-10.9864
▁트럭	-10.9864
▁맞은편	-10.9864
▁빡시	-10.9864
▁즐거워	-10.9865
▁견인	-10.9865
▁포스터	-10.9865
▁면허	-10.9865
▁태우	-10.9866
▁욕조	-10.9866
랍니꺼	-10.9866
▁소변	-10.9866
▁소풍	-10.9866
▁바쁠	-10.9867
▁유행하	-10.9867
▁비어있	-10.9867
▁도와드릴까요	-10.9867
▁여섯	-10.9868
▁기다리게	-10.987
▁부럽	-10.9872
▁성당	-10.9875
▁야경	-10.9878
▁승진	-10.9881
▁당구	-10.9883
▁든다	-10.9884
▁주문했는디	-10.9885
▁이용해서	-10.9889
▁소모	-10.9889
▁궁	-10.9889
▁좋기	-10.9891
▁감명	-10.9894
▁자리에서	-10.9895
▁요쪽	-10.9896
▁추천해주이소	-10.9898
▁갔습니다	-10.9898
▁조치	-10.9901
▁국수	-10.9903
▁보내주시면	-10.9907
▁알약	-10.9907
었당께요	-10.9915
줬습니더	-10.9917
▁라인	-10.9917
▁누구보다	-10.9921
▁부탁드립니다잉	-10.9921
▁갔데이	-10.9933
▁계약서	-10.9945
었으예	-10.9945
▁요구	-10.9948
▁호수	-10.9959
원인데	-10.9962
▁우주	-10.9969
▁좋아가꼬	-10.9977
▁강남역	-10.9978
▁마련되	-10.9987
▁참치	-10.999
▁듣기로	-10.9992
▁왔데이	-10.9997
▁갈아입	-10.9997
갑다	-11.0001
▁오래전	-11.0004
▁수술이	-11.0006
▁식감	-11.0006
▁제공되는	-11.0012
▁붙어있	-11.0017
깨	-11.0023
▁데려가	-11.0025
빵	-11.0027
▁화나	-11.0039
갖고	-11.0045
▁즌에	-11.0048
▁예정이니	-11.005
▁환불받	-11.0051
▁쓰여있	-11.0051
▁좋아해가꼬	-11.0054
했다면	-11.0056
▁들어가면	-11.006
▁거기에서	-11.0061
▁남동생이	-11.0066
▁기능이	-11.0071
▁차이점	-11.0073
탁	-11.0084
▁초대해	-11.0088
▁모임에	-11.009
▁고렇게	-11.0096
▁끊어	-11.0096
▁낮아	-11.0096
▁뜯어	-11.0096
▁리모컨	-11.0096
▁비스무리	-11.0096
▁싱싱	-11.0096
▁프린터	-11.0096
▁힘듭니더	-11.0096
▁올라갈	-11.0096
▁자연스럽	-11.0097
▁부담스럽	-11.0098
▁구비되어	-11.0098
▁미안합니데이	-11.01
▁창피	-11.01
상품	-11.0101
▁지루해	-11.0102
▁다릅니다	-11.0102
▁실천	-11.0104
▁미안한데	-11.0106
▁필수	-11.0108
▁도난	-11.0113
▁말자	-11.0113
▁물품이	-11.0113
▁많으니	-11.0118
▁치워	-11.0119
▁입맛	-11.0119
▁않습니까	-11.0121
하셨어요	-11.0125
▁도와준	-11.0127
▁받았어예	-11.0141
▁누구한테	-11.0142
해볼게요	-11.0143
▁느리	-11.0147
▁어땠	-11.015
▁벗어나	-11.015
▁좋았어예	-11.0151
▁드신	-11.0154
▁드셔야	-11.0155
▁되었습니더	-11.0164
▁해당하는	-11.0165
▁비워	-11.017
놨는데	-11.0174
▁알겠십니	-11.0176
▁만들어서	-11.0176
▁많으니까	-11.0177
▁$1	-11.0178
▁여그서	-11.0181
▁36	-11.0184
▁꼼꼼	-11.0187
▁예약해야	-11.0191
▁사랑하고	-11.0194
▁피해가	-11.0212
원짜리	-11.0213
버렸어	-11.0216
▁구분	-11.022
▁답이	-11.0228
▁생각하나	-11.0229
▁없습니다잉	-11.023
▁그들에게	-11.0233
▁있겠지	-11.0233
▁놓아	-11.0246
▁귀찮아	-11.0252
▁틈	-11.0256
▁필요하지	-11.0265
▁힘들어서	-11.0267
▁이태원에	-11.0269
▁시작하기	-11.0272
분들께	-11.0272
▁위에서	-11.0275
▁복잡하	-11.0276
▁우덜	-11.0279
하곤	-11.028
▁팬들	-11.0282
▁이해해주	-11.0283
▁사람이라예	-11.0286
▁사이트에	-11.0289
시간이나	-11.0297
▁묵었	-11.0303
▁되겠다	-11.0305
욱	-11.0308
▁27	-11.0317
▁체육	-11.0331
삭	-11.0334
▁마케팅	-11.0334
▁머릿결	-11.0334
▁벚꽃	-11.0334
▁뻐스정류장	-11.0334
▁옆으로	-11.0334
▁자존심	-11.0334
▁클래식	-11.0334
▁탕수육	-11.0334
▁특성	-11.0334
▁특정	-11.0334
쩍	-11.0334
▁죄송한디	-11.0334
▁오사카	-11.0334
▁휴게실	-11.0334
▁관광객들	-11.0334
▁트윈	-11.0334
▁패드	-11.0334
▁농장	-11.0334
▁금융	-11.0335
▁알겠어	-11.0335
▁토핑	-11.0335
▁토익	-11.0335
▁리필	-11.0335
▁다녀온	-11.0335
▁커튼	-11.0336
▁양고기	-11.0336
▁계열	-11.0337
▁접속	-11.0337
▁신호등	-11.0337
▁진열되어	-11.0338
▁공짜	-11.0339
▁감각	-11.034
▁잠들었	-11.034
▁출산	-11.034
▁절약	-11.0341
▁검정	-11.0342
더라꼬예	-11.0342
▁걸어갈	-11.0343
▁물고기	-11.0344
▁날입니더	-11.0347
▁방학이	-11.0349
▁기대되	-11.035
▁편의점이	-11.0354
▁모르겠습니더	-11.0359
▁고백	-11.036
▁공식	-11.0363
▁얼라덜	-11.0364
▁화물	-11.0366
▁전액	-11.0367
▁건축	-11.0368
▁포함해서	-11.037
▁마중	-11.0374
▁다르지만	-11.0374
▁반성	-11.0379
▁않아가꼬	-11.0382
▁해봤는데	-11.0385
▁구매하면	-11.0389
▁문제집	-11.039
▁주세요잉	-11.0397
▁주문하려고	-11.0398
▁싶었어요	-11.0398
▁군인	-11.0399
▁구석	-11.0408
▁영문	-11.0415
▁많기	-11.0416
▁걸어가면	-11.0417
▁오시믄	-11.042
▁개별	-11.0425
▁알았습니다	-11.0429
▁가능합니다잉	-11.043
▁말해주세요	-11.0433
▁나와요	-11.0435
▁유치원에	-11.0442
▁부치	-11.0454
▁괜찮으면	-11.0456
▁파스	-11.0462
▁구경하고	-11.0464
나무	-11.0464
▁가구	-11.0473
▁턱	-11.0475
분한테	-11.0475
▁지식	-11.0475
▁좋아졌	-11.0478
▁술집	-11.0481
▁필요해서	-11.0483
▁공부하기	-11.0485
▁않으니	-11.0487
▁분량	-11.0495
끼야	-11.0498
▁인생에서	-11.05
▁반대편에	-11.0501
해주시가	-11.0502
▁충분하	-11.0509
었으니	-11.0522
꽃	-11.0522
▁추천하고	-11.0524
▁일이에요	-11.0524
▁억수	-11.0536
▁경제	-11.0537
시킬	-11.0546
40	-11.0548
▁있더라	-11.0549
▁서점에	-11.0551
▁지불하	-11.0551
▁웃고	-11.056
이신가요	-11.056
▁우울해	-11.0561
▁들면	-11.0562
▁괜찮았	-11.0563
▁보내주시	-11.0568
렵	-11.0573
해야겠어요	-11.0573
칙	-11.0574
)	-11.0577
멈	-11.0578
램	-11.0578
윗	-11.0578
▁거스름돈	-11.0578
▁그렇긴	-11.0578
▁태어난	-11.0578
놈	-11.0578
▁더러워	-11.0578
▁버섯	-11.0578
▁깔끔	-11.0578
▁되지예	-11.0579
▁투숙	-11.0579
▁관객	-11.0579
▁두통이	-11.058
▁소녀	-11.058
▁귀여워	-11.058
▁납니다	-11.0581
▁프리	-11.0581
▁철저	-11.0582
▁인턴	-11.0582
▁입장료	-11.0584
▁미안합니더	-11.0586
▁가다	-11.0588
▁전문가	-11.059
▁않으시	-11.059
▁있길	-11.0592
▁가시네	-11.0595
▁되었다	-11.0597
▁형제	-11.06
▁보내드릴게예	-11.0604
▁아쉬웠	-11.0607
▁가져와	-11.0607
▁곤란	-11.0607
▁싶기	-11.0609
▁도시에	-11.061
▁아냐	-11.0611
센터	-11.0611
▁보여주이소	-11.0615
율이	-11.0616
하겠십니다	-11.0617
▁고객님께서	-11.0618
▁붓	-11.0628
▁쇼핑센터	-11.063
▁알바	-11.0633
▁추천하는	-11.0636
▁지나치	-11.0637
▁돌봐	-11.0638
▁없었습니더	-11.064
줄게요	-11.0641
▁예약하려고	-11.0645
▁웃기	-11.0651
▁매트	-11.0651
▁좋았다	-11.0652
▁도장	-11.0652
▁놔두	-11.0656
▁지나갔	-11.0657
▁나아지	-11.0666
▁찾아서	-11.0666
과정에서	-11.0671
▁담주	-11.0674
▁부디	-11.068
▁비슷	-11.0684
▁도착하기	-11.0685
▁전보다	-11.0686
▁편의점에서	-11.0687
▁그러다	-11.0689
▁마닐라에	-11.0695
▁모두에게	-11.0697
▁서적	-11.07
▁물감	-11.0702
하세예	-11.071
▁없죠	-11.073
▁있겠다	-11.074
▁받으믄	-11.0747
▁도착하지	-11.0751
▁어떡하지	-11.0753
ay	-11.0754
▁약간의	-11.0756
▁주문해야	-11.0758
녀	-11.076
▁비슷해	-11.0764
▁표정이	-11.0767
되었어요	-11.077
떼	-11.0776
버렸어요	-11.0787
▁좋네	-11.0795
됐어예	-11.0811
끔	-11.0816
껴	-11.0821
▁되잖아	-11.0821
▁발목이	-11.0827
겉	-11.0827
=	-11.0828
>	-11.0828
▁LED	-11.0828
▁게스트하우스	-11.0828
▁그렇습니까	-11.0828
▁기뻐요	-11.0828
▁독특한	-11.0828
▁드레싱	-11.0828
▁뽀로로	-11.0828
▁인테리어	-11.0828
▁텀블러	-11.0828
▁트러블	-11.0828
▁특징	-11.0828
릉	-11.0828
켄	-11.0828
탓	-11.0828
▁떨어뜨	-11.0828
됨	-11.0828
▁항생제	-11.0828
▁서두르	-11.0828
▁응급실	-11.0828
▁조만간	-11.0828
▁얼룩	-11.0828
▁더러운	-11.0828
▁로봇	-11.0828
▁스토리	-11.083
▁이외에	-11.083
▁감사드립니더	-11.0831
▁쇼핑백	-11.0831
▁묵읐	-11.0831
▁다음부터는	-11.0831
▁알다시피	-11.0831
low	-11.0831
▁설계	-11.0832
▁경영	-11.0832
▁미스터	-11.0832
▁어짤	-11.0833
▁간장	-11.0833
▁출동	-11.0834
▁도와드릴까예	-11.0834
▁여태까지	-11.0835
▁다행이에요	-11.0835
▁헤드	-11.0836
▁양파	-11.0837
▁진작	-11.0837
▁감기약	-11.0838
▁불법	-11.0839
▁전쟁	-11.084
▁150	-11.084
▁미안하데이	-11.084
▁일곱	-11.0841
▁입었	-11.0842
▁치약	-11.0842
▁보내드리겠습니다	-11.0842
▁맴에	-11.0843
▁기르	-11.0847
▁맹들	-11.085
▁학생회	-11.0852
▁같으니까	-11.0854
▁전망대	-11.0855
▁회장	-11.0855
▁뺄	-11.0856
▁이용권	-11.0857
▁55	-11.0858
▁설사	-11.0861
▁안내소	-11.0862
▁보내드릴	-11.0863
▁발달	-11.0866
▁아파가꼬	-11.087
▁의사소통	-11.0871
▁강의실	-11.0875
▁생각했어	-11.0876
▁욕실	-11.0879
▁기념일	-11.088
▁슨생님께	-11.0882
▁전국	-11.0883
▁돌려받	-11.0884
▁자식	-11.0894
▁두피	-11.0898
▁제출하	-11.0901
겄습니다잉	-11.0902
▁아이디어	-11.0909
▁시작했어요	-11.0911
▁추워서	-11.0917
으셔야	-11.0918
일까요	-11.0921
▁고려해	-11.0922
▁예뻐서	-11.0923
▁때문이다	-11.093
▁바랍니다잉	-11.093
▁주연	-11.0933
▁없지예	-11.0936
입시더	-11.0938
▁복잡해	-11.0956
▁갈까요	-11.0957
▁돌아가야	-11.0965
▁늦어서	-11.0965
▁배달해	-11.0967
▁도와줘	-11.0974
▁망고	-11.0979
▁드셔도	-11.098
릴까	-11.0985
주시겠	-11.0989
▁걸리는데	-11.0992
▁우리나라에서	-11.0998
하자마자	-11.1003
▁떠났	-11.1007
▁국어	-11.1017
닌	-11.1017
▁마르	-11.1021
▁달라지	-11.1021
▁보내줘	-11.1029
▁운행하	-11.1034
▁상관이	-11.1034
▁요리하는	-11.1036
▁호텔까지	-11.104
맥	-11.1041
푸	-11.1041
▁매력적	-11.1047
▁확인해보니	-11.105
관계	-11.106
곱	-11.107
▁샌프란시스코	-11.1084
▁최신	-11.1084
▁고구마	-11.1084
▁티브이	-11.1084
▁냄시	-11.1085
▁가져다드리겠습니다	-11.1087
▁밤새	-11.1087
▁택배사에	-11.1089
▁정원	-11.1089
▁입어볼	-11.109
▁고맙습니데이	-11.109
▁PC	-11.109
▁아웃	-11.109
냅니더	-11.1091
▁매너	-11.1093
ma	-11.1093
▁연속	-11.1094
▁맞습니까	-11.1096
▁의류	-11.1097
▁앞에스	-11.1097
▁중요해요	-11.1097
▁식물	-11.1098
▁갑네예	-11.1102
▁고객님께	-11.1102
▁찾아갈	-11.1103
▁깨워	-11.1103
▁키워	-11.1104
▁대피	-11.1104
▁보여주시면	-11.1105
▁다녀와	-11.1105
투어	-11.111
▁추천해줄	-11.1111
▁나타나	-11.1111
▁도울	-11.1113
▁같았어	-11.1116
▁걱정했는데	-11.1117
▁벨트	-11.1124
▁방수	-11.1128
▁없십니다	-11.1132
▁90	-11.1138
▁고동안	-11.1147
되었으면	-11.1155
▁고른	-11.1157
▁대중	-11.1158
▁편이에요	-11.1168
▁교사	-11.117
▁그쪽으로	-11.1175
▁나보다	-11.1182
▁잡혀	-11.1186
▁둘이서	-11.1188
▁그녀한테	-11.1189
▁먼지	-11.1221
▁사람인데	-11.1229
▁크다	-11.1229
▁심해서	-11.123
▁샀어	-11.1234
버스	-11.1244
바바	-11.1248
▁불편할	-11.1248
▁사무실에서	-11.1269
▁중요하다	-11.127
▁저렴해	-11.127
테니까	-11.1273
▁그때까지	-11.1273
하시길	-11.1274
▁아니었어	-11.1278
▁대상	-11.128
▁받았어	-11.1285
▁들어가기	-11.1296
▁하든	-11.1297
▁문제점	-11.1302
▁생각해봐	-11.1315
주셔가꼬	-11.1317
즘	-11.134
깁	-11.1342
▁목적	-11.1344
캔	-11.1344
▁지한테	-11.1345
옳	-11.1346
▁겨울방학	-11.1347
▁고렇다	-11.1347
▁끔찍	-11.1347
▁룸메이트	-11.1347
▁믿음	-11.1347
▁부드러운	-11.1347
▁슬리퍼	-11.1347
▁애완동물	-11.1347
▁옵니더	-11.1347
▁칫솔	-11.1347
▁태권도	-11.1347
▁패스트푸드	-11.1347
▁향신료	-11.1347
멘	-11.1347
▁바닐라	-11.1347
▁베이컨	-11.1347
▁에센스	-11.1347
▁줄넘기	-11.1347
▁챔피언	-11.1347
▁훈련	-11.1347
앤	-11.1347
▁모니터	-11.1347
▁보라색	-11.1347
▁에너지	-11.1347
▁부지런	-11.1347
▁진단서	-11.1347
▁샤프	-11.1347
▁어울려	-11.1347
▁축복	-11.1347
▁당첨	-11.1348
▁멋져	-11.1348
▁액체류	-11.1348
엑	-11.1348
qu	-11.1348
▁필름	-11.1348
▁계좌번호	-11.1349
▁부탁드립니데이	-11.135
▁이내로	-11.135
스테	-11.135
▁우짤	-11.1351
▁PT	-11.1351
▁배낭	-11.1351
▁의외	-11.1353
▁모릅니다	-11.1354
▁말씀드려	-11.1355
▁단속	-11.1357
문제	-11.1357
▁체중	-11.1357
▁구름	-11.1358
▁학교생활	-11.1358
▁죽음	-11.1358
▁위생	-11.136
▁단품	-11.136
▁인증	-11.136
▁임신	-11.1362
▁광주	-11.1364
▁만두	-11.1366
▁샀다	-11.1367
▁있었으믄	-11.1372
▁선정	-11.1375
▁도와주세요	-11.1378
▁먹게	-11.138
▁송장	-11.1381
▁바위	-11.1383
▁주의해야	-11.1384
▁투자	-11.1386
시간씩	-11.1395
▁요일	-11.1396
▁모시	-11.1399
▁스트레스받	-11.1399
▁견적서	-11.1401
▁샤워실	-11.1407
▁도착하믄	-11.141
▁외국에	-11.1413
▁나가기	-11.1413
▁금요일까지	-11.1419
▁남들	-11.1421
▁생각하세요	-11.1422
▁모르겠습니다	-11.1425
▁귀사에	-11.143
▁행복해요	-11.1441
▁도구	-11.1444
▁기종	-11.1445
▁짐까지	-11.1445
했어야	-11.1447
▁있었나요	-11.145
▁알아볼	-11.1459
▁걱정돼	-11.1467
▁모른	-11.1473
텐데	-11.1473
▁제주도로	-11.1474
▁싶습니다잉	-11.1484
▁착각했	-11.1487
▁주제로	-11.1489
▁돌보	-11.1494
▁달라요	-11.1498
▁죽기	-11.1498
▁많데이	-11.1503
▁복잡한	-11.1509
▁새로분	-11.1515
▁알제	-11.1519
▁올린	-11.1523
있었	-11.1528
▁보이네	-11.1536
▁본사	-11.1546
▁한잔하	-11.1547
▁상태라	-11.1552
▁어딘	-11.1562
▁되는디	-11.1565
았으면	-11.1567
끝	-11.1568
문학	-11.1569
존	-11.1571
▁전신	-11.1576
▁헤어졌	-11.1578
주시니	-11.1579
▁어린아이	-11.1585
홀	-11.1587
페이지	-11.1588
팔	-11.1589
몇	-11.159
바람	-11.1591
▁사랑받	-11.1595
▁해줄게	-11.1599
▁말아야	-11.1603
있습니다	-11.1609
멋	-11.1611
겹	-11.1617
겸	-11.1618
웰	-11.1618
▁바빴어	-11.1618
▁생일파티	-11.1618
▁세관신고서	-11.1618
▁웨이터	-11.1618
▁파인애플	-11.1618
▁보증금	-11.1618
▁전화드렸	-11.1619
▁레슨	-11.162
ap	-11.162
▁가족끼리	-11.1621
▁자녀	-11.1622
▁감사하겠습니더	-11.1625
▁없애	-11.1629
▁부착	-11.1629
▁사용되	-11.1629
다카던데	-11.1631
▁싶당께요	-11.1637
▁보고싶	-11.1637
▁싶십니다	-11.1638
▁나오기	-11.1641
▁찬성	-11.1642
▁귀신	-11.1643
봐야겠다	-11.1643
▁간직	-11.1645
▁덜어	-11.1648
▁있으시믄	-11.1652
▁아무거나	-11.1654
▁있었는지	-11.1657
▁보관해	-11.1662
▁파이다	-11.1664
▁있음	-11.1666
▁뭐예요	-11.1666
▁맨들어	-11.1669
▁친구들한테	-11.1677
▁났는데	-11.1677
▁생각합니꺼	-11.1679
릴러	-11.168
▁중이데이	-11.1683
IT	-11.1684
▁시내까지	-11.1685
▁바래요	-11.1687
▁인제	-11.1689
▁그러자	-11.1689
▁모으	-11.169
▁배워야	-11.1691
▁연락해주세요	-11.1693
▁키우고	-11.1695
▁참여할	-11.1702
▁생기믄	-11.1709
▁행운이	-11.1719
▁멀리서	-11.1723
▁해드리고	-11.1728
▁의상	-11.1734
▁채우	-11.1736
▁어떠신가	-11.1739
▁사이트에서	-11.1749
▁식기	-11.177
했잖아	-11.1774
▁성공적	-11.178
▁입구에서	-11.178
▁중이라서	-11.1781
▁답답해	-11.1786
▁맛보	-11.1789
업체	-11.18
▁변명	-11.1812
웃	-11.1824
▁나왔던	-11.1844
▁귀사	-11.1848
못	-11.1851
관리	-11.1864
▁나왔다	-11.1864
▁아쉬	-11.1865
▁구체적	-11.1869
뜻	-11.1874
끈	-11.1875
▁가져다드릴	-11.1875
▁깨끗한	-11.188
콤	-11.189
얘	-11.1893
엽	-11.1894
댄	-11.1895
▁스마트	-11.1895
▁핸드	-11.1895
삿	-11.1895
▁갯벌	-11.1895
▁견과류	-11.1895
▁경복궁	-11.1895
▁곁들	-11.1895
▁대한민국	-11.1895
▁살펴보	-11.1895
▁열람실	-11.1895
▁옵션	-11.1895
▁초등학생	-11.1895
▁칵테일	-11.1895
▁파트너	-11.1895
▁펌프	-11.1895
▁협조	-11.1895
듀	-11.1895
썩	-11.1895
첸	-11.1895
컷	-11.1895
쿤	-11.1895
풋	-11.1895
흙	-11.1895
▁녹음	-11.1895
▁놀이기구	-11.1895
퍼센트	-11.1895
▁꽃다발	-11.1895
▁동대문	-11.1895
▁우회전	-11.1895
▁하루하루	-11.1895
▁여기저기	-11.1895
▁공무원	-11.1896
▁벤치	-11.1896
▁슬픈	-11.1896
▁일상생활	-11.1896
▁데뷔	-11.1897
▁감사드립니데이	-11.1897
▁가루약	-11.1897
▁거래처	-11.1897
▁연필	-11.1898
▁파손	-11.1899
▁적립금	-11.1899
▁종목	-11.1901
▁떠난	-11.1901
▁조심하이소	-11.1901
▁당근	-11.1902
▁빌린	-11.1903
▁회색	-11.1903
▁비누	-11.1906
▁동양	-11.1907
▁공격	-11.1907
▁좋아한데이	-11.1909
▁동반	-11.1909
▁귀여	-11.1909
▁나아질	-11.191
▁지낸	-11.1911
▁시합	-11.1913
▁손님께	-11.1914
▁알았는디	-11.1919
▁있겠네요	-11.1919
▁났다	-11.192
▁먹방	-11.192
▁등교	-11.192
▁팩스	-11.1928
OS	-11.1932
▁개강	-11.1934
▁고개를	-11.1934
▁일자리	-11.1938
라니께요	-11.194
▁저짝	-11.1943
▁구매하시면	-11.1946
▁잘나가	-11.1949
▁젤리	-11.1953
▁요구하	-11.1954
▁거라면	-11.1957
▁후식으로	-11.1959
▁주머니에	-11.1963
디릴	-11.1964
▁형태로	-11.1968
▁장치	-11.197
▁신기하	-11.1973
▁조개	-11.1976
▁고소	-11.1977
▁원합니다	-11.198
▁보내세요	-11.1981
재기	-11.1981
▁학생증	-11.1983
▁신기하다	-11.1984
하였는데	-11.1988
▁재밌어	-11.1994
▁어떤가예	-11.1996
해주세예	-11.1999
▁완료되	-11.2
▁차단	-11.2006
▁이것들	-11.2007
▁최선	-11.2009
▁중국인	-11.203
▁잡히	-11.2037
돼가꼬	-11.2042
▁두꺼	-11.2046
▁잡았	-11.2053
▁친척	-11.2057
해드립니더	-11.2062
▁사용하기	-11.2064
▁줘요	-11.2065
▁기지예	-11.2074
▁해내	-11.2074
▁만드	-11.2075
▁사진들	-11.2078
▁급하	-11.208
SA	-11.2087
▁고정	-11.2089
▁풀리	-11.2102
▁다치지	-11.2103
▁갈까예	-11.2106
▁Ma	-11.2109
▁정비	-11.2117
▁환승하는	-11.2121
▁맛있는데	-11.2136
머신	-11.2149
▁의해	-11.2152
▁주말이라	-11.2156
▁조장	-11.216
▁어려운데	-11.2162
99	-11.2166
탑	-11.2167
룰	-11.2179
붕	-11.2179
드라고예	-11.2179
픽	-11.2181
▁Fedex	-11.2181
▁마스카라	-11.2181
▁몸매	-11.2181
▁시켰는데	-11.2181
▁옆자리	-11.2181
▁옆쪽	-11.2181
▁웬만하	-11.2181
덩	-11.2181
륨	-11.2181
쉐	-11.2181
찔	-11.2181
찐	-11.2181
▁누군지	-11.2181
▁재입고	-11.2181
▁마우스	-11.2181
합시더	-11.2181
▁흥미롭	-11.2182
▁하얀	-11.2182
▁매콤	-11.2183
▁없으신가요	-11.2184
▁행님	-11.2185
▁부러워	-11.2187
▁지연되	-11.2188
▁유머	-11.219
▁빈방	-11.219
▁채식	-11.2191
▁놓으	-11.2192
▁담임	-11.2192
▁올래	-11.2197
▁필요해	-11.2198
▁개안십니더	-11.2199
43	-11.2201
▁권장	-11.2207
▁보충	-11.2208
▁구매하려고	-11.2209
▁감소	-11.221
▁고맙습니더	-11.221
▁어디인지	-11.222
▁정품	-11.2223
▁있구나	-11.2229
▁좋아하시는	-11.2235
▁지켜야	-11.2238
하므로	-11.2241
▁가보이소	-11.2246
▁카트	-11.2249
▁확실하지	-11.2251
▁되세요	-11.2254
8,000	-11.2261
답니더	-11.2263
▁된다꼬	-11.2267
끼라예	-11.2267
▁고객들	-11.2268
▁않았나요	-11.2273
▁변경된	-11.2273
▁되겄	-11.2291
▁와주세요	-11.2294
▁많아스	-11.23
▁생겼어	-11.2302
▁아쉽네요	-11.2318
▁가위	-11.232
▁자제	-11.2335
▁넘치	-11.2383
▁긴장되	-11.2391
▁목적이	-11.2398
일간	-11.2406
▁나왔습니다	-11.2415
▁250	-11.2427
▁31	-11.2445
싸	-11.2466
▁예정이라	-11.2469
폰	-11.2469
텔	-11.2472
융	-11.2474
▁패키지	-11.2475
▁어딥니	-11.2475
]	-11.2475
깍	-11.2475
믹	-11.2475
퀸	-11.2475
▁CCTV	-11.2475
▁닮았	-11.2475
▁롯데월드	-11.2475
▁봉사활동	-11.2475
▁스노클링	-11.2475
▁스튜디오	-11.2475
▁신혼여행	-11.2475
▁완즈	-11.2475
▁캘리포니아	-11.2475
▁프런트	-11.2475
▁핫도그	-11.2475
쌈	-11.2475
줏	-11.2475
캣	-11.2475
팟	-11.2475
▁교통수단	-11.2475
▁코미디	-11.2475
▁휴게소	-11.2475
▁적절한	-11.2475
▁공통점	-11.2475
▁라운지	-11.2475
▁핑계	-11.2475
▁다행입니더	-11.2475
▁링크	-11.2475
▁안타깝게도	-11.2475
▁숫자	-11.2475
▁조깅	-11.2476
▁빙수	-11.2476
▁프로필	-11.2476
▁잠실역	-11.2476
▁여유롭	-11.2476
▁받으려	-11.2477
▁주의사항	-11.2477
▁소독약	-11.2477
▁그러므로	-11.2478
▁끝낼	-11.2478
▁염증	-11.2478
랍니더	-11.2478
▁독립	-11.2479
▁하늘색	-11.2479
▁개념	-11.2479
▁같당께	-11.2479
▁유익	-11.2479
▁성분	-11.2479
▁26	-11.248
▁여성복	-11.248
▁바늘	-11.2481
▁무겁	-11.2481
▁100%	-11.2481
▁창업	-11.2482
▁막힌	-11.2482
▁회계	-11.2483
▁글리	-11.2485
▁테이프	-11.2485
▁연설	-11.2486
▁장염	-11.2487
▁탑승권	-11.2488
▁아침밥	-11.2489
▁바탕	-11.249
▁전문점	-11.2491
▁통역	-11.2493
▁연락드리겠습니다	-11.2494
문화	-11.2497
▁불러주세요	-11.2497
▁베드	-11.2498
▁바꿔주세요	-11.2499
▁남산	-11.2501
▁있다아이가	-11.2502
▁찌개	-11.2504
▁25,000	-11.2504
▁나왔어예	-11.2508
▁독감	-11.2509
▁보습	-11.2511
▁부자	-11.2516
▁필요해예	-11.2522
▁찾아보자	-11.2524
▁갔었는데	-11.2529
▁멋있어	-11.2533
▁가보세요	-11.2533
ho	-11.2541
▁사거리	-11.2543
▁궁금합니다	-11.2543
▁예쁘다	-11.2546
▁현지인	-11.2555
▁이태원	-11.2557
▁하다니	-11.2559
▁직진하	-11.2568
▁중식	-11.2573
▁도심	-11.2577
▁보여줄	-11.2579
▁않는다면	-11.258
▁자르고	-11.2585
▁생리	-11.2586
▁아트	-11.2587
▁유명하다	-11.2599
▁아름다웠	-11.26
▁생겼어요	-11.26
▁일어나야	-11.2601
▁제조	-11.2602
▁집중력	-11.2609
▁맞으면	-11.2615
원입니다잉	-11.2625
▁찾아볼게	-11.2627
▁알리주시	-11.263
▁계시면	-11.2634
▁상관없어요	-11.2655
하시예	-11.2659
▁않으니까	-11.2662
▁동물들	-11.2664
▁많았어	-11.2665
▁입원하	-11.2672
▁빌렸	-11.2674
▁소요되	-11.2689
▁추천해주실	-11.2699
▁어땠어	-11.2708
▁장사	-11.2714
▁해석	-11.2719
▁정치	-11.2731
▁조절해	-11.2736
▁처음인데	-11.2736
건데	-11.2759
픈	-11.2761
▁있냐	-11.2767
▁깔끔하	-11.2777
▁어뎁니	-11.2778
▁눌렀	-11.2778
▁내비게이션	-11.2778
꽁	-11.2778
웁	-11.2778
▁튼튼	-11.2778
▁혈액	-11.2778
▁따뜻해	-11.2778
즌	-11.2778
▁뷔페	-11.2779
▁태그	-11.2779
▁겹치	-11.2779
▁올라와	-11.2779
▁말씀드렸	-11.2779
▁까묵	-11.2779
굴	-11.2783
▁끼쳐	-11.2784
쓸	-11.2785
▁않겠나	-11.2785
▁긴급	-11.2786
▁주무시	-11.2788
▁마음속	-11.2788
해드리겠습니더	-11.2789
▁말씀드릴게요	-11.2789
▁알려드릴게요	-11.279
▁때문인	-11.279
▁괜찮으실	-11.2792
▁확실하게	-11.2793
▁받아볼	-11.2794
▁아쉽네예	-11.2795
▁어린이용	-11.2797
▁있겠네예	-11.2797
▁허용	-11.28
▁대량	-11.2801
▁전환	-11.2801
▁받아보	-11.2802
▁신어보	-11.2804
▁원해예	-11.2808
▁환불해주이소	-11.2808
▁개안아	-11.2811
▁대형	-11.2813
▁샀던	-11.2815
었으믄	-11.2818
▁바래	-11.2819
뿐입니다	-11.2822
▁맥히	-11.2824
치료	-11.2826
▁되겠네요	-11.2828
▁나왔습니더	-11.2828
▁문제라도	-11.2829
▁무엇이든	-11.2833
▁나헌테	-11.2838
▁보내주시믄	-11.2838
▁원하시면	-11.2844
▁팔리	-11.2847
▁만들어진	-11.285
▁시키자	-11.285
▁보며	-11.2853
겠는데요	-11.2857
▁화내	-11.2857
▁글치	-11.2857
달라꼬	-11.2859
▁다니면	-11.2862
▁오빠야	-11.2863
줬는데	-11.2872
▁친절하고	-11.2876
▁척하	-11.2883
▁알아들	-11.2883
▁겁니다잉	-11.2883
▁할께예	-11.2884
▁불안해	-11.2886
▁차갑	-11.2887
▁얼마인지	-11.2887
▁알려드릴	-11.2889
▁무보	-11.2892
하시네요	-11.2895
▁오셨나요	-11.2898
▁봐봐	-11.29
▁뭐라꼬	-11.2902
▁배치	-11.2902
▁증거	-11.2904
▁계셔	-11.2904
▁샀어요	-11.2924
▁찾겠어요	-11.2932
마저	-11.2934
▁들어오면	-11.2946
교시	-11.2948
25	-11.2978
▁개성	-11.2989
▁응원하는	-11.3018
▁심각	-11.3029
었거든	-11.3031
▁좋으면	-11.3039
▁괜찮을까	-11.3039
▁나갔다	-11.3044
▁개안나	-11.3045
냄	-11.3089
뉴	-11.3089
▁액체	-11.309
▁셔틀	-11.3091
▁뚱뚱	-11.3091
▁좌회전	-11.3091
▁넥타이	-11.3091
▁느꼈어	-11.3091
▁메신저	-11.3091
▁믿기지	-11.3091
▁병문안	-11.3091
▁싫은데	-11.3091
▁유니폼	-11.3091
▁임산부	-11.3091
▁장학금	-11.3091
▁컨테이너	-11.3091
▁프린트	-11.3091
▁플라스틱	-11.3091
▁횡단보도	-11.3091
멜	-11.3091
썰	-11.3091
엠	-11.3091
▁스크린	-11.3091
▁드라이브	-11.3091
▁시리얼	-11.3091
▁인내심	-11.3091
▁어르신	-11.3091
▁마카오	-11.3091
▁주유소	-11.3091
▁바코드	-11.3091
▁멈출	-11.3091
▁계좌이체	-11.3091
▁단위로	-11.3091
▁데스크	-11.3091
▁회원가입	-11.3091
▁로그인	-11.3091
▁소지품	-11.3091
▁시카고	-11.3091
▁대사관에	-11.3091
▁강원도	-11.3091
▁관광객이	-11.3091
▁흠집	-11.3091
▁클릭	-11.3092
▁뿐입니더	-11.3092
▁다녀올	-11.3092
▁탁구	-11.3093
▁절망	-11.3093
▁펜션	-11.3093
▁폭포	-11.3093
▁폭력	-11.3093
▁수학여행	-11.3094
▁해운대	-11.3094
검	-11.3095
▁밝은색	-11.3095
▁국민	-11.3096
▁체육관	-11.3096
▁취할	-11.3097
▁근육통	-11.3098
▁알람	-11.3099
▁선물용으로	-11.3099
ine	-11.3101
▁공책	-11.3101
▁보여주시겠어요	-11.3102
▁고추장	-11.3102
샵	-11.3105
▁트래	-11.3105
▁현명	-11.3105
땐	-11.3107
칼	-11.3107
▁동행	-11.3107
앞	-11.3107
잘	-11.3108
호텔	-11.311
▁음식값	-11.3111
▁지나간	-11.3111
▁번거롭게	-11.3111
▁하나하나	-11.3114
▁쉬어야	-11.3116
▁진행될	-11.3116
▁맞십니더	-11.3119
▁웃긴	-11.312
▁미안한	-11.312
▁증명서	-11.3121
▁로마	-11.3122
▁치우	-11.3123
▁뿌려	-11.3123
▁났어예	-11.3123
▁지퍼	-11.3123
▁부탁합니데이	-11.3125
▁환불해주세요	-11.3126
▁출국장	-11.313
▁해주셔야	-11.3133
▁사정으로	-11.3135
▁이웃	-11.3136
▁없당께요	-11.3146
▁상품들	-11.3148
▁웃어	-11.3154
시럽	-11.3155
▁반영	-11.3156
▁땀시	-11.3157
▁아쉽게	-11.3162
▁원한다	-11.3163
▁않습니꺼	-11.3163
▁유행이라	-11.3165
▁입어봐	-11.3168
▁어려우	-11.317
▁다름	-11.317
▁다음날	-11.3173
▁하니께	-11.3185
르케	-11.3185
▁싶다면	-11.3186
▁만났어요	-11.3187
▁시차	-11.3188
▁예약금	-11.319
▁야구장	-11.3196
▁등심	-11.3198
시겠십니까	-11.3206
▁가난	-11.3209
뿟다	-11.3212
▁보니께	-11.3215
▁생겼는데	-11.3216
▁누워있	-11.3219
▁명함	-11.3225
oo	-11.3227
▁카운터	-11.3231
▁있을랑가	-11.3245
▁많아졌	-11.3261
▁향해	-11.3263
▁과실	-11.3268
▁나누어	-11.3285
▁만져	-11.3287
▁고생했	-11.3287
▁늘리	-11.3289
▁초과하	-11.3293
▁열릴	-11.3299
레일	-11.3305
▁인물	-11.3312
▁표시해	-11.3317
▁되었는데	-11.3321
▁뭔데	-11.3323
▁있겠어	-11.3335
했거든	-11.3341
▁운동회	-11.3346
▁반전	-11.3356
▁이루어지	-11.3357
시랑께요	-11.336
큼	-11.3364
▁울리	-11.3369
했다아이가	-11.3388
▁우울하	-11.3393
▁걸까요	-11.3399
주셨어	-11.3403
꾼	-11.341
흠	-11.3413
▁재발급	-11.3413
츄	-11.3413
;	-11.3413
▁들렀다	-11.3413
▁속눈썹	-11.3413
▁지냈어	-11.3413
▁클렌징	-11.3413
▁페스티벌	-11.3413
▁확실한	-11.3413
쟈	-11.3413
주셨는데	-11.3413
쭈	-11.3413
틱	-11.3413
픔	-11.3413
▁유산소	-11.3413
▁은젠가	-11.3413
▁배고파	-11.3413
▁듭니더	-11.3414
▁교과서	-11.3414
▁어머님	-11.3414
▁링거	-11.3414
▁당황스럽	-11.3414
▁있은께	-11.3414
▁겉으로	-11.3414
디릴게예	-11.3415
▁성수기	-11.3415
▁줄어들	-11.3415
▁가능하신데	-11.3416
▁바꾼	-11.3416
▁접근	-11.3417
▁막힐	-11.3417
▁해드렸	-11.3418
▁원칙	-11.3419
▁틀린	-11.3419
▁접종	-11.342
▁어떻습니까	-11.342
꾸마	-11.342
▁아껴	-11.3421
▁조심하세요	-11.3423
▁양쪽	-11.3423
▁되겠습니까	-11.3428
▁즐대	-11.3428
▁물론이지예	-11.3429
▁키울	-11.343
▁새복	-11.3432
▁신속	-11.3436
▁샀는디	-11.3438
▁알리주시믄	-11.3439
▁불러주이소	-11.3439
빨	-11.3439
J	-11.344
몰	-11.344
메뉴	-11.3441
혔어요	-11.3441
▁싶십니더	-11.3442
▁보내드릴게요	-11.3443
갑니꺼	-11.3444
하이까	-11.3446
▁비행기표	-11.3447
▁드간	-11.3447
영화	-11.3455
▁대하여	-11.3457
▁도착해가	-11.3457
▁카던데예	-11.3458
▁가재이	-11.346
▁어째서	-11.3463
▁모르겄다	-11.3464
▁따신	-11.3468
▁목적으로	-11.3469
▁생수	-11.347
▁지쳐	-11.347
▁보냈습니더	-11.3471
▁글쎄요	-11.3473
▁보내이소	-11.3476
▁않는다믄	-11.3483
▁말씀이신가	-11.3489
▁인원수	-11.3491
▁상관없습니다	-11.3503
▁도중	-11.3505
▁봐줄	-11.3508
▁참가하	-11.351
▁반납할	-11.3522
▁확인해주세요	-11.3527
뿐인데	-11.3532
▁먹었습니다	-11.3534
▁있겠어요	-11.3534
▁변하지	-11.3549
▁카운터에	-11.3599
▁묵으면	-11.3607
하겄습니다잉	-11.3609
하셨으면	-11.3623
▁확인해봐	-11.3647
▁때쯤	-11.3665
▁처방받	-11.3683
▁처방	-11.3687
원이라고	-11.3692
▁해결되	-11.3702
▁냉장	-11.3705
▁먹던	-11.3708
▁유아용	-11.3713
▁읽어보	-11.3718
▁개안을까	-11.3733
뷰	-11.3746
뜬	-11.3746
꼼	-11.3747
밧	-11.3747
▁간이침대	-11.3747
▁귀중품	-11.3747
▁기쁩니다	-11.3747
▁넉넉하	-11.3747
▁된장찌개	-11.3747
▁디럭스	-11.3747
▁버킷리스트	-11.3747
▁소매치기	-11.3747
▁시애틀	-11.3747
▁아픕니더	-11.3747
▁페이팔	-11.3747
▁핥짝	-11.3747
랴	-11.3747
밭	-11.3747
빅	-11.3747
뿍	-11.3747
슐	-11.3747
혁	-11.3747
▁오프라인	-11.3747
▁첨부파일	-11.3747
▁홈스테이	-11.3747
묘	-11.3747
▁댓글	-11.3747
▁싸그리	-11.3747
▁저스틴	-11.3747
▁키보드	-11.3747
▁휴대용	-11.3747
▁아시안	-11.3747
▁고등어	-11.3747
▁희생	-11.3747
▁하모예	-11.3747
▁아시아	-11.3747
▁쳐다보	-11.3747
▁탁자	-11.3747
▁금마들	-11.3748
▁마라톤	-11.3748
▁말했듯이	-11.3748
▁매운맛	-11.3748
▁빌딩	-11.3749
▁선크림	-11.3749
▁위탁	-11.3749
▁남녀	-11.3749
▁범인	-11.3749
응께	-11.375
▁가져온	-11.375
▁언급	-11.3751
▁서핑	-11.3752
▁풍선	-11.3753
▁교토	-11.3753
▁담백	-11.3754
▁면회	-11.3754
▁유제품	-11.3754
▁교재	-11.3754
▁댕길	-11.3755
ig	-11.3755
▁LA	-11.3757
▁리본	-11.3757
▁Re	-11.3759
▁코코	-11.3759
▁가져다주세요	-11.3759
▁빠마	-11.3761
▁물어보이소	-11.3761
▁부정적	-11.3762
▁소속	-11.3764
▁원하시나요	-11.3765
줍	-11.3767
▁얼마든지	-11.3767
▁안내문	-11.3768
▁다닌	-11.3769
▁통학	-11.377
▁비교해	-11.3771
▁마이클	-11.3772
▁서양	-11.3774
▁하더라고요	-11.3777
▁망치	-11.3777
▁검수	-11.3779
▁공동	-11.378
▁바래예	-11.378
▁도와주이소	-11.3781
▁점심때	-11.3781
▁알았으면	-11.3783
▁오염	-11.3783
딴	-11.3784
뭇	-11.3785
▁패스	-11.3785
▁넣어주세요	-11.3785
▁갔으면	-11.3786
▁고추	-11.3788
▁좋으니까	-11.3789
▁세안	-11.379
▁볼거리	-11.3791
▁있따	-11.3793
▁모르겠데이	-11.3794
▁여태	-11.3795
검사	-11.3796
▁없던데	-11.3797
팝	-11.3806
▁불안하	-11.3807
▁기다리세요	-11.3809
▁판다	-11.381
였는디	-11.3812
미터	-11.3814
▁틀리	-11.3818
▁어쩌죠	-11.3819
▁기도할게	-11.3824
▁아니었어요	-11.3828
BA	-11.383
▁추적	-11.3832
▁스페인어	-11.3837
▁건너편	-11.3847
▁내려오	-11.3853
▁추천합니다	-11.3871
▁그분들	-11.3878
▁입원비	-11.3882
▁작품들	-11.3884
▁친척들	-11.3896
포트	-11.3901
▁적성	-11.3905
▁알겠어요	-11.391
▁드렸는데	-11.3918
▁회원님	-11.3926
▁밀리	-11.3953
▁판매되	-11.3955
▁꼼꼼하	-11.3956
19	-11.3956
▁동료들	-11.3963
▁먹겠	-11.3971
▁알아볼게	-11.3975
▁좁아	-11.3978
▁실물	-11.3982
받았던	-11.3989
▁직진하시	-11.3997
토리	-11.3998
▁많았어요	-11.4009
▁깨져	-11.4016
▁구매하시	-11.4022
▁써봐	-11.4026
겠구나	-11.4029
▁답답하	-11.4036
▁불편하신	-11.4046
▁사용해보	-11.4088
균	-11.4091
롯	-11.4091
깜	-11.4091
긍	-11.4091
▁그렇습니더	-11.4091
▁펼쳐	-11.4091
갓	-11.4091
넷	-11.4091
▁겉옷	-11.4091
▁쬐매	-11.4091
▁마누라	-11.4091
▁종업원	-11.4091
▁무거운	-11.4091
▁메세지	-11.4091
▁무례한	-11.4091
▁밀가루	-11.4092
▁봉다리	-11.4092
▁적당히	-11.4092
▁반가워	-11.4092
▁에이드	-11.4092
▁엽서	-11.4093
▁취득	-11.4093
▁왜냐하믄	-11.4097
▁빼먹	-11.4097
▁힘들었어	-11.4099
▁예정입니데이	-11.4102
▁같심더	-11.4103
▁즐거웠어	-11.4111
▁매달	-11.4114
▁일반적인	-11.4114
▁치과에	-11.4115
▁같십니다	-11.4119
▁동화	-11.4121
▁맹글어	-11.4123
▁열린다	-11.4124
▁연락드리	-11.4128
▁받으신	-11.4129
찍	-11.4129
4,000	-11.4129
▁궁금한데	-11.4131
▁매워	-11.4136
▁좋습니꺼	-11.4136
▁자세하게	-11.4139
털	-11.414
굽	-11.4141
Q	-11.4142
빌	-11.4142
테니	-11.4145
▁되겠네예	-11.4145
배송	-11.4146
▁가능하지만	-11.4153
▁장마	-11.4156
▁급해	-11.4168
▁증명	-11.4172
▁느려	-11.42
▁큰일이네	-11.4215
▁지켜보	-11.4219
순위	-11.4228
▁진료받	-11.4235
▁고마웠	-11.4239
▁두려워	-11.4266
▁제공되	-11.4285
▁존재하	-11.4292
▁말았어	-11.4327
72	-11.4334
하셔가꼬	-11.4338
▁살아있	-11.4349
▁규칙적	-11.4356
해바라	-11.4373
▁찾아볼	-11.4384
▁해줄래	-11.4409
▁바랄	-11.4416
윽	-11.4446
▁마시믄	-11.4446
밸	-11.4447
▁힙합	-11.4449
▁ATM	-11.4449
▁Cont	-11.4449
▁DHL	-11.4449
▁MFZ	-11.4449
▁견딜	-11.4449
▁광화문	-11.4449
▁금메달	-11.4449
▁디지털	-11.4449
▁로스앤젤레스	-11.4449
▁박람회	-11.4449
▁방탄소년단	-11.4449
▁어쨌든	-11.4449
▁웨이브	-11.4449
▁최초	-11.4449
▁캄보디아	-11.4449
▁트레이닝	-11.4449
▁핼러윈	-11.4449
▁효율적	-11.4449
덧	-11.4449
랭	-11.4449
쌤	-11.4449
엿	-11.4449
▁신입생	-11.4449
▁협력	-11.4449
▁더부룩	-11.4449
▁여배우	-11.4449
똥	-11.4449
▁되돌아	-11.4449
▁무거워	-11.4449
▁어지럽	-11.4449
▁원정석	-11.4449
▁통신사	-11.4449
대입구역	-11.4449
▁쿠션	-11.4449
▁손잡이	-11.4449
▁댕겨	-11.4449
▁기대된다	-11.4449
▁억울	-11.4449
▁즈렴하	-11.4449
▁아홉	-11.4449
▁한마디	-11.4449
▁선약이	-11.4449
▁수유실	-11.4449
▁아름다움	-11.4449
▁리뷰	-11.445
▁운전면허증	-11.445
▁감싸	-11.445
fw	-11.4451
▁미룰	-11.4452
▁죄송해예	-11.4452
▁물어본	-11.4452
▁관절	-11.4453
▁해놓	-11.4453
▁가까븐	-11.4454
▁근육량	-11.4454
▁Mr	-11.4455
▁출판	-11.4455
▁도와드리겠습니더	-11.4455
▁응답	-11.4456
▁세척	-11.4456
▁신규	-11.4456
▁싶으신가요	-11.4457
▁동창	-11.4457
▁중순	-11.4457
▁아래쪽	-11.4457
▁키웠	-11.446
▁찾아봤	-11.446
▁사랑스럽	-11.4461
▁성형	-11.4461
▁올리브	-11.4464
▁비결	-11.4464
▁알려드릴게예	-11.4464
▁연료	-11.4466
▁중요합니다	-11.4466
▁연체	-11.4468
▁허브	-11.4469
▁재생	-11.4471
▁가볼래	-11.4471
▁광장	-11.4472
▁물어보세요	-11.4472
▁더이상	-11.4472
▁세탁물	-11.4473
▁배추	-11.4473
▁불편함	-11.4474
▁힘들었지만	-11.4476
▁정책	-11.4476
▁싶었는디	-11.4479
▁조그	-11.4481
▁원작	-11.4482
▁지혈	-11.4483
▁들어본	-11.4484
▁헤어진	-11.4485
▁편집	-11.4487
▁전문적	-11.4489
▁차액	-11.4492
▁대금	-11.4493
▁중복	-11.4495
▁후문	-11.4495
▁상관없어	-11.4501
폐	-11.4502
▁개안은데	-11.4503
▁택배비	-11.4506
▁홍대	-11.4508
윤	-11.4511
섬	-11.4511
▁편안해	-11.4547
▁영업시간	-11.4554
▁모자라	-11.4555
▁조별	-11.4557
▁비율	-11.46
▁공감	-11.4612
▁회의실	-11.4614
해달라꼬	-11.4617
▁보여줘	-11.4631
장애	-11.4632
▁싶으시	-11.4634
갔는지	-11.4646
버려서	-11.4652
▁편리하	-11.466
▁상황이라	-11.4676
▁먹습니다	-11.468
▁할인율	-11.4692
▁도와주실	-11.4702
▁참석하	-11.4703
▁멤버들	-11.4719
▁지각했	-11.4724
▁즐거	-11.4728
▁어젯밤	-11.4728
▁생각하니	-11.4729
드릴테니	-11.4733
립니데이	-11.4793
▁있당께	-11.4808
챠	-11.4809
릅니더	-11.4813
밍	-11.4818
(	-11.4818
앗	-11.4819
▁베스트셀러	-11.4819
▁잘생겼	-11.4819
댔	-11.4819
셜	-11.4819
▁훔쳐	-11.4819
렛	-11.4819
▁교환학생	-11.4819
▁카디건	-11.4819
▁지저분	-11.4819
▁갑작스럽	-11.4819
▁목록에	-11.4819
▁예민한	-11.482
▁다듬어	-11.482
▁테라스	-11.4821
다시피	-11.4822
▁축하드립니다	-11.4822
▁오팡	-11.4823
▁환상적	-11.4824
▁꾸복	-11.4824
▁연령	-11.4824
▁맛없	-11.4825
▁놀라운	-11.4826
사람들	-11.4827
▁고마운	-11.4828
▁받으셔야	-11.4832
▁내려가시면	-11.4833
▁화재	-11.4835
▁부탁드릴게예	-11.4835
▁예약했었는데	-11.484
▁원하십니꺼	-11.4841
▁좋습니데이	-11.4842
▁알려준	-11.4843
▁방영	-11.4846
▁올라가시면	-11.4847
▁새겨	-11.4852
▁이상하다	-11.4854
▁해낼	-11.4855
▁싫어해요	-11.4862
▁행복합니더	-11.4864
▁찍었어	-11.4874
▁빌려줄	-11.4884
땅	-11.4896
$	-11.4896
경기장	-11.4898
▁별명	-11.4915
▁불만이	-11.4916
신청	-11.4923
▁하든데	-11.4927
▁경제적	-11.4929
▁추천해준	-11.4932
▁배송받	-11.494
▁하겠다	-11.4971
▁예민해	-11.4972
▁안타깝지	-11.4973
and	-11.4976
▁솔직	-11.4986
▁상처받	-11.4998
▁행복합니다	-11.505
▁부담스러	-11.5114
낀	-11.5135
▁$10	-11.5154
▁걱정된다	-11.5185
샌	-11.5197
껀	-11.5202
렬	-11.5202
▁쫄깃	-11.5204
roject	-11.5204
tion	-11.5204
▁ABC	-11.5204
▁New	-11.5204
▁그렇습니꺼	-11.5204
▁다운로드	-11.5204
▁미세먼지	-11.5204
▁믿는다	-11.5204
▁브런치	-11.5204
▁삼계탕	-11.5204
▁엑스레이	-11.5204
▁연세대학교	-11.5204
▁우짭니꺼	-11.5204
▁이코노미	-11.5204
▁전광판	-11.5204
▁컬렉션	-11.5204
▁크루즈	-11.5204
▁탄산음료	-11.5204
▁특이하	-11.5204
▁틀림없	-11.5204
▁팸플릿	-11.5204
▁하룻밤	-11.5204
▁햇볕	-11.5204
꼽	-11.5204
넬	-11.5204
뱉	-11.5204
브렀어	-11.5204
삔	-11.5204
삤	-11.5204
숲	-11.5204
쑥	-11.5204
톨	-11.5204
▁구급차	-11.5204
▁샤넬	-11.5204
▁겸손	-11.5204
▁오디션	-11.5204
▁춘천	-11.5204
▁월미도	-11.5204
▁사물함	-11.5204
▁갑시다	-11.5204
▁델따	-11.5204
▁격려해	-11.5204
▁규모	-11.5204
▁다행입니다	-11.5204
▁두드러	-11.5204
▁즐거움	-11.5204
▁눈앞에	-11.5204
▁잊어버리	-11.5204
▁누굴	-11.5205
▁빠듯	-11.5205
▁설득	-11.5205
▁냉면	-11.5205
▁레몬	-11.5205
▁도자기	-11.5205
▁기쁨	-11.5206
ork	-11.5206
▁경비실에	-11.5206
▁옳지	-11.5206
▁리얼	-11.5206
▁축하드립니더	-11.5206
▁엔화	-11.5206
▁목도리	-11.5207
VR	-11.5207
▁아쉬운	-11.5207
▁압니더	-11.5207
▁모릅니더	-11.5207
▁단독	-11.5208
▁소요될	-11.5208
▁소개팅	-11.5208
▁xxx	-11.5208
▁1.5	-11.5209
▁상징	-11.5209
▁투표	-11.5209
▁베스트	-11.5209
▁서빙	-11.521
▁돌아온	-11.521
▁설날	-11.521
▁들었당게	-11.5211
▁터키	-11.5212
▁보존	-11.5212
▁속담	-11.5212
▁장갑	-11.5212
▁갈챠	-11.5213
▁암것	-11.5213
▁바이어	-11.5213
▁위쪽	-11.5214
▁알려주시겠습니까	-11.5214
▁등록금	-11.5215
했으이	-11.5219
▁호출	-11.5219
이었는지	-11.5219
▁먹어본	-11.5219
▁모르겄어예	-11.522
▁조직	-11.522
▁없다카이	-11.5221
▁선박	-11.5221
▁부과되	-11.5224
▁소량	-11.5224
▁생물	-11.5224
▁같군요	-11.5226
▁전송	-11.5228
▁호우	-11.5229
▁안내판	-11.523
▁재학	-11.5235
▁가능하다믄	-11.5235
▁괜찮으니까	-11.5236
▁강화도에	-11.5236
▁못하겠어	-11.5237
▁아이들에게	-11.5239
▁관점	-11.524
▁보내주신	-11.5243
스푼	-11.5253
▁팔렸	-11.5254
피트	-11.5263
▁지경이	-11.5268
▁조교	-11.5269
응	-11.5285
엄	-11.5296
폭	-11.5297
▁탄력	-11.5306
▁처방받으	-11.5327
▁외우	-11.5353
▁확인해볼게	-11.5367
▁졸려	-11.5374
▁알려주셔	-11.5393
해드립니다	-11.5418
▁좋겄어	-11.5465
▁원하신다	-11.5502
봐래이	-11.5519
▁기사님께	-11.5538
▁기간이라	-11.5538
▁맨들	-11.5551
▁맹글	-11.5569
섯	-11.5577
▁즌부	-11.558
▁근거	-11.558
▁선수들	-11.5585
▁상관없으니	-11.5587
▁알려줄래	-11.5591
뇨	-11.5597
닛	-11.5601
▁뻘건	-11.5602
톡	-11.5602
흑	-11.5603
첩	-11.5603
샘	-11.5604
▁뚜껑	-11.5604
▁바쁩니	-11.5604
▁벼락치기	-11.5604
▁슈퍼마켓	-11.5604
▁스탠다드	-11.5604
▁억쑤로	-11.5604
▁콘텐츠	-11.5604
▁할리우드	-11.5604
빕	-11.5604
쏙	-11.5604
폼	-11.5604
햇	-11.5604
▁깜장색	-11.5604
싯	-11.5604
▁그러시군요	-11.5604
▁활발하	-11.5604
▁분실신고	-11.5604
▁운동기구	-11.5604
▁일시불	-11.5604
▁보라카이	-11.5604
▁다쳐서	-11.5604
펜	-11.5709
힘	-11.5713
념	-11.6004
찻	-11.602
렐	-11.602
렷	-11.602
룡	-11.602
벅	-11.602
숩	-11.602
잼	-11.602
줌	-11.602
찹	-11.602
텍	-11.602
°	-11.602
뒤	-11.6149
맙	-11.6446
쇠	-11.6449
낄	-11.6454
찮	-11.6454
퉁	-11.6455
덱	-11.6455
뚱	-11.6455
덤	-11.6455
뎌	-11.6455
넣	-11.6587
틈	-11.6601
총	-11.6604
푼	-11.6851
꿀	-11.6906
랙	-11.6909
뱀	-11.691
즙	-11.691
첨	-11.7079
쁜	-11.7324
핸	-11.7384
엣	-11.7386
쩡	-11.7386
펍	-11.7386
셋	-11.7578
떤	-11.7878
팡	-11.788
섹	-11.7885
탱	-11.7886
첼	-11.7886
벡	-11.7886
쿨	-11.7886
갭	-11.7886
돔	-11.7886
밋	-11.7886
엎	-11.7886
펄	-11.7886
왓	-11.7886
틸	-11.7886
턱	-11.8103
빼	-11.8106
꼭	-11.8107
캠	-11.8412
돗	-11.8412
얌	-11.8412
챗	-11.8412
핍	-11.8412
휠	-11.8412
춤	-11.866
졸	-11.8661
맘	-11.8661
럴	-11.8886
톱	-11.8963
쪄	-11.8967
윈	-11.8967
룩	-11.8967
붐	-11.8967
럿	-11.8968
셰	-11.8968
깬	-11.8968
븟	-11.8968
뻑	-11.8968
콕	-11.8968
텝	-11.8968
텨	-11.8968
’	-11.8968
롸	-11.8968
켈	-11.8968
갖	-11.9206
쉽	-11.9242
콩	-11.9247
탐	-11.9248
쪼	-11.9248
쭉	-11.925
쁘	-11.9485
녔	-11.9539
꿔	-11.9553
뜩	-11.9554
엡	-11.9555
딕	-11.9556
짬	-11.9556
곰	-11.9864
떠	-11.987
깊	-11.9874
홍	-11.9874
딘	-12.0177
끗	-12.018
굿	-12.0181
칫	-12.0181
늄	-12.0181
샐	-12.0181
킥	-12.0181
젤	-12.0542
쬐	-12.0847
댓	-12.0847
튀	-12.1255
귄	-12.1553
쎄	-12.156
맵	-12.2021
좁	-12.2023
뭐	-12.2026
깅	-12.233
숫	-12.233
뷔	-12.2852
흐	-12.2857
낫	-12.2857
팬	-12.2857
샀	-12.2858
엇	-12.3161
솥	-12.3164
닷	-12.3164
춧	-12.3164
셉	-12.3164
앱	-12.3768
템	-12.4071
뱃	-12.4073
벙	-12.4073
췄	-12.4073
팸	-12.4073
뵈	-12.4765
뽑	-12.4767
ᅡ	-12.5072
봇	-12.5072
팽	-12.5073
갯	-12.5073
쿼	-12.5073
큐	-12.5073
넥	-12.5073
쨌	-12.5073
얀	-12.618
뻘	-12.6184
륭	-12.6185
헤	-12.7127
흔	-12.7128
봄	-12.7128
넘	-12.7129
잠	-12.7129
귈	-12.7426
씀	-12.7428
걱	-12.7434
딧	-12.7435
벳	-12.7435
탬	-12.7435
싼	-12.8552
붓	-12.8554
쥐	-12.8555
멀	-12.8556
닙	-12.8846
쩌	-12.8859
툼	-12.8863
흰	-13.0222
맡	-13.0224
쁨	-13.052
슷	-13.0525
쇄	-13.0528
ᄋ	-13.0529
숭	-13.053
룻	-13.053
핼	-13.053
둡	-13.2526
댑	-13.253
ᄃ	-13.253
뺄	-13.4722
뵙	-13.4722
톰	-13.4722
엉	-13.4723
삶	-13.4725
땠	-13.5026
펫	-13.5028
ᄇ	-13.5029
ᄑ	-13.503
뮬	-13.503
ᄀ	-13.503
ᄅ	-13.503
ᄒ	-13.503
띄	-13.8056
팁	-13.8057
맴	-13.8059
젝	-13.8363
캡	-14.3059
흉	-14.306
낳	-14.306
낯	-14.306
갸	-14.3061
맻	-14.3061
땀	-14.3061
첫	-14.3062
곧	-14.3062
쫌	-14.3062
깝	-14.3346
홉	-14.3357
뀐	-14.336
갛	-14.3363
ᄂ	-14.3363
ᄆ	-14.3363
ᄉ	-14.3363
ᄌ	-14.3363
ᄎ	-14.3363
ᄐ	-14.3363
ᅤ	-14.3363
ᅨ	-14.3363
ᅩ	-14.3363
ᅭ	-14.3363
ᅲ	-14.3363
왈	-14.3363
펩	-15.3002
튬	-15.3003
퀵	-15.3004
퀄	-15.3005
웍	-15.3006
뭄	-15.3007
눕	-15.3008
껌	-15.3009
궂	-15.301
짖	-15.3011
맷	-15.3012
흩	-15.3013
숏	-15.3014
뻗	-15.3015
곽	-15.3016
잴	-15.3017
쏠	-15.3018
슛	-15.3019
낡	-15.302
혐	-15.3021
윙	-15.3022
얽	-15.3023
씌	-15.3024
뛸	-15.3025
딨	-15.3026
귤	-15.3027
쪘	-15.3028
눴	-15.3029
깰	-15.303
켤	-15.3031
윷	-15.3032
멕	-15.3033
뤘	-15.3034
땄	-15.3035
얹	-15.3036
앵	-15.3037
믈	-15.3038
깼	-15.3039
괌	-15.304
팥	-15.3041
촛	-15.3042
쫓	-15.3043
쫀	-15.3044
쟤	-15.3045
볕	-15.3046
맽	-15.3047
맺	-15.3048
뚫	-15.3049
떴	-15.305
쏘	-15.3051
뀨	-15.3052
껑	-15.3053
킴	-15.3054
쐬	-15.3055
뺏	-15.3056
뵌	-15.3057
멸	-15.3058
늑	-15.3059
횟	-15.306
펠	-15.3061
캄	-15.3062
몹	-15.3063
툰	-15.3064
퀘	-15.3065
앓	-15.3066
쉰	-15.3067
덟	-15.3068
뇌	-15.3069
굶	-15.307
갤	-15.3071
}	-15.3072
{	-15.3073
^	-15.3074
삣	-15.3075
낱	-15.3076
#	-15.3077
옹	-15.3078
‘	-15.3079
멧	-15.3079
갇	-15.308
헛	-15.3081
펼	-15.3082
젭	-15.3083
엓	-15.3084
뉘	-15.3085
낏	-15.3086
[	-15.3087
쭐	-15.3088
짞	-15.3089
윿	-15.309
붉	-15.3091
봊	-15.3092
늠	-15.3093
꿨	-15.3094
칵	-15.3095
슘	-15.3096
댈	-15.3097
갱	-15.3098
“	-15.3099
<	-15.31
챔	-15.3101
뜰	-15.3102
잦	-15.3103
텀	-15.3104
땡	-15.3105
늙	-15.3106
ᅴ	-15.3107
ᅱ	-15.3108
ᅰ	-15.3109
ᅯ	-15.311
ᅬ	-15.3111
ᅫ	-15.3112
ᅪ	-15.3113
ᅦ	-15.3114
ᄍ	-15.3115
ᄊ	-15.3116
ᄈ	-15.3117
ᄄ	-15.3118
ᄁ	-15.3119
윌	-15.312
깥	-15.3121
횡	-15.3122
컸	-15.3123
벚	-15.3124
밟	-15.3125
갚	-15.3126
캘	-15.3127
캅	-15.3128
찝	-15.3129
땃	-15.313
힙	-15.3131
쫄	-15.3132
맑	-15.3133
ᅢ	-15.3134
뵐	-15.3135
둠	-15.3136
굵	-15.3137
쩰	-15.3138
큽	-15.3139
얄	-15.314
쌍	-15.3141
쁍	-15.3142
탠	-15.3143
쿵	-15.3144
짭	-15.3145
잇	-15.3146
읎	-15.3147
쏟	-15.3148
걀	-15.3149
핵	-15.315
핫	-15.3151
숟	-15.3152
섰	-15.3153
뽕	-15.3154
딥	-15.3155
늬	-15.3156
킵	-15.3157
훔	-15.3158
얇	-15.3159
낚	-15.316
쑤	-15.3161
ᅧ	-15.3162
ᅣ	-15.3163
쩐	-15.3164
쥬	-15.3165
뭣	-15.3166
뭉	-15.3167
딪	-15.3168
뀔	-15.3169
긁	-15.317
뿡	-15.3171
ᅥ	-15.3172
콧	-15.3173
웅	-15.3174
뎁	-15.3175
*	-15.3176
꺾	-15.3177
믓	-15.3178
앨	-15.3179
탭	-15.318
뽀	-15.3181
뻤	-15.3182
홓	-15.3183
돕	-15.3184
펙	-15.3185
솜	-15.3186
댁	-15.3187
ᅵ	-15.3188
찢	-15.3189
뢰	-15.319
닮	-15.3191
끓	-15.3192
씁	-15.3193
빔	-15.3194
뜯	-15.3195
짠	-15.3196
볍	-15.3197
찼	-15.3198
ᅮ	-15.3199
덮	-15.32
덥	-15.3201
픕	-15.3202
젓	-15.3203
쌉	-15.3204
웬	-15.3205
샴	-15.3206
둑	-15.3207
걔	-15.3208
팠	-15.3209
쥴	-15.321
핥	-15.3211
젖	-15.3212
헙	-15.3213
왠	-15.3214
롤	-15.3215
뱅	-15.3216
싹	-15.3217
삽	-15.3218
멤	-15.3219
닿	-15.322
겪	-15.3221
헷	-15.3222
빴	-15.3223
묶	-15.3224
릎	-15.3225
닦	-15.3226
쁩	-15.3227
춥	-15.3228
씻	-15.3229
듈	-15.323
캤	-15.3231
섞	-15.3232
젊	-15.3233
곁	-15.3234
륙	-15.3235
껍	-15.3236
켰	-15.3237
젯	-15.3238
랗	-15.3239
딜	-15.324
꽂	-15.3241
괘	-15.3242
넉	-15.3243
꼈	-15.3244
꽉	-15.3245
협	-15.3246
뒀	-15.3247
푹	-15.3248
괴	-15.3249
펴	-15.325
멍	-15.3251
렉	-15.3252
쉴	-15.3253
웹	-15.3254
튜	-15.3255
쌓	-15.3256
썼	-15.3257
훌	-15.3258
굳	-15.3259
밑	-15.326
넓	-15.3261
쓴	-15.3262
뮤	-15.3263
뭡	-15.3264
뒷	-15.3265
쭤	-15.3266
벼	-15.3267
킷	-15.3268
벗	-15.3269
깎	-15.327
탔	-15.3271
펌	-15.3272
ᅳ	-15.3273
뀌	-15.3274
잤	-15.3275
묻	-15.3276
쌀	-15.3277
숨	-15.3278
녹	-15.3279
릇	-15.328
헬	-15.3281
ᄏ	-15.3282
흘	-15.3283
흡	-15.3284
닫	-15.3285
끊	-15.3286
닭	-15.3287
얻	-15.3288
낙	-15.3289
걷	-15.329
밝	-15.3291
쳤	-15.3292
흥	-15.3293
웨	-15.3294
쩔	-15.3295
측	-15.3296
옛	-15.3297
룹	-15.3298
굉	-15.3299
홈	-15.33
옮	-15.3301
렀	-15.3302
뛰	-15.3303
왼	-15.3304
짧	-15.3305
훨	-15.3306
꽤	-15.3307
옵	-15.3308
촬	-15.3309
잃	-15.331
볶	-15.3311
뭘	-15.3312
낮	-15.3313
캐	-15.3314
낌	-15.3315
덕	-15.3316
붙	-15.3317
벽	-15.3318
겼	-15.3319
밌	-15.332
낍	-15.3321
퓨	-15.3322
높	-15.3323
잊	-15.3324
꿈	-15.3325
녕	-15.3326
믿	-15.3327
딸	-15.3328
퇴	-15.3329
냈	-15.333
똑	-15.3331
획	-15.3332
앉	-15.3333
읽	-15.3334
듣	-15.3335
몸	-15.3336
랐	-15.3337
뭔	-15.3338
떨	-15.3339
싫	-15.334
완	-15.3341
잖	-15.3342
옆	-15.3343
밖	-15.3344
특	-15.3345
큰	-15.3346
놀	-15.3347
늦	-15.3348
녁	-15.3349
뻐	-15.335
괜	-15.3351
최	-15.3352
왜	-15.3353
눠	-15.3353
혼	-15.3354
떻	-15.3355
험	-15.3356
셨	-15.3357
찾	-15.3358
렇	-15.3359
확	-15.336
됩	-15.3361
쿄	-15.3361
썹	-15.3362
많	-15.3362
않	-15.3363
펐	-15.3363
