<s>	0
</s>	0
<unk>	0
<pad>	0
▁	-3.53551
을	-3.81981
의	-4.14131
를	-4.25462
,	-4.31906
이	-4.3243
에	-4.33336
는	-4.49933
가	-4.54393
은	-4.70919
▁수	-4.87043
도	-5.0947
?	-5.17424
로	-5.23088
한	-5.44715
에서	-5.45425
과	-5.45503
▁이	-5.45644
고	-5.47005
지	-5.51997
▁그	-5.60729
으로	-5.61376
.	-5.70239
와	-5.71673
▁있는	-5.8685
할	-5.87014
서	-5.90954
기	-5.9267
인	-5.929
▁나는	-5.94718
하는	-5.95535
▁것	-6.09877
만	-6.15678
▁한	-6.15882
해	-6.16797
▁저는	-6.16853
하고	-6.17341
게	-6.19361
▁더	-6.20703
▁있습니다잉	-6.23841
어	-6.37385
▁때	-6.3788
시	-6.39927
▁안	-6.44044
▁내	-6.44159
▁할	-6.4525
나	-6.45964
▁우리는	-6.47539
▁내가	-6.47653
일	-6.49247
다	-6.49744
리	-6.52427
▁우리	-6.53984
라	-6.54259
야	-6.55064
▁제가	-6.56568
된	-6.57337
▁잘	-6.59167
입니다잉	-6.6067
허고	-6.62587
자	-6.6395
▁1	-6.64128
▁다른	-6.66412
잉	-6.68731
▁것을	-6.71574
▁많은	-6.72034
▁주	-6.7278
▁당신이	-6.73491
하게	-6.73609
요	-6.74878
▁것이	-6.75117
▁대한	-6.75392
▁위해	-6.75397
스	-6.77715
적인	-6.78376
▁당신	-6.79249
들은	-6.80757
아	-6.81057
▁말	-6.81239
▁2	-6.82082
사	-6.82348
주	-6.82707
▁중	-6.83203
▁전	-6.83283
▁거	-6.83654
▁다	-6.85164
요잉	-6.85682
히	-6.86048
당께요	-6.89429
▁겁나게	-6.89461
▁3	-6.90144
▁제	-6.92621
월	-6.92788
▁일	-6.92907
▁두	-6.93074
들이	-6.93277
습니다잉	-6.94153
믄	-6.94186
▁생각	-6.95294
▁못	-6.95804
하기	-6.97174
하	-6.9829
제	-6.98447
년	-7.00839
수	-7.00927
▁후	-7.01449
대	-7.01941
하지	-7.02607
▁확인	-7.02616
▁하는	-7.03322
▁사용	-7.04273
적	-7.04828
면	-7.05302
▁좋은	-7.05679
▁다시	-7.06
합니다잉	-7.06323
▁나	-7.07087
상	-7.07088
▁모든	-7.07451
디	-7.07889
▁함께	-7.08982
분	-7.09135
해가꼬	-7.09329
▁것은	-7.09713
들을	-7.10473
▁가장	-7.11425
라고	-7.12778
장	-7.13425
▁가	-7.13838
▁대해	-7.14717
▁오늘	-7.15034
드	-7.15177
▁사	-7.16162
해야	-7.16314
치	-7.16547
▁저희	-7.16581
▁지	-7.18868
던	-7.20148
▁땜시	-7.21121
진	-7.21743
다고	-7.21777
지라	-7.22272
▁시	-7.23023
니	-7.23033
▁난	-7.243
▁우리가	-7.2492
에는	-7.25336
▁당신은	-7.26007
부	-7.26167
▁같은	-7.26261
▁될	-7.26886
▁해	-7.27274
성	-7.28179
▁다음	-7.28512
▁아	-7.2858
▁저	-7.29984
▁있당께요	-7.30087
화	-7.30093
▁하	-7.30267
▁등	-7.30738
▁오	-7.31791
가꼬	-7.31958
어라	-7.32514
여	-7.32746
▁지금	-7.32852
▁있어라	-7.32857
▁있을	-7.32985
는디	-7.33433
▁합니다잉	-7.33606
▁친구	-7.33693
트	-7.33698
▁같이	-7.34158
러	-7.34925
▁정	-7.35117
▁진행	-7.35614
하여	-7.35651
소	-7.35663
들	-7.35693
비	-7.35823
▁또한	-7.36431
▁부	-7.36609
지만	-7.37445
신	-7.37665
▁현재	-7.37681
▁어떤	-7.37727
실	-7.37864
▁원	-7.38251
헌테	-7.3844
▁5	-7.38526
정	-7.39516
▁시작	-7.3953
전	-7.39704
▁줄	-7.40141
보다	-7.40221
▁한국	-7.40537
▁4	-7.40859
▁게	-7.40904
▁보	-7.41065
다잉	-7.41085
이나	-7.41472
허게	-7.41599
▁네	-7.4197
▁큰	-7.42585
적으로	-7.43723
▁건	-7.43941
▁비	-7.44149
▁및	-7.44416
거	-7.44849
▁유	-7.45055
▁고	-7.45587
▁A	-7.45883
원	-7.46093
우	-7.46922
▁그는	-7.47267
구	-7.4793
보	-7.48075
허는	-7.48333
▁영화	-7.49136
▁통해	-7.49245
▁이번	-7.49381
▁가지	-7.49389
▁사람이	-7.50138
에게	-7.50141
▁10	-7.50391
▁모두	-7.51144
▁알	-7.51244
께	-7.51423
까지	-7.51746
▁회사	-7.52154
마	-7.52237
▁자	-7.52587
▁대	-7.52703
개	-7.52777
▁나가	-7.53596
님	-7.53791
▁그라고	-7.54138
▁모	-7.54764
하믄	-7.54933
질	-7.55157
▁하고	-7.5517
부터	-7.55461
▁것입니다잉	-7.55665
▁좋아	-7.56139
▁볼	-7.56768
다믄	-7.56887
▁동안	-7.56892
▁정도	-7.56912
▁혹시	-7.57441
▁만약	-7.57624
▁보내	-7.5782
되어	-7.57902
▁바	-7.57915
▁그들	-7.57953
▁정보	-7.58031
▁경우	-7.58197
▁너	-7.58602
▁하나	-7.59044
▁마	-7.59574
▁영어	-7.59756
헌	-7.60035
▁세	-7.6021
다는	-7.60722
헐	-7.61972
이어라	-7.62118
▁보고	-7.62266
▁주문	-7.62695
될	-7.63928
라는	-7.64108
▁자신	-7.64222
▁많이	-7.64242
▁따라	-7.64347
▁알고	-7.64467
혀	-7.64785
오	-7.65492
'	-7.66671
▁사람	-7.67386
세	-7.67937
▁무	-7.68055
▁차	-7.68114
선	-7.68184
되는	-7.68493
까정	-7.68502
▁위한	-7.68827
▁것이어라	-7.6891
▁본	-7.69184
단	-7.69349
당께	-7.6949
명	-7.69913
▁전에	-7.70271
▁걸	-7.70355
▁기	-7.70399
▁사랑	-7.71
▁준비	-7.71866
▁아니라	-7.71987
려	-7.72028
▁요	-7.72355
▁번	-7.73
혀요잉	-7.73021
▁갈	-7.73222
▁시간이	-7.73419
크	-7.73447
식	-7.73696
▁있지라	-7.73779
▁날	-7.73846
당	-7.74057
▁시간	-7.74113
▁새로운	-7.74382
▁살	-7.74401
미	-7.74459
들의	-7.74508
용	-7.74555
▁되	-7.7467
점	-7.74734
차	-7.74738
산	-7.7499
▁구	-7.75158
▁정말	-7.75426
길	-7.75463
▁음식	-7.75617
▁문제	-7.76181
▁개	-7.76194
동	-7.76494
당가요	-7.76769
▁바로	-7.7709
랑	-7.77491
▁예약	-7.78499
▁요청	-7.78736
e	-7.79262
▁제품	-7.79297
▁서비스	-7.79676
위	-7.8014
▁입	-7.80411
▁소	-7.80426
▁그래서	-7.80427
▁여행	-7.81073
▁여러	-7.81191
▁판매	-7.81288
▁몇	-7.81868
▁겁나	-7.82619
▁미	-7.82889
▁바랍니다잉	-7.83217
▁있	-7.83289
▁이상	-7.83631
르	-7.8391
체	-7.84151
블	-7.84164
▁노력	-7.84395
▁공부	-7.84611
어야	-7.84621
▁선	-7.84707
▁나의	-7.85081
▁없는	-7.85228
▁방	-7.85746
해서	-7.85773
▁다양한	-7.86033
며	-7.86296
네	-7.86426
▁가지고	-7.8644
▁공	-7.86534
관	-7.86692
허	-7.86846
▁반	-7.86967
▁또	-7.8718
▁배	-7.87493
시간	-7.87556
▁불	-7.87674
▁데	-7.8774
▁있고	-7.88205
▁제공	-7.88231
▁6	-7.88771
▁달	-7.89053
내	-7.89509
▁추가	-7.89642
▁어	-7.89681
러한	-7.89698
▁간	-7.89722
▁타	-7.89841
▁연락	-7.89953
▁않고	-7.90084
방	-7.90217
▁점	-7.90408
▁사진	-7.90442
▁계속	-7.90654
갖고	-7.91032
▁내일	-7.91057
▁제품을	-7.91422
▁이해	-7.91695
2	-7.91883
국	-7.91926
▁거여	-7.91942
물	-7.91952
▁글고	-7.92109
▁B	-7.92276
번	-7.92307
▁좀	-7.92355
▁이것은	-7.92627
▁들어	-7.92706
것	-7.92775
▁디자인	-7.92949
▁구매	-7.92949
▁운동	-7.93138
혀요	-7.93283
▁하지만	-7.93525
▁있어	-7.93607
▁왜	-7.93647
▁그란디	-7.93784
에서는	-7.94082
▁것으로	-7.94496
▁재	-7.94498
데	-7.94524
바	-7.94797
당게	-7.94952
▁신	-7.9512
▁아래	-7.95129
안	-7.95157
▁상품	-7.95429
함	-7.95792
▁편	-7.95797
그	-7.95993
▁조	-7.96001
혀서	-7.9614
처럼	-7.96146
▁이용	-7.96201
A	-7.96527
네요잉	-7.96552
▁않는	-7.96765
▁일을	-7.96831
▁지는	-7.97276
문	-7.97333
▁있도록	-7.97423
재	-7.97628
▁아직	-7.97647
▁직접	-7.97667
▁않	-7.9823
프	-7.98356
하쇼잉	-7.98373
이라고	-7.98593
워	-7.98609
래	-7.9876
▁집	-7.98808
는데	-7.98812
습니다	-7.99206
▁먼저	-7.99526
이고	-7.99579
조	-7.99897
랑께요	-7.99914
으	-8.00048
혔습니다잉	-8.0014
거나	-8.00493
▁인	-8.00498
▁상	-8.00552
▁세계	-8.00612
▁너무	-8.00827
▁니가	-8.00946
▁내용	-8.01022
▁우덜	-8.01107
▁피	-8.01148
건	-8.01215
▁않은	-8.01433
▁약	-8.01452
▁일이	-8.01536
▁분	-8.01569
o	-8.01667
▁경험	-8.0182
▁된	-8.01934
터	-8.02069
모	-8.02079
▁S	-8.02105
▁됩니다잉	-8.02108
▁7	-8.02379
지는	-8.02444
▁고객	-8.02551
▁수업	-8.02993
▁첫	-8.03262
레	-8.03461
▁버스	-8.03643
음	-8.03715
▁해야	-8.03872
란	-8.0389
▁스	-8.03909
▁아니	-8.03938
▁발	-8.04025
했어라	-8.0407
▁양	-8.04291
▁사람들이	-8.04407
▁없	-8.04588
다가	-8.04615
▁이런	-8.04822
▁작업	-8.04995
회	-8.05148
▁위	-8.05668
▁게임	-8.05679
▁가는	-8.05736
어요잉	-8.05905
간	-8.06223
▁되는	-8.06247
▁동	-8.06551
▁연구	-8.06605
▁이유는	-8.07045
-	-8.07219
▁배송	-8.07441
▁적	-8.07694
중	-8.07994
형	-8.08161
▁그짝	-8.08224
여라	-8.08429
린	-8.0848
유	-8.085
▁방법	-8.0871
▁있어요잉	-8.08724
다니께요	-8.08808
▁서로	-8.08871
▁단	-8.09075
▁이야기	-8.09086
▁문제가	-8.09091
으믄	-8.09155
혔어요잉	-8.09217
C	-8.09325
했당께요	-8.09352
운	-8.09449
▁허지만	-8.09548
엔	-8.09582
▁생산	-8.10437
타	-8.1058
▁여자	-8.10617
▁꼭	-8.10653
▁계획	-8.10959
▁방문	-8.11158
파	-8.11249
▁변경	-8.11495
▁전화	-8.11539
행	-8.11672
▁그녀는	-8.11723
▁아닌	-8.12215
▁20	-8.12306
▁남	-8.12375
▁도착	-8.12477
▁그짝이	-8.12811
▁8	-8.1293
D	-8.13052
a	-8.13203
도록	-8.1328
▁개발	-8.13296
1	-8.13364
피	-8.13478
학	-8.13621
▁때문에	-8.13706
▁연	-8.13783
▁학교	-8.1403
됩니다잉	-8.14148
▁필요한	-8.14231
▁일본	-8.14519
허기	-8.14635
▁감사	-8.14647
▁있다고	-8.14969
▁시간을	-8.1501
▁관련	-8.15017
▁파	-8.15316
▁온	-8.15474
▁맞	-8.15535
▁발생	-8.15741
브	-8.15835
무	-8.16021
▁그런	-8.16056
▁같아야	-8.16372
티	-8.16422
▁장	-8.16484
권	-8.16708
S	-8.17145
금	-8.17191
발	-8.17217
▁후에	-8.17273
M	-8.1757
▁앞으로	-8.17727
▁기술	-8.17817
▁일정	-8.17831
▁수도	-8.17853
▁행복	-8.17921
▁문화	-8.18019
▁지원	-8.18029
▁선택	-8.18075
믄서	-8.18479
▁여	-8.18505
공	-8.18612
하며	-8.18706
법	-8.18836
▁같	-8.1911
까	-8.19152
▁'	-8.19344
▁열	-8.19352
▁미국	-8.19621
▁강	-8.19766
▁길	-8.19787
심	-8.19993
되지	-8.2008
▁허	-8.20165
이여라	-8.20199
▁비용	-8.20214
계	-8.20498
되	-8.20551
있	-8.20596
▁의미	-8.20708
져	-8.2073
▁설명	-8.20796
이라는	-8.20856
▁삶	-8.21
3	-8.21004
▁물	-8.21254
▁한번	-8.21308
생	-8.21492
▁그것	-8.21509
▁그녀	-8.21933
▁중국	-8.22005
▁C	-8.2209
▁샘플	-8.22189
▁매	-8.22369
이랑께요	-8.22383
▁처음	-8.22432
당께요잉	-8.2254
연	-8.23032
▁메일	-8.23063
▁부분	-8.23376
▁중요한	-8.2375
▁영향	-8.24091
▁사람들은	-8.24139
▁교육	-8.24163
▁혀요잉	-8.24253
▁서	-8.24468
▁있다는	-8.24544
▁남자	-8.2462
▁네가	-8.24724
▁좋아하는	-8.24813
▁곳	-8.25025
력	-8.25209
경	-8.25286
더	-8.25327
역	-8.25628
▁9	-8.25754
▁필요	-8.25847
▁쪼깨	-8.25886
▁그럼	-8.26069
▁같습니다잉	-8.26102
▁잡	-8.26203
▁있게	-8.26279
입	-8.26279
달	-8.26482
▁번째	-8.26644
▁허벌나게	-8.26725
▁전달	-8.26958
▁또는	-8.27152
▁있습니다	-8.27264
▁프로그램	-8.27281
▁없이	-8.27444
든	-8.27734
▁않았	-8.27954
▁예	-8.27987
▁되어	-8.28105
▁속	-8.28354
▁해당	-8.28835
▁뒤	-8.2887
▁총	-8.28931
감	-8.2899
▁팀	-8.29066
▁각	-8.29183
▁사실	-8.29314
▁거여라	-8.29329
▁우	-8.29347
두	-8.29419
▁호텔	-8.29448
▁받을	-8.29665
▁나라	-8.29667
▁않을	-8.29803
E	-8.29822
버	-8.302
▁사람들	-8.30321
료	-8.30408
▁모습	-8.30522
▁명	-8.30868
▁30	-8.30905
▁심	-8.30977
색	-8.31085
▁열심히	-8.31128
▁들	-8.31221
▁니	-8.31226
포	-8.31315
▁눈	-8.31341
""	-8.31395
▁적용	-8.31457
▁개인	-8.31467
▁성	-8.31501
▁같아요잉	-8.31946
i	-8.32055
속	-8.32067
▁혀요	-8.32106
▁이미	-8.32156
▁어느	-8.32168
▁아무	-8.32325
매	-8.32349
허지	-8.32394
▁포	-8.32789
▁얘기	-8.32816
▁산	-8.33385
▁있기	-8.33392
기를	-8.33772
▁피부	-8.34433
온	-8.3477
▁표현	-8.34803
s	-8.34815
즈	-8.35129
▁항시	-8.35268
▁가족	-8.35277
직	-8.35314
▁여기	-8.3542
▁한국에서	-8.35461
하지라	-8.35569
▁쪼까	-8.35604
▁되고	-8.35729
케	-8.35861
죠잉	-8.35932
4	-8.3618
▁경	-8.36267
I	-8.3663
▁있어서	-8.36712
양	-8.36792
▁자기	-8.3697
들과	-8.37441
▁싶은	-8.3751
쇼잉	-8.37545
등	-8.37632
▁있나요잉	-8.37677
T	-8.37965
증	-8.38159
류	-8.38189
▁대부분	-8.38197
▁위해서	-8.3849
▁결정	-8.38498
▁가능	-8.38548
하도록	-8.38728
호	-8.3879
▁싶	-8.38844
▁부탁	-8.39433
▁수정	-8.39646
▁있는지	-8.3969
▁아이	-8.39695
▁변화	-8.39749
▁12	-8.39865
▁제작	-8.40086
입니다	-8.40112
▁생활	-8.40189
량	-8.40196
▁실	-8.4037
▁때문이어라	-8.40584
▁외	-8.40636
▁나도	-8.40712
▁관계	-8.40803
▁손	-8.41038
▁하지	-8.4104
▁어찌케	-8.41133
긴	-8.41218
▁인해	-8.41257
m	-8.41377
▁가격	-8.41413
▁잠	-8.41467
▁결제	-8.416
겨	-8.41622
▁중에	-8.4192
▁P	-8.41933
/	-8.41986
▁어제	-8.42022
▁그가	-8.42022
▁그것은	-8.42093
P	-8.42099
날	-8.4214
▁모델	-8.4224
▁시방	-8.4226
▁가능한	-8.42301
었습니다잉	-8.4237
▁그림	-8.42414
B	-8.42553
▁목표	-8.42572
▁글	-8.42588
▁돈을	-8.42593
▁최고	-8.42837
▁알려	-8.43075
▁서류	-8.43321
▁허고	-8.43435
▁첨부	-8.43498
▁관리	-8.43599
교	-8.43612
▁것이랑께요	-8.43737
코	-8.43794
L	-8.43978
▁없습니다잉	-8.44028
▁계약	-8.44105
▁있당가요	-8.44185
▁처리	-8.44236
▁막	-8.44313
▁물건	-8.44424
▁것에	-8.44551
종	-8.44735
▁시험	-8.44779
인디	-8.4482
되고	-8.44872
판	-8.45254
▁고것	-8.45458
집	-8.45824
카	-8.45833
이라	-8.46009
▁있는디	-8.46033
▁빨리	-8.46121
었	-8.46198
▁사회	-8.46349
▁한국의	-8.46476
하신	-8.46576
▁새	-8.4658
했	-8.46582
5	-8.46583
▁상황	-8.46707
▁호	-8.46883
울	-8.46961
▁치	-8.47023
y	-8.47055
▁진	-8.47136
일에	-8.4716
저	-8.47203
O	-8.4722
불	-8.4725
▁국가	-8.47285
▁있당게	-8.4733
▁기능	-8.47561
▁부탁드립니다잉	-8.47619
▁이렇게	-8.4774
▁여러분	-8.47764
▁포함	-8.47806
▁업무	-8.47812
▁리	-8.47918
▁참여	-8.47937
▁파일	-8.47996
혔습니다	-8.48002
▁많	-8.48078
▁노	-8.48217
자가	-8.48317
헙니다	-8.48509
▁활동	-8.48529
▁만들어	-8.48869
▁초	-8.49045
▁있다	-8.49168
플	-8.49356
▁나를	-8.49359
▁코	-8.4942
▁테스트	-8.49431
근	-8.49495
살	-8.49525
▁화	-8.49558
R	-8.49587
급	-8.49793
▁찾아	-8.49798
▁유지	-8.49938
반	-8.5002
업	-8.50067
표	-8.50158
▁도움이	-8.50259
릴	-8.50392
▁한국에	-8.50417
▁말씀	-8.50843
▁원하는	-8.51097
했던	-8.51169
▁사람은	-8.51192
▁그로코롬	-8.51295
▁학생	-8.51528
▁D	-8.5165
▁좋을	-8.51714
▁소개	-8.5175
▁설치	-8.518
▁저의	-8.51965
▁방송	-8.52015
븐	-8.52062
층	-8.52113
▁해결	-8.52138
▁도시	-8.52166
▁인간	-8.52302
줄	-8.52424
▁카드	-8.52439
한당께요	-8.5249
▁혀	-8.52519
▁책	-8.52561
▁애	-8.52651
▁읎	-8.52684
▁먹	-8.52746
▁있다믄	-8.52796
▁헐	-8.52963
▁여행을	-8.5309
▁귀사	-8.53092
▁집에	-8.53124
루	-8.53297
▁지역	-8.53416
▁사진을	-8.53442
지라잉	-8.53527
배	-8.53573
...	-8.53576
▁시스템	-8.53802
▁발송	-8.5386
▁자료	-8.5398
작	-8.54002
▁자주	-8.54191
설	-8.54224
▁싶습니다잉	-8.54278
▁M	-8.54354
▁그리고	-8.54664
말	-8.54668
▁가서	-8.54696
"	-8.54699
▁발전	-8.54817
셨	-8.54837
▁기업	-8.5493
▁있으믄	-8.54982
▁음악	-8.54986
이며	-8.54987
석	-8.54995
▁대해서	-8.55064
▁항상	-8.55189
▁있어가꼬	-8.55282
▁선적	-8.55397
갈	-8.55435
▁관심	-8.55458
임	-8.55615
품	-8.55616
▁좋	-8.5574
헙니다잉	-8.5591
▁나와	-8.55917
▁쓰	-8.55967
▁타고	-8.55967
▁있어야	-8.56147
▁않습니다잉	-8.56155
▁받았	-8.56163
▁발표	-8.56166
▁문의	-8.56185
c	-8.56226
▁장소	-8.56234
▁과정	-8.56312
하믄서	-8.56541
▁건강	-8.56581
▁참말로	-8.56669
▁받아	-8.56733
이여	-8.56767
▁힘들	-8.5684
▁지난	-8.56893
▁말을	-8.56946
키	-8.56959
▁이름	-8.57055
려고	-8.57113
출	-8.57194
▁그들이	-8.5725
▁형	-8.57315
였	-8.57491
▁결과	-8.57549
로부터	-8.57569
t	-8.57698
때	-8.58066
▁것도	-8.58079
▁회의	-8.58177
▁기억	-8.58543
▁만나	-8.58644
n	-8.58695
박	-8.58775
▁존재	-8.58823
%	-8.58842
▁취소	-8.58856
▁광고	-8.59052
민	-8.59054
▁높은	-8.59149
▁기대	-8.59175
▁마지막	-8.59271
에도	-8.59443
▁행동	-8.59543
g	-8.59551
으면	-8.59587
▁당	-8.59709
▁하루	-8.59761
▁나헌테	-8.59966
▁그짝은	-8.59969
▁카메라	-8.5998
성을	-8.60047
▁카	-8.60389
▁당신을	-8.60518
▁몸	-8.60673
토	-8.60674
▁맨들어	-8.60746
▁성공	-8.60846
리는	-8.60973
..	-8.60974
블고	-8.61093
졌	-8.61176
▁추천	-8.61232
▁거랑께요	-8.61302
▁비행기	-8.61304
▁대학	-8.61347
▁E	-8.61421
▁작성	-8.61445
▁갔	-8.61478
▁선물	-8.61547
▁중요	-8.61548
통	-8.61605
▁김	-8.61677
▁11	-8.61857
▁인자	-8.61888
▁쉽게	-8.61952
각	-8.61959
본	-8.62191
▁"	-8.62278
l	-8.62311
▁직업	-8.62668
▁인터넷	-8.62789
▁없었	-8.63109
▁사업	-8.63382
▁나에게	-8.63438
니다잉	-8.63457
▁안에	-8.63539
너	-8.63651
▁관	-8.63705
난	-8.63839
▁하믄	-8.6402
▁알아	-8.642
▁이유	-8.64248
▁T	-8.64256
개의	-8.64336
▁서울	-8.6445
▁통	-8.64491
▁시장	-8.64704
강	-8.6491
노	-8.64954
▁영상	-8.65066
▁디	-8.65087
쪽	-8.65173
▁허벌라게	-8.65291
축	-8.65357
▁아침	-8.65559
락	-8.65582
인지	-8.6565
▁환경	-8.65675
▁문	-8.65725
▁요리	-8.65751
영	-8.6587
▁언제	-8.65879
000	-8.65895
d	-8.66045
▁기회	-8.66145
▁주쇼잉	-8.66147
▁특히	-8.66243
▁없어	-8.66478
▁요구	-8.66716
▁봐	-8.66729
▁F	-8.66828
냐	-8.66906
▁알려주	-8.66927
▁복	-8.67039
▁맛	-8.67187
▁오래	-8.67295
▁대화	-8.67338
▁있었	-8.67364
준	-8.6755
스트	-8.67557
▁잘못	-8.67558
▁우선	-8.67559
▁죽	-8.67589
격	-8.6761
브러요	-8.67662
▁요즘	-8.67705
별	-8.67752
u	-8.67793
▁어떻게	-8.68043
림	-8.68094
6	-8.68131
▁여그	-8.68139
약	-8.68291
록	-8.68346
▁성장	-8.68626
7	-8.68755
▁이메일	-8.68818
▁이것	-8.68828
친	-8.68918
절	-8.69
어요	-8.69128
▁여성	-8.69324
추	-8.69331
▁연결	-8.69379
덜	-8.69513
▁올	-8.70023
▁키	-8.70165
▁19	-8.70306
나요잉	-8.70343
▁얼마나	-8.70453
열	-8.70516
▁뭐	-8.70579
▁질문	-8.70739
대로	-8.70864
▁팔	-8.70864
른	-8.7089
▁등록	-8.71135
▁사람을	-8.71168
▁헙니다	-8.71192
▁답변	-8.71262
▁하기	-8.71263
▁자연	-8.71408
▁적이	-8.71412
▁주는	-8.7153
▁환불	-8.72035
▁있지만	-8.72243
▁약속	-8.72273
관한	-8.72354
인데	-8.72382
▁검토	-8.72428
▁돼	-8.72447
하실	-8.72524
다면	-8.72535
8	-8.72568
▁고려	-8.7261
랑께	-8.72655
립	-8.72884
▁싶어	-8.72979
▁얼마	-8.7306
브러	-8.73111
▁씨	-8.73158
▁운영	-8.73205
▁공급	-8.73247
▁지불	-8.73311
▁너는	-8.73612
가지	-8.73684
▁걱정	-8.73732
▁질	-8.73773
▁발견	-8.73801
▁종류	-8.73802
시믄	-8.73861
▁엄마	-8.73871
링	-8.73981
▁왔	-8.73988
팀	-8.74121
▁담	-8.74146
▁먹고	-8.74307
▁안전	-8.7431
▁언어	-8.74628
▁꿈	-8.74679
▁전체	-8.74989
▁제안	-8.75
▁이번에	-8.75138
▁한당께요	-8.75317
▁따라서	-8.75397
p	-8.75724
▁위치	-8.75885
혔	-8.75907
▁도움을	-8.75913
당가	-8.75921
▁놀	-8.76028
▁사고	-8.76097
▁면	-8.76117
▁없을	-8.76122
걸	-8.76145
▁허는	-8.76194
▁친구들	-8.76295
▁레	-8.76317
마다	-8.76355
▁미리	-8.76361
▁술	-8.76369
▁더욱	-8.76586
▁경기	-8.76601
렸	-8.76656
으며	-8.7674
▁가치	-8.76763
▁컴퓨터	-8.76787
한테	-8.76884
▁변	-8.76991
돼	-8.77022
▁들어가	-8.77098
▁되었습니다잉	-8.77187
▁그러	-8.77251
▁혼자	-8.77404
▁진짜	-8.77407
▁그때	-8.77568
▁않아	-8.7777
▁제품은	-8.77777
▁가게	-8.77811
▁100	-8.77926
▁의해	-8.78069
▁가고	-8.78077
▁받고	-8.78292
▁""	-8.78371
▁제품이	-8.78378
▁사이	-8.7838
▁의견	-8.78445
기도	-8.78467
▁대표	-8.78499
▁차이	-8.78548
지를	-8.78594
▁위험	-8.78617
▁H	-8.78658
쳐	-8.78728
▁저녁	-8.78752
해주쇼잉	-8.78818
▁작품	-8.7888
천	-8.78937
▁베	-8.79039
▁프로젝트	-8.79084
▁좋겠	-8.79099
이에요잉	-8.79115
▁보믄	-8.7923
▁당신에게	-8.7927
들헌테	-8.79411
▁분석	-8.79507
액	-8.79521
헌티	-8.79714
▁지급	-8.79788
까요잉	-8.79853
▁브랜드	-8.79885
▁먹는	-8.79982
▁결혼	-8.79983
▁신청	-8.80117
▁배우	-8.8015
▁해외	-8.80151
F	-8.80207
▁가진	-8.80412
▁그냥	-8.80422
▁친구들과	-8.8064
▁부족	-8.80755
▁보는	-8.80797
▁공유	-8.80801
▁능력	-8.80819
▁작은	-8.80819
▁끝	-8.80856
이기	-8.80861
▁지하철	-8.8089
▁노래	-8.81057
▁것이여라	-8.81075
▁생	-8.81075
하시믄	-8.81345
▁되지	-8.81541
▁메시지	-8.81571
▁G	-8.8159
▁자리	-8.81612
▁만들	-8.81773
▁사용할	-8.81834
▁말고	-8.81868
▁공간	-8.82167
▁때는	-8.82198
복	-8.82474
▁귀	-8.82551
▁책을	-8.82596
▁15	-8.82597
▁당신헌테	-8.82687
▁제일	-8.82692
▁완료	-8.82835
▁우리나라	-8.82864
▁보여	-8.82898
▁전통	-8.82992
▁바라	-8.83115
▁머리	-8.83208
▁준	-8.83295
▁해가꼬	-8.83345
▁왜냐허믄	-8.83505
▁돈	-8.83612
항	-8.8369
er	-8.83848
▁봤	-8.83945
▁기간	-8.84003
▁버	-8.84147
▁모르	-8.84295
▁증가	-8.84295
▁커피	-8.84406
▁평가	-8.84448
▁상태	-8.84555
이랑	-8.84791
주쇼잉	-8.84939
제라	-8.85036
▁기존	-8.85066
니까	-8.8507
론	-8.85159
▁감	-8.85311
▁검사	-8.85661
자는	-8.85723
9	-8.8594
혀야	-8.85956
창	-8.85991
▁일반	-8.86009
하려고	-8.86013
▁식사	-8.86121
▁받은	-8.86162
▁먹을	-8.86324
▁얼굴	-8.8637
하였습니다잉	-8.86389
군	-8.86431
▁개선	-8.86512
▁제출	-8.86727
▁순간	-8.86842
▁채	-8.87104
▁밤	-8.87204
달러	-8.87266
▁마케팅	-8.87267
▁건물	-8.87325
▁매일	-8.87343
▁사는	-8.8747
▁질로	-8.87494
▁법	-8.87572
봤	-8.87588
하거나	-8.87597
▁투자	-8.87773
해갖고	-8.87847
니께	-8.87902
▁수량	-8.87983
▁거래	-8.88288
▁만	-8.88349
라믄	-8.88428
런	-8.88516
▁대신	-8.88713
▁오늘은	-8.88715
면서	-8.8873
결	-8.88868
시에	-8.88932
주의	-8.88941
▁예상	-8.89026
태	-8.89056
▁아마	-8.8921
▁예를	-8.89212
▁국	-8.89312
▁커	-8.89406
▁용	-8.8942
▁사이즈	-8.89579
▁취	-8.89633
들에게	-8.89657
▁업체	-8.89736
편	-8.89764
▁충분	-8.89859
팅	-8.8988
▁오후	-8.90083
▁잔	-8.90118
▁제품의	-8.90227
볼	-8.90255
▁거리	-8.90314
▁번역	-8.90327
되었습니다잉	-8.90464
▁누군가	-8.90474
투	-8.90548
▁토	-8.90599
▁앱	-8.90696
▁최선	-8.90964
▁집에서	-8.90969
름	-8.9099
▁할인	-8.91187
지도	-8.91197
▁요것은	-8.91308
▁예정	-8.91343
▁최근	-8.91367
▁이제	-8.91406
▁데이터	-8.91411
▁일부	-8.91431
▁감정	-8.91479
개월	-8.91592
▁설정	-8.91679
▁선생님	-8.91752
▁생각합니다잉	-8.91774
어서	-8.91873
▁아니믄	-8.91877
▁표	-8.91975
▁옷	-8.92094
▁땀시	-8.92148
기는	-8.92225
▁참	-8.92285
▁색	-8.92297
!	-8.92354
▁보호	-8.92376
▁각각	-8.92389
▁보낸	-8.92396
▁돌	-8.92481
해주	-8.92574
▁주소	-8.92635
▁확인해	-8.92726
합니다	-8.92741
▁있었습니다잉	-8.92798
▁완전	-8.92851
▁최대한	-8.92894
씨	-8.92941
주는	-8.92952
있는	-8.92968
▁물론	-8.93099
▁이미지	-8.93139
초	-8.9325
▁직	-8.93257
▁많아	-8.93337
▁고민	-8.93408
▁보이	-8.93411
으로부터	-8.93501
▁만족	-8.93515
▁외국인	-8.93533
▁R	-8.9361
▁곧	-8.9389
▁되믄	-8.94099
▁주변	-8.94238
00	-8.94306
h	-8.9432
담	-8.94485
▁시간에	-8.94498
▁집중	-8.94532
▁보통	-8.94599
▁됐	-8.94666
목	-8.94814
▁어디	-8.94835
▁놓	-8.94856
외	-8.94881
했는디	-8.94881
▁백	-8.94887
습	-8.94961
후	-8.94971
▁포장	-8.95022
▁되었	-8.95106
▁수행	-8.9529
▁구조	-8.95295
▁크	-8.95381
▁N	-8.95414
▁받는	-8.95423
▁졸업	-8.95426
▁앞	-8.95444
처	-8.95529
씩	-8.95562
▁생각이	-8.9575
하면	-8.95818
▁과제	-8.9582
겠	-8.95833
합	-8.95881
럽	-8.9591
▁정부	-8.96172
▁마음	-8.9621
▁메뉴	-8.96473
▁혹은	-8.96481
▁와	-8.96552
▁친	-8.96588
▁그룹	-8.96669
▁전문	-8.96753
▁참고	-8.96802
▁따로	-8.96926
▁거의	-8.96959
▁보낼	-8.96996
▁있으며	-8.97043
▁기계	-8.97082
▁뜻	-8.97085
▁가야	-8.97186
▁밀	-8.97204
지고	-8.97216
▁활용	-8.97239
커	-8.97337
▁둘	-8.97352
▁만큼	-8.97451
▁급	-8.97464
▁따른	-8.97479
▁은행	-8.97587
k	-8.97655
▁알게	-8.97746
▁계	-8.97968
▁결국	-8.97995
▁성격	-8.98001
▁이후	-8.9805
언	-8.9816
한다믄	-8.98257
퍼	-8.98297
딩	-8.98716
▁구성	-8.98722
▁위해서는	-8.98764
▁관련된	-8.9879
▁L	-8.9888
니다	-8.98942
▁꿈을	-8.9895
▁요것	-8.98969
▁유명한	-8.99097
▁감사합니다잉	-8.99189
▁밥	-8.99236
▁이동	-8.99292
기에	-8.99412
▁있지	-8.99458
더라도	-8.99557
션	-8.99572
▁분야	-8.99595
▁나서	-8.99653
▁추	-8.99833
드리	-8.99883
▁갖	-8.99889
▁아버지	-8.99995
들에	-9.001
▁아이들	-9.00227
킹	-9.00242
▁달라	-9.00295
칠	-9.00297
곤	-9.0073
▁K	-9.00781
테	-9.00817
▁방식	-9.00971
▁재고	-9.00974
▁병	-9.00996
▁부모님	-9.01001
셔서	-9.011
는지	-9.01343
에서도	-9.01429
▁가방	-9.01613
▁지나	-9.0177
▁조사	-9.01872
▁있당께요잉	-9.01929
▁접	-9.02013
왔	-9.02172
N	-9.02384
▁표시	-9.02426
보다는	-9.02476
병	-9.02519
▁가끔	-9.02604
▁천	-9.02849
▁교	-9.02861
▁국제	-9.02965
▁크게	-9.03095
▁보기	-9.03099
현	-9.03112
▁책임	-9.03192
했고	-9.0321
망	-9.03223
▁자신이	-9.03369
▁영국	-9.03416
▁메	-9.03583
다니께	-9.03639
▁치료	-9.03935
▁식	-9.03983
▁효과	-9.04101
디요	-9.04149
▁핸드폰	-9.04178
예	-9.0423
환	-9.04387
▁안내	-9.04451
먹	-9.04524
▁금	-9.04547
탄	-9.04558
▁끼	-9.0456
▁문서	-9.04596
▁수가	-9.04618
거리	-9.04779
라도	-9.04917
▁안녕하쇼잉	-9.04992
▁깨	-9.04995
착	-9.05322
해요잉	-9.05506
▁기분이	-9.05531
▁새로	-9.05656
됐	-9.05718
▁그녀가	-9.05815
▁악	-9.05912
백	-9.05916
하겄습니다잉	-9.05972
▁있당께	-9.05996
▁일단	-9.06187
받	-9.06189
한다고	-9.0626
▁생각을	-9.06266
하였	-9.06544
▁사건	-9.06565
▁저헌테	-9.06705
▁누	-9.06721
▁정리	-9.06727
▁한다고	-9.06775
▁군	-9.06812
▁딸	-9.06886
하지만	-9.06922
▁방법이	-9.07046
▁영	-9.07091
능	-9.07168
성이	-9.07259
▁들었	-9.07283
▁목	-9.0735
▁관해	-9.07387
▁직원	-9.07413
▁사항	-9.07424
올	-9.07554
▁행사	-9.07699
▁경제	-9.07754
▁금액	-9.0783
▁일어나	-9.07909
드립니다잉	-9.07983
되었	-9.08092
▁누구	-9.08105
▁가능성	-9.08114
▁비교	-9.08248
했을	-9.08257
▁인천	-9.08319
▁성적	-9.08354
▁써	-9.08371
쯤	-9.08473
▁국내	-9.08595
▁순	-9.08644
할라고	-9.0867
G	-9.08783
▁근	-9.08803
▁형태	-9.08835
▁없당께요	-9.08881
▁보내주	-9.09061
▁좋았	-9.09103
▁학생들	-9.09108
▁개의	-9.09242
▁보냈	-9.09255
▁예정입니다잉	-9.09263
되믄	-9.09264
스러운	-9.09384
▁근디	-9.09473
학년	-9.09483
▁평	-9.09488
▁원래	-9.09578
▁세상	-9.09601
▁스스로	-9.09668
▁택시	-9.09672
▁빠른	-9.09674
▁소리	-9.09687
▁당신과	-9.0972
청	-9.09777
▁곳이	-9.09879
막	-9.09936
셔	-9.09937
▁온라인	-9.09962
▁장비	-9.10185
▁카페	-9.10243
▁무슨	-9.10264
해갖꼬	-9.10379
▁느낌	-9.10453
▁드	-9.10496
▁교수님	-9.10517
▁마지막으로	-9.10595
▁생각에	-9.10596
▁바다	-9.10618
0	-9.10632
▁사이트	-9.10657
▁동물	-9.10745
x	-9.10926
▁사람들을	-9.10935
▁못한	-9.10946
▁왕	-9.11006
▁인기	-9.11082
겄습니다잉	-9.11141
▁재료	-9.11168
▁역시	-9.11263
▁미래	-9.11264
▁어렵	-9.11283
해블	-9.11294
▁부분이	-9.11355
▁업데이트	-9.11372
V	-9.11382
집니다잉	-9.11742
▁기록	-9.11742
▁기준	-9.11848
▁학	-9.1194
▁짐	-9.11976
감을	-9.1201
▁살아	-9.12185
▁청	-9.12251
▁때문입니다잉	-9.12265
▁향	-9.12303
▁딴	-9.1236
▁삼	-9.124
▁몰	-9.12476
)	-9.12527
▁자동차	-9.12552
▁유명	-9.1263
▁대로	-9.12869
▁계정	-9.12894
▁신경	-9.12907
▁크기	-9.12954
▁것처럼	-9.12962
▁매우	-9.12963
동안	-9.13178
▁역	-9.13336
▁아름다운	-9.13402
▁사용하는	-9.13557
억	-9.13625
▁이야기를	-9.1365
▁괜찮	-9.13666
▁겁니다잉	-9.13724
▁저도	-9.13751
▁공연	-9.13792
▁아주	-9.13828
▁나오는	-9.13905
놓	-9.13991
로서	-9.14034
▁식당	-9.14053
▁가정	-9.14076
레이	-9.14131
▁승인	-9.14185
▁같은디	-9.14348
부러	-9.14351
▁받지	-9.14388
▁라	-9.1445
▁되기	-9.14557
▁암	-9.14565
▁조건	-9.1457
보고	-9.14587
▁일찍	-9.14594
▁넣어	-9.14703
▁맞는	-9.14799
▁체	-9.14885
▁부담	-9.14956
▁창	-9.15047
세요잉	-9.15069
해보	-9.15133
▁인상	-9.15156
▁분위기	-9.15176
▁박	-9.15183
▁있을까요잉	-9.15269
▁풀	-9.15327
▁있는데	-9.15364
기가	-9.15494
▁광	-9.15501
▁제시	-9.15526
▁입금	-9.15661
▁돌아	-9.15707
했습니다잉	-9.15748
쳤	-9.15772
▁환자	-9.15849
▁탈	-9.15868
▁따	-9.15994
하다고	-9.16061
▁지가	-9.1608
▁만드는	-9.16092
▁넘	-9.16347
▁만든	-9.16423
애	-9.1645
b	-9.16524
▁가능합니다잉	-9.16557
▁자체	-9.16591
▁축제	-9.1668
▁관심이	-9.16751
▁200	-9.16758
▁내려	-9.16765
▁자유	-9.16838
▁역사	-9.16876
▁최종	-9.16933
▁반드	-9.16964
▁손님	-9.16974
▁‘	-9.17001
▁싶당께요	-9.17023
적이	-9.17056
▁생각해	-9.17189
▁마음을	-9.17271
▁아이템	-9.17288
해도	-9.17293
in	-9.17503
▁우리헌테	-9.17545
독	-9.17661
율	-9.17728
헌당께요	-9.1775
▁입장	-9.17966
꺼	-9.18087
▁조직	-9.18194
▁인보이스	-9.182
향	-9.18233
▁만날	-9.18243
▁과거	-9.18269
▁공장	-9.18392
벌	-9.18468
▁헌당께요	-9.18542
▁위에	-9.18545
▁특별한	-9.18564
▁보이는	-9.1858
▁주제	-9.18626
뿐만	-9.18647
▁입고	-9.18652
▁향상	-9.18667
▁것과	-9.18671
련	-9.18746
▁꽃	-9.18802
▁맛있는	-9.18814
▁그려	-9.18833
▁별	-9.18834
갔	-9.18855
었어라	-9.19065
▁산업	-9.19074
▁필요가	-9.19082
▁연습	-9.19164
▁목적	-9.1929
술	-9.19354
w	-9.19406
▁단어	-9.19409
K	-9.19417
▁떠나	-9.19425
▁추억	-9.1945
▁트	-9.19486
▁미팅	-9.19492
▁좋지	-9.19511
▁벌	-9.19544
r	-9.19653
▁내부	-9.19655
▁제거	-9.19706
▁전공	-9.19734
▁18	-9.19741
▁나머지	-9.19749
슬	-9.19772
▁제품에	-9.19833
▁브	-9.19846
▁올해	-9.19893
봐	-9.20096
▁현실	-9.20108
▁추가로	-9.20477
▁하지라	-9.205
▁울	-9.205
▁도전	-9.20524
▁페	-9.20643
▁알았	-9.20688
▁맞춰	-9.20689
▁느낄	-9.20689
클	-9.20691
▁수준	-9.20735
▁고등학교	-9.20764
▁하는데	-9.2078
▁가져	-9.20828
▁출장	-9.20874
▁웃	-9.20908
▁했는디	-9.20909
이란	-9.20931
랑가	-9.21056
십	-9.21056
라잉	-9.21252
밀	-9.21274
▁증	-9.21348
메	-9.2135
▁걸어	-9.21393
압	-9.2163
▁이벤트	-9.21638
▁컬러	-9.21639
▁거예요잉	-9.21654
▁판단	-9.21678
▁드리	-9.218
▁하는디	-9.2182
▁스타일	-9.21829
▁힘든	-9.21997
머	-9.22014
▁수입	-9.22019
▁V	-9.22244
움	-9.22258
▁보았	-9.22276
새	-9.2228
▁어려운	-9.2229
▁나중에	-9.2232
년에	-9.2234
듯	-9.22447
▁희망	-9.226
브렀	-9.22722
▁결	-9.2275
on	-9.22787
▁했당께요	-9.22799
력을	-9.22844
▁50	-9.22853
▁늘	-9.22902
치는	-9.22946
혔어요	-9.22987
▁종	-9.23113
사를	-9.23205
▁갑자기	-9.2324
▁어린	-9.23359
▁버전	-9.2337
▁여그서	-9.23386
▁오전	-9.23415
▁번호	-9.23416
적이고	-9.23422
시켜	-9.23476
▁오는	-9.23494
이지라잉	-9.23507
혔던	-9.23523
▁독일	-9.23533
하시는	-9.23563
▁시도	-9.2358
가요	-9.23611
▁알려주쇼잉	-9.23636
▁넣	-9.23731
▁그래도	-9.23822
▁것이라고	-9.23882
▁항	-9.23883
▁품질	-9.23917
▁응	-9.23922
▁주요	-9.24045
▁생일	-9.24133
▁살고	-9.24148
▁절	-9.24211
▁색상	-9.24212
▁스포츠	-9.24215
▁긍정적	-9.24221
▁측정	-9.24253
▁대해가꼬	-9.2426
▁듣고	-9.24405
▁회	-9.24415
▁정확한	-9.24454
▁기본	-9.24467
▁사용자	-9.24478
개를	-9.24529
▁특정	-9.24586
▁계산	-9.24599
▁번째로	-9.2467
▁한국어	-9.24681
명이	-9.24699
되어야	-9.24729
▁선수	-9.24838
극	-9.24924
▁미안	-9.24971
▁어떠한	-9.25019
▁주로	-9.25046
▁W	-9.25048
▁검	-9.25074
▁리스트	-9.251
▁나오	-9.2511
▁방법은	-9.25127
▁굉장	-9.25198
▁회사는	-9.25255
▁인생	-9.2528
▁싸	-9.25466
▁않으믄	-9.25473
▁쉬	-9.25601
▁인형	-9.25659
▁병원	-9.25675
W	-9.25679
디요잉	-9.25714
▁항공	-9.25742
▁도와주	-9.25788
▁정신	-9.25853
▁교환	-9.2587
▁느껴	-9.2593
족	-9.25981
▁지구	-9.26044
▁해주	-9.26069
글	-9.26085
an	-9.26118
▁실제	-9.26224
잡	-9.26299
▁있으	-9.26362
▁나온	-9.26416
▁입력	-9.26418
▁학교에	-9.2656
▁이전	-9.26628
광	-9.26652
▁공항	-9.26673
▁단계	-9.26795
되기	-9.26848
▁촬영	-9.26859
▁어찌게	-9.26927
월에	-9.26995
▁받	-9.27025
▁40	-9.27125
▁와서	-9.27165
▁대학교	-9.27189
▁즐기	-9.27205
▁북	-9.27232
▁빈	-9.27257
▁다음에	-9.27267
▁주고	-9.27307
사가	-9.27311
▁모양	-9.27327
까잉	-9.27401
▁날짜	-9.27477
▁주에	-9.27507
▁실험	-9.27532
▁넘어	-9.27549
▁유럽	-9.27613
▁현대	-9.27627
▁생각하는	-9.27711
▁송금	-9.27716
▁절대	-9.27767
▁중에서	-9.27826
▁최대	-9.27905
▁소통	-9.27952
침	-9.27965
▁위혀서	-9.27993
▁팬	-9.28103
▁귀하	-9.28146
시는	-9.28181
▁자세	-9.28192
핑	-9.28202
▁폭	-9.28314
▁원인	-9.28384
채	-9.28434
▁보관	-9.28539
자의	-9.28546
▁프랑스	-9.28549
▁필요합니다잉	-9.28791
들도	-9.28826
▁출	-9.28836
▁비즈니스	-9.2889
해브러요	-9.28914
▁잡습니다	-9.28984
▁기분	-9.29048
▁나이	-9.29066
따	-9.29093
▁입학	-9.29094
이지만	-9.29113
▁음	-9.2916
▁의사	-9.29165
~	-9.29231
▁드라마	-9.29233
▁반응	-9.29249
▁아빠	-9.29259
변	-9.29299
▁합니다	-9.29364
▁진정	-9.29384
평	-9.29412
▁생각혀요	-9.2953
▁아는	-9.29742
령	-9.29781
해줄	-9.29846
▁기회가	-9.29866
▁인식	-9.29894
▁쓸	-9.29984
▁상황이	-9.30047
▁되지라	-9.30072
줘	-9.30133
▁지금은	-9.3017
H	-9.30222
힌	-9.30267
▁절차	-9.30315
▁전략	-9.30316
뿐	-9.30395
▁말이	-9.3051
▁환전	-9.30648
▁가믄	-9.30687
께서	-9.30933
▁지식	-9.30943
▁페이지	-9.31046
▁망	-9.31201
이라도	-9.31223
븐당께요	-9.31226
▁운송	-9.31319
었당께요	-9.31466
더라	-9.31533
▁나무	-9.31588
▁너희	-9.31694
하고자	-9.31702
▁회신	-9.31736
▁독	-9.31738
▁파티	-9.31756
책	-9.31876
▁붙	-9.31913
▁돌아가	-9.31961
찰	-9.31973
다니	-9.31975
▁그것이	-9.31989
▁경찰	-9.32001
▁멋진	-9.32015
▁즐길	-9.32016
▁읽	-9.3203
▁경쟁	-9.3207
▁된다믄	-9.32113
▁제한	-9.32119
▁주시기	-9.32228
낸	-9.32306
▁불편	-9.32318
순	-9.32348
▁힘	-9.32374
▁완성	-9.32423
▁정책	-9.32475
수록	-9.32693
▁적어	-9.32754
▁옆에	-9.32918
▁하겄습니다잉	-9.3299
혔고	-9.33066
▁담당자	-9.33126
만큼	-9.33145
▁도와	-9.33155
▁있던	-9.33167
녀	-9.33183
▁피해	-9.33185
▁기다리	-9.33382
탕	-9.33428
▁요소	-9.33442
▁없고	-9.3349
▁오더	-9.33591
허지라	-9.33597
▁민	-9.33671
▁0	-9.33731
▁단지	-9.33747
븐다	-9.33777
▁휴가	-9.3382
▁인사	-9.33837
▁가격이	-9.3396
▁마치	-9.33961
▁연락을	-9.34072
▁것보다	-9.34141
▁즈그	-9.34157
10	-9.34162
▁축구	-9.34163
▁갖고	-9.34169
▁짧	-9.3417
▁접근	-9.34183
▁앞에	-9.34194
▁녹	-9.34238
죠	-9.34385
이지라	-9.34392
U	-9.34414
▁길이	-9.34452
▁부산	-9.34472
원이	-9.34488
네요	-9.34533
▁지속	-9.34604
▁때마다	-9.34631
▁투	-9.34631
▁위해가꼬	-9.34633
X	-9.34645
▁동의	-9.34647
▁특별	-9.34825
한다는	-9.34834
리고	-9.34859
봉	-9.34889
▁없어라	-9.3492
▁최근에	-9.3496
▁예술	-9.34977
▁학습	-9.35088
▁같어라	-9.35158
▁그건	-9.35178
▁올리	-9.35204
일까지	-9.35224
▁계좌	-9.35249
▁곳에	-9.35285
돌	-9.35287
짝	-9.35316
베	-9.35363
▁박스	-9.35365
택	-9.35419
▁농	-9.35426
▁해도	-9.35553
▁역할을	-9.35621
▁참석	-9.35637
▁돈이	-9.35641
▁없다고	-9.35657
쇼	-9.35661
▁에너지	-9.35716
기로	-9.35733
▁고객님	-9.35767
▁있었당께요	-9.35777
스를	-9.3596
▁해요잉	-9.35968
하셨	-9.36007
▁싶었	-9.36021
▁했어라	-9.36084
겠습니다잉	-9.36268
츠	-9.3634
▁특징	-9.36342
▁빠르게	-9.36393
▁직장	-9.36504
▁결과를	-9.36514
or	-9.36594
송	-9.36621
▁물품	-9.36623
▁바꾸	-9.36685
▁드립니다잉	-9.36753
▁뒤에	-9.36907
▁인정	-9.37021
▁관광	-9.37122
▁주의	-9.37196
▁소비자	-9.37203
▁합	-9.37216
덜이	-9.37243
▁몰라	-9.37269
찌	-9.37277
▁빛	-9.3739
▁시대	-9.37427
혈	-9.37451
▁사무실	-9.37451
라니께요	-9.37452
▁마시	-9.37573
▁인도	-9.37734
해주는	-9.37848
▁맴	-9.37852
셔야	-9.37901
▁해서	-9.37966
었던	-9.38086
드려	-9.38163
(	-9.38199
▁따뜻	-9.38201
▁주인공	-9.38216
▁설계	-9.38223
▁회사에서	-9.38287
▁J	-9.3833
▁옷을	-9.38333
▁당시	-9.38335
리를	-9.38388
v	-9.38391
▁일은	-9.38423
▁싶어요잉	-9.38487
▁캐	-9.38522
▁얻을	-9.38575
▁스마트폰	-9.38577
▁침	-9.38594
▁청소	-9.38918
▁예정이	-9.3893
싱	-9.38952
▁육	-9.38966
▁홍보	-9.38994
▁별로	-9.38997
▁드릴	-9.39034
▁고객이	-9.39072
▁중인	-9.39122
▁U	-9.39181
끼	-9.3919
▁대체	-9.39218
▁정도로	-9.39273
▁장면	-9.39275
▁가까운	-9.39331
▁실패	-9.39353
▁퍼	-9.3943
▁있당가	-9.39543
맨	-9.3957
▁참가	-9.39585
▁했	-9.39622
되지라	-9.39636
까요	-9.39699
▁혔습니다잉	-9.39705
▁늦게	-9.39711
▁쇼핑	-9.39714
▁견	-9.3982
자를	-9.3986
장이	-9.39873
▁출발	-9.40045
▁바람	-9.40116
▁동시에	-9.40157
▁찾	-9.40184
달라고	-9.40255
악	-9.4026
▁들고	-9.40297
사항	-9.40316
▁풍	-9.40349
▁그러나	-9.4039
탈	-9.40712
▁이슈	-9.40806
▁이유로	-9.40869
▁사이에	-9.40906
▁편안	-9.41012
▁임	-9.41036
▁찍어	-9.4108
▁실제로	-9.41097
으로써	-9.41137
▁제조	-9.41148
게요잉	-9.41148
▁실수	-9.4115
률	-9.41225
▁객실	-9.41248
▁어머니	-9.41264
주시길	-9.41337
▁점심	-9.41376
▁판	-9.41486
▁바꿔	-9.41634
▁활동을	-9.4181
▁제대로	-9.41846
▁찾을	-9.41883
▁주기	-9.42027
▁점이	-9.42236
승	-9.42257
취	-9.42274
▁지연	-9.4231
▁여전히	-9.42414
▁쓰는	-9.42436
트를	-9.42551
▁매장	-9.42638
▁궁금	-9.42754
▁클	-9.42782
▁답	-9.42788
인가요잉	-9.42904
▁싫어	-9.42946
▁편지	-9.42961
▁시절	-9.42968
▁아침에	-9.43095
▁스케줄	-9.432
십쇼잉	-9.4321
구나	-9.43234
▁월	-9.43292
▁작	-9.43326
범	-9.43569
브렀습니다	-9.43575
▁그렇다믄	-9.43595
▁지내	-9.43697
▁야	-9.43727
▁시각	-9.43769
▁다리	-9.43962
▁정상	-9.44007
▁회사에	-9.44159
▁헙니다잉	-9.44238
▁푸	-9.44272
▁출시	-9.44346
값	-9.44354
▁학교에서	-9.44361
▁불가능	-9.44416
▁대하여	-9.44446
시킬	-9.44573
냈	-9.4464
▁아마도	-9.44661
▁보여주	-9.44736
었다	-9.44784
▁여름	-9.44798
▁대회	-9.44947
▁편리	-9.45064
▁옆	-9.45094
▁이건	-9.45142
▁축하	-9.45199
▁하는지	-9.45211
▁특성	-9.45219
▁있지라잉	-9.45222
▁영업	-9.45223
회사	-9.45246
▁한국인	-9.45286
▁현장	-9.45309
▁곳에서	-9.45354
슨	-9.45435
했지라	-9.45474
필	-9.45607
▁현지	-9.45622
▁듯	-9.45661
주고	-9.45719
하길	-9.45744
▁주장	-9.45794
▁혔	-9.45796
▁열정	-9.45835
▁올라	-9.45898
▁반대	-9.45956
하는디	-9.45967
▁체험	-9.46
▁값	-9.46037
▁테	-9.46058
줍니다	-9.46101
▁약간	-9.46136
겄습니다	-9.46155
▁상상	-9.46162
▁가능하	-9.46206
▁수학	-9.46283
▁철	-9.46326
▁충	-9.46398
▁신뢰	-9.46412
▁무료	-9.46427
풍	-9.46428
▁화장실	-9.46431
▁근무	-9.4645
▁찍	-9.46464
▁그라믄	-9.46716
▁전혀	-9.46756
▁달리	-9.4676
었는디	-9.46779
▁전자	-9.46793
▁느꼈	-9.46815
▁동아리	-9.46816
▁고양이	-9.46819
▁언급	-9.46826
▁불량	-9.4688
▁전쟁	-9.46895
▁요금	-9.46915
▁달러	-9.46932
▁못할	-9.4702
▁부품	-9.47037
이트	-9.47045
▁칼	-9.47124
▁때부터	-9.47206
▁틀	-9.47261
▁된당께요	-9.47351
▁시간은	-9.47532
▁다니	-9.47537
겼	-9.4762
▁문제는	-9.47625
씬	-9.47636
▁늦어	-9.47636
▁마음이	-9.47672
쓰	-9.47689
함으로써	-9.4771
▁프로	-9.4771
▁실행	-9.4773
▁혔어요잉	-9.47783
텐	-9.48009
▁고맙	-9.48051
20	-9.48072
하면서	-9.48075
혔지만	-9.48087
▁지도	-9.48096
드릴게요잉	-9.48102
▁영어로	-9.48257
▁상대	-9.4829
번호	-9.48329
▁승	-9.48382
▁논의	-9.48386
▁사과	-9.48392
▁그대로	-9.48455
&	-9.48464
▁줍니다	-9.48476
▁친절	-9.48493
▁외국	-9.48521
▁먹어	-9.48532
▁생기	-9.48535
번째	-9.48576
▁다르	-9.48581
re	-9.48592
▁땅	-9.48662
▁배우고	-9.48877
▁콘텐츠	-9.48881
하기로	-9.49046
▁I	-9.49142
▁24	-9.49164
일이	-9.49238
▁TV	-9.49326
▁주실	-9.49357
▁머	-9.49386
▁가격을	-9.49488
▁같아	-9.49504
▁즉	-9.49516
킬	-9.49528
▁아직도	-9.49583
▁남은	-9.49601
▁16	-9.49627
▁연기	-9.49648
▁페이스북	-9.4972
빙	-9.4972
f	-9.49798
▁중심	-9.49847
▁사회적	-9.49869
▁존	-9.49877
▁일주일	-9.49938
하다	-9.49959
득	-9.49967
▁아래와	-9.50003
▁사람들과	-9.50017
▁인터뷰	-9.50141
▁훨	-9.50148
▁평균	-9.50151
▁파악	-9.50174
▁것이지라	-9.50185
▁반복	-9.50218
구만요잉	-9.50226
▁않도록	-9.50274
▁작동	-9.50302
▁한다는	-9.5034
▁분들	-9.50371
▁덕분에	-9.50566
▁규정	-9.50567
▁그러믄	-9.50573
▁패션	-9.50577
일부터	-9.50663
▁분명	-9.50674
▁여부	-9.507
화를	-9.50797
▁속에서	-9.50817
▁이전에	-9.50853
혀블고	-9.50938
▁올려	-9.50978
▁필리핀	-9.50991
람	-9.50991
▁그러니께	-9.51021
력이	-9.51096
패	-9.5111
▁말하는	-9.51222
▁포인트	-9.51322
▁나왔	-9.51348
▁몇몇	-9.51418
▁있은께	-9.5145
수를	-9.51541
지지	-9.51545
▁있었던	-9.51629
납	-9.51766
▁보내준	-9.51966
▁돌려	-9.52042
▁루	-9.52076
▁오랜	-9.52107
▁죄송	-9.52146
▁이는	-9.52153
▁현	-9.52214
여서	-9.52229
뿌	-9.52257
▁바탕으로	-9.52279
▁교체	-9.52346
▁있었어라	-9.52484
▁외부	-9.52497
대학교	-9.52514
▁맛있	-9.52627
▁그리	-9.52718
▁쪽	-9.52738
드리겠습니다잉	-9.52755
랑가요	-9.52809
▁화물	-9.53107
▁문자	-9.53143
▁탄	-9.53221
▁13	-9.53249
거슨	-9.53268
었지라	-9.53281
는디요	-9.53522
▁25	-9.53563
▁속도	-9.5361
줬	-9.53613
▁견적	-9.53722
시고	-9.53728
문화	-9.53737
▁보니	-9.53855
▁조정	-9.53888
▁친구와	-9.53916
▁높아	-9.54021
▁범죄	-9.54023
▁과학	-9.54024
▁생겼	-9.54038
▁협의	-9.54065
▁형성	-9.54072
▁가득	-9.54135
▁태	-9.5416
했어요잉	-9.54162
▁O	-9.54276
▁다양	-9.54298
▁거라고	-9.54349
▁학생들이	-9.54563
년간	-9.54567
▁묵	-9.54596
▁주신	-9.54662
제품	-9.54668
▁모르겠	-9.5474
▁당사	-9.54751
▁경험이	-9.54805
▁강화	-9.54825
▁패	-9.54905
는거	-9.54963
▁홀	-9.54987
▁것들을	-9.55058
▁주세요잉	-9.55064
▁그곳	-9.55082
▁같당께요	-9.55113
▁기사	-9.55121
ar	-9.55166
▁실력	-9.55203
▁행복한	-9.55262
▁필요하	-9.55339
▁마무리	-9.55349
▁검색	-9.55382
▁긴	-9.55437
▁선호	-9.55479
물을	-9.55489
▁될까요잉	-9.555
▁하며	-9.55535
손	-9.5561
음을	-9.55618
▁청구	-9.55648
▁시켜	-9.55659
려믄	-9.55729
▁이후에	-9.55762
▁캐릭터	-9.55795
▁강아지	-9.55799
▁목소리	-9.55803
▁거라	-9.55818
▁직원들	-9.55841
▁어디서	-9.55844
al	-9.55865
▁싶은데	-9.55914
▁인증	-9.55925
▁때문이	-9.56015
장에	-9.56066
▁자재	-9.56077
▁먹었	-9.56167
▁본인	-9.56198
롭	-9.56217
▁통해서	-9.56235
▁언제든	-9.56238
▁웹사이트	-9.56244
▁찾고	-9.56279
▁착용	-9.56284
▁배울	-9.56358
▁아이디어	-9.56361
▁종이	-9.56373
사는	-9.56433
▁특	-9.56519
▁안정	-9.56632
▁최소	-9.56637
▁보상	-9.56728
▁모르는	-9.56751
자들은	-9.56779
▁운전	-9.56849
▁것인지	-9.56853
였어라	-9.5694
협	-9.57055
▁하나요잉	-9.57096
▁통화	-9.57105
렌	-9.5712
었고	-9.57157
▁생긴	-9.57197
▁월요일	-9.57244
충	-9.57339
어가꼬	-9.57376
염	-9.57386
▁그래	-9.57562
▁티켓	-9.57606
▁진행할	-9.57611
▁전시	-9.57612
▁단순	-9.57666
▁14	-9.57696
듯이	-9.57698
▁않기	-9.57719
했다고	-9.57782
▁두고	-9.58056
▁대통령	-9.58058
▁복잡	-9.58082
익	-9.58095
▁상처	-9.58111
랜드	-9.58115
▁조절	-9.58145
▁물어보	-9.58153
▁s	-9.58265
▁부서	-9.58296
견	-9.583
명의	-9.58339
군요잉	-9.58371
▁빼	-9.58402
곡	-9.58422
▁끝나	-9.58433
▁지켜	-9.58437
롱	-9.58442
▁이메일로	-9.58451
▁누가	-9.58517
▁심지어	-9.58519
▁조심	-9.5866
▁노래를	-9.5886
틀	-9.58931
척	-9.58933
▁높이	-9.58977
▁부르	-9.5898
▁비슷	-9.59009
▁담당	-9.5902
스는	-9.59041
로운	-9.5906
관리	-9.59082
▁응원	-9.59107
▁최	-9.59138
▁고통	-9.59166
▁라인	-9.59266
▁않게	-9.59272
▁이용할	-9.59284
▁내리	-9.59297
규	-9.59397
▁탑승	-9.59444
▁상담	-9.59509
만원	-9.5967
▁지키	-9.59683
▁전부	-9.59687
해줘	-9.59698
▁헌	-9.59828
▁성분	-9.59829
▁이루어	-9.59829
김	-9.59873
▁종종	-9.59938
▁금요일	-9.59951
▁떠	-9.59963
▁사람과	-9.60066
▁느끼	-9.60085
▁인한	-9.60107
하던	-9.60168
으니	-9.60265
▁등이	-9.6028
▁비용이	-9.60287
수가	-9.60339
철	-9.60349
▁쓰레기	-9.60355
▁낮은	-9.60373
▁나누	-9.60391
▁아닙니다잉	-9.60398
전에	-9.60449
드릴	-9.60452
▁요청한	-9.60454
▁말한	-9.60463
▁사랑하는	-9.60523
▁그중	-9.60588
▁없어서	-9.6066
▁코스	-9.60716
시키는	-9.60717
칭	-9.60814
▁레스토랑	-9.60842
▁짓	-9.60845
▁바란당께요	-9.60845
▁이유가	-9.60849
▁이용해	-9.60931
▁반영	-9.60942
▁주문을	-9.60984
▁있다니께요	-9.61024
▁뭔	-9.61185
째	-9.61188
▁마음에	-9.61227
하겄습니다	-9.6128
페	-9.61291
▁앞에서	-9.61313
▁크리스마스	-9.61314
▁주문한	-9.61358
응께	-9.61372
▁명의	-9.61456
▁내용이	-9.61477
▁설	-9.61484
▁공식	-9.61631
▁빠져	-9.61631
▁않았습니다잉	-9.61675
쿠	-9.61797
▁아무리	-9.61845
▁하믄서	-9.61892
▁되나요잉	-9.61928
▁극	-9.62026
리지	-9.62041
었습니다	-9.621
▁예전에	-9.62134
▁차량	-9.62137
▁잡아	-9.62139
이라서	-9.62214
▁작가	-9.62221
▁고객들	-9.62226
▁신고	-9.62226
▁홍콩	-9.62265
▁파트너	-9.6227
▁있을랑가요	-9.62283
주세요잉	-9.62356
▁발행	-9.62413
▁딱	-9.6253
▁$	-9.62625
▁가기	-9.62674
▁많았	-9.62742
▁왼쪽	-9.62742
▁규칙	-9.62742
▁죄송하지만	-9.62755
▁그동안	-9.62867
▁제게	-9.62972
▁일에	-9.63089
▁방법으로	-9.63116
▁필	-9.63147
닥	-9.63171
님이	-9.63263
숙	-9.63274
▁근처에	-9.63353
▁c	-9.63385
븝니다	-9.63394
▁시설	-9.63394
▁체크인	-9.63469
▁p	-9.6351
▁부분은	-9.63533
▁섬	-9.63683
z	-9.63706
▁수수료	-9.63709
▁부모	-9.63739
▁밖에	-9.6392
했기	-9.63972
▁느	-9.64005
▁싶지	-9.64141
▁집으로	-9.64162
접	-9.64196
▁치킨	-9.64212
▁혼	-9.64275
없이	-9.64353
▁고정	-9.64376
인께	-9.64379
▁기관	-9.64387
업체	-9.64403
▁세금	-9.64426
▁동일	-9.64516
▁겨울	-9.64539
▁공원	-9.64561
이었어라	-9.64571
▁공정	-9.64581
▁지금까정	-9.6466
▁강의	-9.64668
남	-9.64695
▁밤에	-9.64779
▁보면	-9.64799
가요잉	-9.64826
▁포기	-9.64936
했지만	-9.65052
▁부분에	-9.65055
▁보험	-9.6517
▁너헌테	-9.65179
▁품목	-9.6518
▁할머니	-9.65256
▁배경	-9.65327
▁주말에	-9.65339
▁수술	-9.65383
리아	-9.65393
▁비슷한	-9.65628
▁못하는	-9.65677
▁이어	-9.65692
▁저장	-9.65791
▁전기	-9.6584
객	-9.66008
▁학기	-9.66036
▁마을	-9.66051
식을	-9.66112
▁모습이	-9.66131
▁캐나다	-9.66158
▁주시믄	-9.66163
▁적응	-9.66179
▁숙소	-9.66216
▁대상	-9.66283
상을	-9.66365
▁수출	-9.66449
le	-9.66466
▁안에서	-9.66477
▁탐	-9.66528
▁생명	-9.66545
▁가입	-9.66592
▁이탈리아	-9.66655
닝	-9.66655
▁어렸을	-9.66657
▁솔찬	-9.66658
짜	-9.66664
사의	-9.66681
▁거로	-9.66741
▁방금	-9.66831
▁나한테	-9.66877
장에서	-9.66938
혔을	-9.66996
▁온도	-9.67019
시키	-9.67031
▁계약서	-9.6708
▁시기	-9.67084
▁낙	-9.671
▁상황에	-9.6714
컨	-9.67152
▁걷	-9.67192
▁재밌	-9.672
▁저에게	-9.67287
▁여유	-9.673
▁좋습니다잉	-9.6744
▁답장	-9.6746
▁무엇을	-9.6746
ch	-9.67616
▁벌써	-9.67661
▁가꼬	-9.67691
르는	-9.67702
답	-9.67767
▁서버	-9.67794
▁문제에	-9.67802
▁소재	-9.67891
▁그날	-9.67925
▁싶은디	-9.67972
▁운	-9.68008
▁17	-9.68025
균	-9.6815
▁도서관	-9.68178
▁재미있	-9.68179
▁나쁜	-9.68211
▁맨들	-9.68211
시랑께요	-9.68212
▁하늘	-9.68224
▁했던	-9.68225
▁더욱더	-9.68228
▁기다리고	-9.68248
▁들어오	-9.68328
▁신발	-9.68331
▁초기	-9.68374
▁해보	-9.68436
▁생겨	-9.68455
▁기재	-9.68457
▁자동	-9.6852
▁너에게	-9.68647
▁떨어져	-9.68674
▁보내는	-9.68704
▁확신	-9.68704
▁본께	-9.68726
▁만난	-9.68728
▁치즈	-9.6876
▁공격	-9.68777
▁따르믄	-9.68786
▁감소	-9.68821
▁메일로	-9.68943
거여	-9.68968
라면	-9.68989
갖꼬	-9.68996
▁반품	-9.69002
▁기다려	-9.69031
▁행	-9.69075
▁대단	-9.69082
▁대해서는	-9.69135
▁마감	-9.6916
▁만들고	-9.69166
:	-9.6918
▁상대방	-9.69226
▁확실히	-9.69251
▁방향	-9.69279
▁걸릴	-9.6933
▁죄송합니다잉	-9.69339
▁요번	-9.69351
mm	-9.69431
▁태도	-9.69431
헌다니께요	-9.69476
▁매력	-9.69516
▁같아서	-9.69534
▁성인	-9.6958
50	-9.6958
▁기념	-9.69639
▁협력	-9.69696
▁숙박	-9.69711
▁독립	-9.69718
▁가능허	-9.69827
▁동생	-9.69836
▁무료로	-9.69857
▁맥주	-9.69873
▁오류	-9.69943
▁있다잉	-9.70001
▁꾸	-9.70035
▁물질	-9.70093
▁불러	-9.70095
▁슬	-9.70114
폴	-9.70208
▁깊은	-9.70208
▁홈페이지	-9.70211
▁뉴욕	-9.70211
▁근육	-9.70219
▁만났	-9.70225
▁즐겁게	-9.70234
▁범위	-9.70235
하는데	-9.70263
▁남편	-9.70275
▁타입	-9.70357
▁착	-9.70366
▁맛이	-9.70372
▁다들	-9.70458
량을	-9.70497
북	-9.70507
삼	-9.70508
든지	-9.7052
ra	-9.7052
▁고기	-9.70544
나요	-9.70556
▁사람들헌테	-9.70577
▁보다	-9.70618
으나	-9.70642
▁찾는	-9.70681
▁여자친구	-9.70727
▁모바일	-9.70727
▁링크	-9.7073
낼	-9.70819
▁것이고	-9.70824
▁권리	-9.70841
▁아무것	-9.7087
▁북한	-9.70887
▁이루	-9.70915
▁그게	-9.70934
▁공기	-9.70941
▁남성	-9.70985
알	-9.71002
▁골	-9.7106
▁스트레스를	-9.7107
혔는데	-9.71109
▁잠시	-9.71119
▁행동을	-9.71196
들로	-9.71219
▁글로벌	-9.71248
▁함	-9.7125
잔	-9.71299
▁초대	-9.713
▁바닥	-9.71304
▁정확히	-9.71341
▁발달	-9.71389
▁테니	-9.71435
▁의무	-9.71461
▁빵	-9.71469
▁않지만	-9.71503
▁상당	-9.71506
▁침대	-9.71572
▁체크	-9.71588
리가	-9.71656
▁레이	-9.71708
▁갔다	-9.71734
랑께요잉	-9.7175
▁베트남	-9.71771
▁만약에	-9.71802
▁수리	-9.71879
▁일상	-9.71911
▁일반적으로	-9.71911
▁여권	-9.71913
▁화면	-9.72095
례	-9.72097
해브렀습니다	-9.72112
▁대중	-9.72124
찬	-9.72127
▁수익	-9.72127
▁받으	-9.7214
릭	-9.72289
▁비자	-9.72291
▁네트워크	-9.72297
▁목록	-9.72331
▁문장	-9.72454
▁아니여	-9.72455
▁b	-9.72459
왕	-9.72608
▁기억에	-9.72616
▁아까	-9.72632
▁권	-9.72762
혔당게	-9.72798
▁경영	-9.72822
▁무엇이	-9.72826
▁배웠	-9.72826
▁동영상	-9.72827
▁아마존	-9.72836
원을	-9.72858
▁춤	-9.72881
▁완벽	-9.72893
▁알려주시믄	-9.72949
▁보고서	-9.72949
▁건지	-9.72966
▁뉴스	-9.72988
ol	-9.72997
▁오직	-9.73091
▁않아요잉	-9.73102
▁뿐	-9.73244
▁코드	-9.73277
켓	-9.733
▁곡	-9.73368
생활	-9.73464
▁널	-9.73468
▁쓴	-9.73569
▁즉시	-9.73578
▁워	-9.73625
하러	-9.73638
▁성과	-9.73664
▁아기	-9.73725
▁휴	-9.73787
몬	-9.73893
▁오랫	-9.73908
▁화장품	-9.73924
▁줘	-9.7393
▁헤	-9.73984
▁감동	-9.73999
별로	-9.7401
▁보내주신	-9.74043
▁스트레스	-9.74076
해주고	-9.74104
▁들었습니다잉	-9.74179
▁확인할	-9.7418
거든	-9.74187
▁석	-9.74194
▁보이지	-9.74224
나게	-9.74284
▁생각혀	-9.74326
하려	-9.74397
▁중간	-9.74472
▁과정에서	-9.74497
▁익	-9.74525
▁뭔가	-9.74601
▁통해가꼬	-9.74782
▁활	-9.74799
▁보내고	-9.74825
▁것이지라잉	-9.74833
시로	-9.7488
▁잠깐	-9.74981
▁정치	-9.74983
▁것이에요잉	-9.75049
▁기초	-9.75093
▁구매자	-9.75103
▁사진이	-9.75249
갑	-9.75338
▁말해	-9.75372
▁근처	-9.75394
▁처	-9.75403
▁동일한	-9.75454
▁챙겨	-9.75515
▁나타나	-9.75518
▁각자	-9.75522
▁그라제	-9.75523
하자	-9.75526
▁남아	-9.75535
▁끊	-9.75555
▁건축	-9.75578
슈	-9.75592
▁건가요잉	-9.75595
▁배치	-9.75601
되었어라	-9.75663
▁나올	-9.75692
▁사항이	-9.75863
▁잘못된	-9.75927
▁그곳에	-9.76021
즐	-9.76043
튀	-9.76061
▁며칠	-9.76063
▁뇌	-9.76066
▁역할	-9.76066
▁차지	-9.76124
라우	-9.76149
▁취미	-9.76166
▁남아있	-9.76166
▁이것이	-9.76189
▁측	-9.76246
▁이곳	-9.76278
▁주시	-9.76326
▁장치	-9.76349
▁간단한	-9.76355
▁다르게	-9.76381
세기	-9.76406
톤	-9.76468
▁강한	-9.76494
얼	-9.76505
짐	-9.76558
▁사용해	-9.76574
▁말할	-9.766
▁움직이	-9.76611
▁의사소통	-9.76611
틴	-9.76611
▁교통	-9.76647
감이	-9.76688
▁보내주쇼잉	-9.76784
▁의료	-9.76806
▁것입니다	-9.76816
▁소유	-9.76838
▁사람들에게	-9.76974
받았	-9.77053
▁피드백	-9.77163
▁케이스	-9.77164
▁여기서	-9.77172
▁가이드	-9.77195
▁피곤	-9.77236
트리	-9.77392
▁기반	-9.77468
▁소요	-9.77476
해븐	-9.7751
었지만	-9.77515
▁걸리	-9.77572
▁정의	-9.77605
▁선정	-9.77625
▁재미	-9.7768
▁플레이	-9.7772
▁통한	-9.77723
▁예측	-9.77743
▁동작	-9.77831
▁홍	-9.77937
함서	-9.77995
▁숙	-9.77996
▁하나는	-9.78096
쟁	-9.78104
▁시행	-9.78124
▁냉	-9.78138
▁아내	-9.78228
내는	-9.78245
혁	-9.78268
짓	-9.78274
▁비디오	-9.78278
▁아니고	-9.784
▁있으니	-9.78406
▁어린이	-9.78416
럼	-9.78437
▁마쇼잉	-9.78489
▁적절한	-9.78504
▁빠	-9.78505
▁투어	-9.78558
으로서	-9.78668
자리	-9.78728
밥	-9.78782
▁사람헌테	-9.78798
자들이	-9.78821
▁일하는	-9.78829
쉬	-9.78833
▁수많은	-9.78839
en	-9.78842
▁금액을	-9.78863
▁자신감	-9.78875
▁대략	-9.78881
▁되어있	-9.78882
▁호주	-9.78927
▁중앙	-9.78929
육	-9.78946
▁단점	-9.78967
오는	-9.78992
성과	-9.79002
▁예방	-9.79009
겠지만	-9.79046
▁그저	-9.79077
▁조용	-9.79116
층에	-9.79134
▁화가	-9.79144
킨	-9.79148
▁없다는	-9.79204
▁기차	-9.7925
받는	-9.79265
프로	-9.79268
▁소비	-9.79321
▁윤	-9.79325
궁	-9.79401
▁잊지	-9.79404
▁첫째	-9.79443
▁매출	-9.79498
▁보러	-9.79554
▁듣는	-9.79648
해볼	-9.79669
▁폐	-9.79676
▁진심으로	-9.79688
▁통제	-9.79703
▁경제적	-9.7971
....	-9.7977
▁돌아오	-9.79789
▁적은	-9.79794
▁맨	-9.79847
늘	-9.79881
▁분리	-9.79884
▁아프	-9.79913
콤	-9.79972
▁삭제	-9.79974
▁몰랐	-9.79981
▁마사지	-9.79985
▁개념	-9.80004
금을	-9.80038
▁취업	-9.8007
분이	-9.80099
▁불안	-9.80215
▁60	-9.80235
▁창고	-9.80238
▁벽	-9.80323
▁21	-9.80329
닌	-9.80384
▁시험을	-9.80423
▁터	-9.80428
▁후회	-9.80494
골	-9.80498
▁학생들은	-9.8051
▁러시아	-9.80544
▁냄새	-9.80544
▁어려워	-9.80572
▁때도	-9.80575
▁확정	-9.80581
▁아시아	-9.80596
버리	-9.8066
▁때문이랑께요	-9.80715
▁돼요잉	-9.80866
▁친구들이	-9.80879
▁관련하여	-9.80879
▁넌	-9.80905
었어요잉	-9.80915
▁우리에게	-9.80937
▁보안	-9.80939
▁드리겄습니다잉	-9.80943
훈	-9.81106
효	-9.81123
▁별도	-9.81189
하다는	-9.81209
대를	-9.81211
학과	-9.81237
▁인기가	-9.81243
▁힘을	-9.81244
it	-9.81244
더니	-9.81252
at	-9.81267
▁발주	-9.8129
▁놀러	-9.81303
▁토요일	-9.81409
▁쓰고	-9.81444
▁대비	-9.81484
턴	-9.81496
혔지라잉	-9.81505
교육	-9.81578
▁소스	-9.81583
역에서	-9.81596
싶	-9.81608
▁2016	-9.81708
▁과목	-9.81725
▁많아서	-9.81791
▁배달	-9.81879
▁만한	-9.81899
씨요	-9.81962
▁같은디요	-9.82034
졌습니다잉	-9.82039
▁장기	-9.82052
해주세요잉	-9.82089
브렀어요	-9.82143
et	-9.82165
맹	-9.82225
▁나눠	-9.82278
▁수업에	-9.8229
▁지방	-9.8229
▁명확	-9.82296
▁뛰어	-9.82299
▁인쇄	-9.823
▁저번	-9.82305
▁참조	-9.82362
▁도네	-9.82416
▁깨끗	-9.82431
▁어릴	-9.82438
▁키우	-9.8246
▁휴식	-9.82464
▁방지	-9.82563
스터	-9.82563
▁꼬	-9.82726
▁예전	-9.82759
▁당장	-9.82776
▁정확	-9.82841
희	-9.82843
▁않아도	-9.82862
▁그렇지	-9.82863
▁화요일	-9.8287
측	-9.82925
지게	-9.82925
돈	-9.8295
▁출고	-9.83037
▁결과가	-9.83052
▁한국은	-9.83092
▁지정	-9.83271
▁제품들	-9.83297
▁빨	-9.83347
▁일정이	-9.83348
▁하겠습니다잉	-9.8341
▁SNS	-9.83451
▁영수증	-9.83451
▁스페인	-9.83451
▁소녀	-9.83521
▁사례	-9.83541
▁충전	-9.83545
▁마련	-9.8355
센터	-9.83599
▁자원	-9.8362
▁사업을	-9.83739
하겠습니다잉	-9.83751
▁오지	-9.83816
셔가꼬	-9.83841
▁죽음	-9.83859
▁날이	-9.84003
젤	-9.84027
둔	-9.84043
밍	-9.84043
우린	-9.84123
덕	-9.84175
▁엘	-9.84176
참	-9.8418
▁먼	-9.84264
▁났	-9.84311
▁제주도	-9.84335
▁회원	-9.84404
▁접수	-9.84477
▁앉아	-9.84503
조차	-9.84531
좌	-9.84622
▁자전거	-9.8464
▁Q	-9.84667
사와	-9.84668
▁솔직히	-9.84696
▁사실을	-9.84713
▁각종	-9.84742
▁자극	-9.84743
자와	-9.84831
▁그럴	-9.84837
▁사용하지	-9.84867
겠다고	-9.84935
st	-9.8498
▁구분	-9.84991
▁기준으로	-9.85018
▁힘들어	-9.85091
시부터	-9.85102
은께	-9.85102
받을	-9.85153
▁년	-9.85162
▁통합	-9.85212
튼	-9.85221
▁도움	-9.85247
▁대답	-9.85304
▁장점	-9.85329
▁눈에	-9.85347
▁도착할	-9.85357
굴	-9.85439
▁뜨	-9.85442
▁비해	-9.85493
▁통과	-9.855
라서	-9.85513
꼬	-9.85705
사람	-9.85738
하기를	-9.85877
▁것들이	-9.85894
▁조언	-9.85925
▁조각	-9.85962
▁넣고	-9.86001
▁롤	-9.86032
▁올라가	-9.8608
▁주말	-9.86083
▁무시	-9.86232
▁헤어	-9.86285
▁손상	-9.86412
▁흡수	-9.86447
▁출근	-9.86484
▁신규	-9.86494
▁이론	-9.86522
▁생각한당께요	-9.86526
▁읽고	-9.86534
▁내게	-9.86609
하시고	-9.86616
▁단체	-9.86688
▁금지	-9.86724
▁번호를	-9.86776
▁다루	-9.86865
품을	-9.86874
혔어라	-9.86899
▁까	-9.86908
▁삼성	-9.8696
▁점은	-9.87003
댕	-9.87035
▁이거	-9.87052
깃	-9.87055
없	-9.87063
▁힘이	-9.87072
▁보냅니다	-9.87084
▁중학교	-9.87103
자잉	-9.87288
▁세트	-9.87299
▁티	-9.87451
▁굴	-9.87458
▁사정	-9.87517
▁필요혀요	-9.87558
▁속에	-9.876
▁원단	-9.87619
▁제외	-9.87643
▁아르바이트	-9.87668
▁초콜릿	-9.87668
된당께요	-9.87711
▁언니	-9.87728
▁이미지를	-9.87757
▁현금	-9.87761
▁통관	-9.87803
▁생각헙니다	-9.8784
▁문제점	-9.87862
장님	-9.87923
▁포함한	-9.87947
브러서	-9.87955
▁주변에	-9.87969
되며	-9.88009
었당게	-9.88041
해주시	-9.88093
▁많고	-9.88108
관계	-9.88136
▁맥	-9.88144
▁허지	-9.88157
브렀다	-9.8821
▁명이	-9.88219
▁과일	-9.88226
▁고용	-9.88267
▁움직임	-9.88286
▁훈련	-9.88286
▁효과가	-9.88288
▁2015	-9.88302
▁꾸준히	-9.88323
▁채팅	-9.88324
▁존경	-9.88325
치고	-9.88362
▁용기	-9.88424
브는	-9.88441
임을	-9.88474
▁자세히	-9.88482
▁허용	-9.88527
▁되었지라	-9.88613
▁않는다믄	-9.88639
▁만들었	-9.88701
▁있었는디	-9.88778
만한	-9.8881
해요	-9.88855
끄	-9.88893
컬	-9.88905
▁젊은	-9.88907
▁무게	-9.88917
▁핵교	-9.8892
▁걍	-9.88953
▁상승	-9.88964
▁행위	-9.88964
▁느낌이	-9.89044
▁염	-9.89063
해져	-9.89091
옥	-9.89127
▁평소에	-9.89138
욕	-9.89195
▁가져다	-9.89202
▁해줄	-9.89203
화된	-9.89237
30	-9.8926
▁받았습니다잉	-9.89276
▁포함되어	-9.89298
▁쇼	-9.89352
능가요	-9.89358
▁보장	-9.8936
▁남자친구	-9.89532
▁옵션	-9.89532
▁2017	-9.89532
▁항목	-9.89558
▁훌륭한	-9.89723
▁않아가꼬	-9.89737
▁방학	-9.8976
아서	-9.89931
▁걸려	-9.90012
스타	-9.90023
보쇼잉	-9.9004
▁봄	-9.90057
량이	-9.90058
▁보일	-9.9013
▁아름답	-9.90161
▁색깔	-9.90171
▁부족한	-9.90184
▁오픈	-9.90197
스가	-9.90229
▁구글	-9.90245
▁멀리	-9.90251
냥	-9.9029
▁하셨	-9.90297
성은	-9.90315
▁욕	-9.90385
▁황	-9.90388
▁도구	-9.90453
▁날씨	-9.90474
Y	-9.90492
묵	-9.90515
▁작업이	-9.90535
▁이곳은	-9.90571
▁매년	-9.9066
▁경우에는	-9.90698
▁물을	-9.90749
▁가능할	-9.9077
▁비행	-9.90819
▁전시회	-9.90839
▁알아보	-9.90853
셔도	-9.90854
▁교회	-9.90874
▁대기	-9.9089
▁번에	-9.90911
꺼정	-9.90941
▁어때	-9.90955
▁된다고	-9.90964
▁이해할	-9.90975
났	-9.91012
했당께	-9.91012
▁주위	-9.91158
▁만나서	-9.91165
▁미국에서	-9.91196
▁위하여	-9.91217
▁현상	-9.91248
랑게	-9.91273
▁저번에	-9.91305
▁따르	-9.91312
▁할지	-9.91321
▁되는지	-9.91391
▁추천해	-9.91397
시장	-9.91426
▁대한민국	-9.91431
▁느낀	-9.91432
▁상품이	-9.9146
▁그곳에서	-9.91472
▁한국에서는	-9.91499
▁처음으로	-9.915
▁주인	-9.91506
장은	-9.91514
▁낫	-9.91515
▁샀	-9.91515
▁아들	-9.91556
▁거그	-9.91559
▁있었고	-9.91602
▁구경	-9.91667
▁배운	-9.91669
▁잡고	-9.91691
▁배우는	-9.91698
▁없어가꼬	-9.91707
▁신체	-9.91728
▁이사	-9.91733
▁오랜만	-9.91746
▁상세	-9.91766
▁피부에	-9.91794
▁곳으로	-9.91847
해블고	-9.91876
▁버튼을	-9.91894
▁흥미	-9.91917
▁프로젝트를	-9.91954
이라믄	-9.91961
흥	-9.92067
힐	-9.92071
▁디자이너	-9.92072
▁면접	-9.92095
▁숫자	-9.92166
받아	-9.92192
▁비율	-9.92199
▁찍은	-9.92221
▁마시고	-9.92229
었는데	-9.92366
▁영역	-9.92485
하셔야	-9.9249
▁들을	-9.92536
▁찾기	-9.92562
▁그걸	-9.92599
폰	-9.92675
벨	-9.92675
▁즐거운	-9.92717
▁옛날	-9.92717
▁라벨	-9.92732
▁관람	-9.92745
▁토론	-9.92758
▁바꿀	-9.92768
▁위로	-9.92891
▁바이어	-9.9291
▁가시	-9.93003
▁국민	-9.93135
▁달에	-9.93157
빛	-9.93159
려서	-9.93178
ri	-9.93193
▁오른쪽	-9.93243
▁방식으로	-9.93244
혔는디	-9.93292
▁병원에	-9.9334
▁문제로	-9.93342
끈	-9.93343
▁업그레이드	-9.93366
랄	-9.93366
▁어려울	-9.93386
▁궁금한	-9.93398
▁화학	-9.93533
▁봉사	-9.93593
▁연관	-9.93602
브렀어	-9.93652
해브렀	-9.93652
혔지라	-9.93652
▁만들기	-9.93653
▁타이	-9.93677
▁후원	-9.93708
불고	-9.93761
▁한다믄	-9.9394
꿀	-9.93967
혹	-9.93989
겄지만	-9.94005
▁든	-9.94017
▁으뜨케	-9.94021
▁새벽	-9.94033
▁오빠	-9.94068
▁효	-9.94108
▁23	-9.94121
▁계신	-9.94148
▁스타	-9.9418
허믄	-9.94186
▁차별	-9.94187
▁발생한	-9.943
시면	-9.94395
하기도	-9.94403
▁맞추	-9.94462
▁보내드리	-9.94484
▁뿐이	-9.94568
점이	-9.94579
▁받아야	-9.94598
▁선생님이	-9.94604
▁꺼	-9.94667
▁아니요	-9.94671
▁패키지	-9.94678
▁정류장	-9.9468
▁상황에서	-9.94706
▁당연히	-9.94771
▁조치	-9.94795
까라	-9.94856
▁않아서	-9.94924
▁끝내	-9.94925
▁수요	-9.94932
▁받기	-9.94956
kg	-9.95004
▁집단	-9.95005
던디	-9.95036
▁물건이	-9.95126
▁쉽지	-9.95127
▁전문가	-9.95137
▁근거	-9.95144
▁야기	-9.95149
블면	-9.95153
▁생각하고	-9.9522
▁느끼고	-9.95268
드는	-9.95279
▁끝나고	-9.95286
렬	-9.9534
릿	-9.9534
▁어디에	-9.95345
라인	-9.95348
▁있으면	-9.95358
▁풍경	-9.95387
▁종교	-9.95387
스테	-9.95399
▁확장	-9.95432
▁음식은	-9.95467
▁남겨	-9.95478
▁확인하고	-9.95506
▁송장	-9.95543
▁자랑	-9.9562
▁맘	-9.95667
▁만나는	-9.9572
▁없다믄	-9.95742
▁그거	-9.95845
구만요	-9.95881
▁생성	-9.95894
▁전까지	-9.95916
겠당께요	-9.95947
랍	-9.95991
▁오히려	-9.96007
▁둘째	-9.96025
▁최초	-9.96026
▁상징	-9.96029
▁남는	-9.96045
웃	-9.96144
▁고객사	-9.96243
▁다만	-9.96258
▁학원	-9.96319
▁벤	-9.96395
귀	-9.9643
▁500	-9.96504
빈	-9.96553
▁빌	-9.96615
게잉	-9.96618
▁펜	-9.96663
▁발생하는	-9.96666
▁점수	-9.96669
▁수밖에	-9.96678
▁언젠가	-9.96678
▁가르쳐	-9.96678
했었	-9.96695
▁기획	-9.96702
▁음식이	-9.96722
▁비싸	-9.96726
▁서명	-9.96748
▁아파트	-9.9677
▁생각하	-9.96936
▁기타	-9.97022
▁누구나	-9.97077
▁시점	-9.97102
▁보내줄	-9.97123
▁게다가	-9.9716
완	-9.97181
▁좋다고	-9.97206
▁하여	-9.97225
▁가능한지	-9.97226
▁증명	-9.97233
▁인지	-9.97246
맛	-9.97251
▁그리스	-9.97254
▁학생이	-9.97309
▁영양	-9.97349
▁거짓말	-9.97353
▁부드럽	-9.97353
▁비타민	-9.97353
▁대응	-9.97402
▁담배	-9.97422
▁가족들	-9.97445
▁a	-9.97601
▁멤버	-9.97704
▁형식	-9.97717
왔어라	-9.97766
깨	-9.97884
물이	-9.97891
▁한국으로	-9.97903
앙	-9.97924
▁충분한	-9.97938
▁중국어	-9.97965
▁방향으로	-9.97989
▁미국의	-9.97999
▁빠지	-9.9801
하였고	-9.98031
▁그렇기	-9.98034
젠	-9.98034
▁왜냐하믄	-9.98034
▁케이블	-9.98034
▁감독	-9.98067
▁닭	-9.98098
▁세부	-9.98125
▁환	-9.98246
▁있능가요	-9.98254
▁필수	-9.98254
▁예산	-9.98272
허지만	-9.98335
▁이름은	-9.98339
▁법을	-9.98342
▁때까정	-9.98369
르고	-9.98378
▁우주	-9.98458
▁품	-9.98568
▁없지만	-9.98573
▁가질	-9.98579
▁해주쇼잉	-9.98591
▁미래에	-9.98596
▁없어요잉	-9.98648
받은	-9.98679
▁하쇼잉	-9.98687
▁체육	-9.98733
▁극복	-9.98741
▁싶어라	-9.98744
▁찬	-9.98773
▁접속	-9.98784
▁호텔에	-9.98812
▁강조	-9.98923
▁이걸	-9.98937
맹키로	-9.98939
▁부여	-9.98955
▁세계에서	-9.99015
▁오늘날	-9.99092
다요	-9.99112
한티	-9.99166
▁불만	-9.99171
겠어라	-9.99173
▁송	-9.99194
▁때까지	-9.9925
탁	-9.99261
기술	-9.99358
눈	-9.99358
▁어려	-9.99407
톡	-9.99407
겜	-9.99408
▁픽업	-9.99409
▁무언가	-9.99409
▁미디어	-9.99409
▁패턴	-9.99417
▁근데	-9.99502
었어야	-9.99588
▁계시	-9.99615
▁저녁에	-9.99696
▁보였	-9.99743
▁눈이	-9.99777
받고	-9.99824
▁의도	-9.99909
아야	-9.9993
▁장식	-9.99943
▁같은데	-9.99965
맥	-10.0002
▁보쇼잉	-10.0008
껏	-10.001
▁핵심	-10.0012
▁충격	-10.0013
▁맨든	-10.0014
▁이용해가꼬	-10.0014
▁다녀	-10.0015
일로	-10.0019
▁이름이	-10.002
하라고	-10.0037
▁어려움	-10.0062
랜	-10.0063
맞	-10.0066
▁설명해	-10.007
▁군대	-10.0071
혜	-10.0071
둥	-10.0075
랐	-10.0076
폐	-10.0076
▁엄청	-10.0079
꾼	-10.008
▁고마워	-10.008
▁미술	-10.0086
▁기여	-10.0088
▁앞서	-10.0088
▁듣	-10.0089
봐야	-10.0094
해주실	-10.0098
▁교사	-10.0102
▁가수	-10.0103
▁유통	-10.0104
놓고	-10.0106
▁낼	-10.0107
▁전망	-10.0109
되었지라	-10.011
▁된다	-10.0128
▁제공하는	-10.0128
처리	-10.0129
인디요	-10.0149
▁상자	-10.015
룸	-10.0151
룰	-10.0151
▁클럽	-10.0153
▁실망	-10.0157
▁d	-10.0158
▁뽑	-10.0166
▁판매자	-10.0179
▁저렴	-10.0182
▁모아	-10.0183
▁익숙	-10.0184
cm	-10.019
▁맹글	-10.0198
▁박물관	-10.0203
▁공항에서	-10.0205
누	-10.0207
▁언제나	-10.0211
▁평소	-10.0212
▁공개	-10.0212
립니다잉	-10.0219
▁다이어트	-10.0222
허요	-10.0229
▁우울	-10.0234
▁그랬	-10.0235
냐잉	-10.0238
▁청소년	-10.0242
▁느끼는	-10.0243
▁놀라	-10.0244
▁맹글어	-10.0245
시킨	-10.0246
▁셀	-10.0256
▁짜	-10.026
▁배려	-10.026
자세한	-10.0261
▁소중한	-10.0261
보는	-10.0264
되지라잉	-10.0267
▁건조	-10.0267
▁한글	-10.027
▁불가	-10.0272
끼리	-10.0283
섭	-10.0288
▁즐겨	-10.0293
▁예쁘	-10.0293
▁바쁘	-10.0294
암	-10.0296
▁시내	-10.0298
▁머물	-10.0299
▁양식	-10.03
▁감사드립니다잉	-10.03
사회	-10.0303
▁작년	-10.031
5,000	-10.0311
▁간호사	-10.0313
▁의심	-10.0321
▁말은	-10.0327
ro	-10.0334
▁보입니다잉	-10.0341
▁배송비	-10.0345
상으로	-10.0356
▁거기	-10.0357
촉	-10.0363
▁지시	-10.0365
▁계획이	-10.0365
▁불구하고	-10.0365
▁엄청난	-10.0367
▁한복	-10.0369
▁맛볼	-10.037
▁쉬운	-10.0372
▁깨달	-10.0372
▁체계	-10.0372
▁들믄	-10.038
▁풀어	-10.0386
▁구체적	-10.0395
▁유리	-10.0397
▁27	-10.0399
▁완	-10.0417
드리겄습니다잉	-10.0431
▁PO	-10.0435
▁찾으	-10.0437
▁자격증	-10.0439
▁확보	-10.0442
ing	-10.0442
▁연주	-10.0444
캐	-10.0447
▁떨	-10.0449
활	-10.045
▁부착	-10.0455
▁등장	-10.0455
▁사전	-10.0458
▁못했	-10.0463
▁기본적인	-10.0463
▁지지	-10.0464
▁무리	-10.0467
▁식물	-10.0468
과정	-10.0475
▁있었지라	-10.048
▁경기장	-10.0482
▁하게	-10.0483
am	-10.0489
이믄	-10.0496
▁보믄서	-10.05
지에	-10.0502
좋	-10.0503
드린	-10.0507
▁사용하고	-10.0509
몽	-10.051
러코롬	-10.051
▁규모	-10.0511
▁나타내	-10.0511
만으로	-10.0512
▁가슴	-10.0513
▁드려	-10.0516
▁세탁	-10.0516
▁하면	-10.0517
▁인구	-10.0518
▁내에	-10.0519
▁비가	-10.0519
▁발급	-10.0526
트로	-10.0534
▁없으믄	-10.0539
▁진실	-10.0543
▁때가	-10.0548
▁증상	-10.0549
▁거당가요	-10.0549
▁상태로	-10.0551
▁이후로	-10.0559
▁중입니다잉	-10.056
▁지난번	-10.056
▁누르	-10.0562
여행	-10.0564
is	-10.0565
센	-10.0567
수는	-10.0578
▁노동	-10.0582
▁게스트하우스	-10.0584
▁해수욕장	-10.0584
듬	-10.0584
▁휴대폰	-10.0584
▁가까이	-10.0586
▁맨날	-10.0587
▁결론	-10.0587
▁자녀	-10.0596
11	-10.0598
▁됩니다	-10.0598
▁선박	-10.0602
▁동료	-10.0602
▁시에	-10.0604
▁빌려	-10.0608
▁크림	-10.0609
학생	-10.0617
해질	-10.0617
▁있을지	-10.0619
▁수영	-10.0627
▁인원	-10.0628
▁호텔에서	-10.0628
▁X	-10.0631
▁자연스럽	-10.0636
▁하루에	-10.0646
해주시믄	-10.0654
했습니다	-10.0659
▁마리	-10.0662
▁요인	-10.0663
▁굳	-10.0668
풀	-10.0673
▁생길	-10.0674
주실	-10.0674
폭	-10.0675
▁미치는	-10.0681
▁똑같은	-10.0689
▁끌어	-10.069
▁가족이	-10.0702
▁음료	-10.0706
▁표면	-10.0709
▁출하	-10.0713
▁펴	-10.0715
▁부위	-10.072
촌	-10.0723
납니다잉	-10.0726
▁떨어지	-10.0733
▁당연	-10.0735
던데	-10.0739
▁반송	-10.074
▁보시	-10.0742
▁수집	-10.0743
▁숙제	-10.0746
▁직원이	-10.0746
▁배워	-10.0749
il	-10.0754
▁구입	-10.0755
▁이뤄	-10.0758
▁아이디	-10.076
소리	-10.076
▁김치	-10.076
하당께요	-10.0761
▁상관	-10.0761
▁주지	-10.0763
▁신문	-10.0763
▁구매할	-10.0766
허당께요	-10.0767
게임	-10.0771
▁피자	-10.0772
el	-10.0775
었을	-10.0777
▁방해	-10.0778
▁기내	-10.0779
▁발라	-10.0781
▁우수	-10.079
▁칠	-10.0794
▁덜	-10.0796
▁알아야	-10.0798
▁척	-10.0807
▁메이크업	-10.0808
▁자유롭게	-10.0808
▁적극적으로	-10.0808
닉	-10.0808
▁블랙	-10.0808
▁습관	-10.0808
▁싶어야	-10.0808
▁유일한	-10.0809
▁결합	-10.0811
해준	-10.0812
부는	-10.0813
▁태국	-10.0814
어도	-10.0816
▁하나님	-10.0818
▁벌어	-10.0823
비용	-10.0826
▁못하고	-10.0831
▁항공사	-10.0832
▁확실	-10.0835
▁야구	-10.0835
어져	-10.0835
▁고급	-10.0842
▁해석	-10.0843
▁대혀서	-10.0855
▁단가	-10.0856
▁보지	-10.0856
▁콜	-10.0859
▁몸에	-10.0862
▁쪼깨만	-10.0864
▁향해	-10.0867
▁센터	-10.0868
해주시기	-10.0875
춘	-10.0882
▁부정	-10.0883
▁유튜브	-10.0884
됨	-10.0884
▁충족	-10.0885
▁퇴근	-10.0885
▁고장	-10.09
푸	-10.0906
▁경우에	-10.091
▁연락이	-10.091
▁허기	-10.0918
▁필요로	-10.0919
▁개인적으로	-10.0919
▁의자	-10.0923
▁의식	-10.0928
였습니다잉	-10.0931
습니까잉	-10.0936
▁증거	-10.0941
략	-10.0943
습니까	-10.0949
개가	-10.0958
▁남았	-10.096
▁넓은	-10.096
▁2014	-10.096
▁선택한	-10.0961
▁의지	-10.0969
▁거시기	-10.097
▁무역	-10.097
▁진출	-10.097
▁놀이	-10.0972
헌다는	-10.0981
칸	-10.0984
▁좋아야	-10.0987
▁좋고	-10.0993
▁나라에서	-10.0995
▁거부	-10.0998
으요	-10.1001
▁유행	-10.1002
소잉	-10.1007
▁쓰지	-10.1016
▁왔습니다잉	-10.1017
▁오래된	-10.1018
▁봐야	-10.1025
▁소중	-10.1026
자마자	-10.1029
▁나아	-10.1035
▁어쩔	-10.1037
▁좌석	-10.1037
▁클릭	-10.1038
▁표준	-10.1043
▁성능	-10.1044
▁금액이	-10.1045
하다가	-10.1046
꾸	-10.1047
▁도입	-10.1048
▁있었다	-10.1048
▁듣기	-10.1051
겠어요잉	-10.1052
▁리더	-10.1052
▁일요일	-10.1054
었기	-10.1057
짜리	-10.1058
▁썼	-10.1061
▁긴장	-10.1061
▁건설	-10.1065
중에	-10.1068
▁신선	-10.1079
▁바라보	-10.1083
▁평화	-10.1083
▁있다면	-10.1096
▁걱정이	-10.1101
정보	-10.1107
▁있으시	-10.1109
▁하겄습니다	-10.1113
▁매니저	-10.1114
▁케이크	-10.1114
▁어쩌	-10.1115
▁센서	-10.1115
▁맞지	-10.1116
▁무엇보다	-10.112
▁몸이	-10.112
▁끝난	-10.1121
▁드는	-10.1124
▁생각하지	-10.1126
존	-10.1127
▁PC	-10.113
▁소년	-10.1131
▁추구	-10.1132
▁가격으로	-10.1133
시까지	-10.1136
▁부정적	-10.1136
ct	-10.1144
▁직에	-10.1146
어진	-10.1153
▁80	-10.1154
▁22	-10.1168
▁분실	-10.1169
혼	-10.1173
▁소식	-10.1173
▁월요일에	-10.1177
했다니께요	-10.1187
텔	-10.1188
네잉	-10.1192
▁스티커	-10.1192
▁가볍	-10.1193
스러워	-10.1193
▁신용카드	-10.1193
▁필요허	-10.1193
응	-10.1195
▁스마트	-10.1195
▁관찰	-10.1197
▁존중	-10.1198
해진	-10.1204
▁금방	-10.1204
▁딜	-10.1206
▁나랑	-10.1208
▁커버	-10.1211
▁책임감	-10.1211
년대	-10.1223
▁쪽으로	-10.1235
혔어	-10.1237
같은	-10.1237
▁담아	-10.1237
▁시청	-10.1246
운동	-10.1256
져야	-10.1257
버렸	-10.1262
드립니다	-10.1263
칙	-10.1265
▁쪽에서	-10.1269
삭	-10.1271
▁얻어	-10.1271
▁플랫폼	-10.1271
랭	-10.1271
튜	-10.1271
▁테이블	-10.1271
▁아쉽	-10.1274
es	-10.1274
▁뭣이	-10.1277
▁회계	-10.1278
▁여름에	-10.128
▁이게	-10.1282
▁요런	-10.1288
해졌	-10.1288
되었당께요	-10.1289
▁실시	-10.129
▁수령	-10.129
▁본사	-10.13
▁않는당께요	-10.1301
▁없는디	-10.1313
▁지루	-10.1314
▁알려주시	-10.1318
▁시계	-10.1325
정도	-10.1329
▁유용	-10.1335
▁얼	-10.134
▁배송이	-10.1341
리스	-10.1346
▁수분	-10.1348
큐	-10.1351
혓	-10.1351
▁금융	-10.1351
▁생각보다	-10.1352
▁자꾸	-10.1357
▁않당께요	-10.1357
▁감각	-10.1357
대에	-10.1358
▁데이트	-10.1361
▁구독	-10.1362
▁오염	-10.1362
▁허락	-10.1363
▁조립	-10.1365
▁좋게	-10.1365
▁앉	-10.137
▁우유	-10.1371
▁필요할	-10.1378
▁없기	-10.1384
널	-10.1385
▁지각	-10.139
하시기	-10.1392
▁조선	-10.1392
스토	-10.1407
브렀당께요	-10.1408
프라	-10.1413
념	-10.1414
기간	-10.1419
▁같당께	-10.1419
냄	-10.1431
렛	-10.1431
▁채널	-10.1432
금액	-10.144
성에	-10.1443
▁들어간	-10.1459
▁수요일	-10.1462
▁유저	-10.1462
시까정	-10.1464
▁가격에	-10.1464
▁Y	-10.1469
▁않았어라	-10.1473
▁나갈	-10.1475
공학	-10.1478
▁달성	-10.1478
▁가졌	-10.1478
드리겄습니다	-10.1482
이자	-10.149
▁외에	-10.15
▁간단	-10.1502
상품	-10.1502
▁끌	-10.1506
▁요리를	-10.151
▁사진과	-10.151
▁라면	-10.1511
뚜	-10.1511
멜	-10.1511
▁룸	-10.1511
▁카카오톡	-10.1511
▁지점	-10.1512
▁힘들었	-10.1516
시길	-10.1521
자로	-10.1531
▁벗어나	-10.1531
▁분류	-10.1532
▁채소	-10.1535
▁모여	-10.1536
▁닿	-10.1546
▁걸린	-10.1547
하였어라	-10.1551
겁	-10.1553
▁이상이	-10.1567
수있	-10.1576
▁못해	-10.1582
60	-10.1582
▁사용하여	-10.159
▁컨셉	-10.1592
▁디저트	-10.1593
▁처음에는	-10.1594
▁붙여	-10.1594
▁희생	-10.1595
▁신제품	-10.1599
▁재능	-10.1603
▁식품	-10.1605
▁띠	-10.1607
▁가족과	-10.1612
▁모자	-10.1612
▁여그에	-10.1622
▁있어요	-10.1622
버스	-10.1631
▁한께	-10.1632
▁자고	-10.1641
▁건강한	-10.1641
▁그짝헌테	-10.1643
▁제품과	-10.1645
방송	-10.1645
▁차가	-10.1666
▁멋있	-10.1674
▁체크아웃	-10.1674
▁페이팔	-10.1674
▁혜택	-10.1674
▁흐름	-10.1676
▁예쁜	-10.1677
▁양념	-10.1678
▁만남	-10.1678
▁활발	-10.1679
▁우편	-10.1684
▁제외한	-10.1684
▁통계	-10.1687
▁권한	-10.1688
없는	-10.1694
▁완료되	-10.1697
▁맞게	-10.1703
황	-10.1709
▁아니지만	-10.1712
▁이내에	-10.1713
▁언	-10.1718
▁이곳에	-10.1719
▁뿐만	-10.1721
롤	-10.1722
갑니다잉	-10.1724
할게요잉	-10.1728
▁책은	-10.1729
▁했습니다잉	-10.1731
▁이용하여	-10.1733
같이	-10.174
Z	-10.1757
▁컨테이너	-10.1757
▁기숙사	-10.1757
▁변호사	-10.1757
▁쿠폰	-10.1758
▁말이여	-10.176
▁회복	-10.1761
▁무엇	-10.1761
▁거주	-10.1763
▁읍	-10.177
▁않어라	-10.1774
▁아이들이	-10.1776
▁매운	-10.1779
▁사용되는	-10.178
▁공사	-10.178
▁같네요잉	-10.1782
▁렌즈	-10.1787
신가요잉	-10.1788
▁m	-10.1789
▁괜찮아	-10.179
▁좋아하고	-10.1792
▁방안	-10.1794
년이	-10.1795
확	-10.1798
▁주목	-10.1799
않	-10.18
▁대학생	-10.1801
▁신기	-10.1809
▁위치한	-10.1811
▁계기	-10.1823
업자	-10.1825
▁했고	-10.1827
▁그만	-10.1828
▁공항에	-10.1838
깔	-10.1839
▁자동으로	-10.1839
▁믿음	-10.184
▁균형	-10.1841
▁더불어	-10.1841
▁시즌	-10.1844
허쇼잉	-10.1845
▁원활	-10.1848
▁사귀	-10.185
▁애기	-10.1862
▁수량이	-10.1866
명은	-10.1869
▁좋아하지	-10.1869
ce	-10.1873
▁전환	-10.1875
됩니다	-10.188
▁바라요잉	-10.1882
▁옥	-10.1894
▁나은	-10.1896
▁타는	-10.1899
▁없당게	-10.1904
허제라	-10.1905
▁노인	-10.1908
▁파리	-10.1914
▁생각할	-10.1918
▁쉽	-10.1919
▁자금	-10.1919
괴	-10.1921
▁결정을	-10.1921
▁초등학교	-10.1924
팽	-10.1924
▁천천히	-10.1924
▁섭취	-10.1925
▁의뢰	-10.1926
▁연장	-10.1926
▁질병	-10.193
▁의한	-10.1934
되었고	-10.1939
▁이하	-10.1942
▁되었고	-10.1942
▁전국	-10.1946
▁기능이	-10.1947
▁화려	-10.1951
▁보유	-10.1954
했다는	-10.1958
용으로	-10.196
▁지금까지	-10.1962
▁적합	-10.1962
▁싶어서	-10.1966
싸	-10.1972
▁고생	-10.1976
▁되었어라	-10.1976
뜨	-10.1978
▁생각한	-10.198
방식	-10.1991
▁공부하는	-10.1992
▁실력이	-10.1997
▁이곳에서	-10.2002
▁표기	-10.2003
▁줬	-10.2003
마트	-10.2007
▁그렇군요잉	-10.2009
▁애플리케이션	-10.2009
▁혁신	-10.2009
스럽게	-10.2012
드라	-10.2012
▁홈	-10.2013
▁평생	-10.2018
▁목요일	-10.2019
움을	-10.2019
▁관해서	-10.2028
▁해변	-10.2028
▁구축	-10.203
▁분명히	-10.203
▁있을랑가	-10.2038
한다면	-10.204
▁오해	-10.2041
▁웃음	-10.2045
▁타임	-10.2047
▁격	-10.2059
냐고	-10.2061
▁저렴한	-10.2061
▁되었당께요	-10.2062
죄	-10.2067
▁솔	-10.2074
▁놓고	-10.2074
본께	-10.2078
▁컵	-10.2082
▁퇴	-10.2084
해줍니다	-10.2088
▁한계	-10.2091
로써	-10.2098
▁실례	-10.2099
▁만약에다가	-10.2101
▁전화번호	-10.2101
▁차례	-10.2102
▁바르	-10.2105
▁만일	-10.2106
▁채워	-10.2108
▁땐	-10.2111
▁된다는	-10.2112
▁작용	-10.2115
능가	-10.2116
▁싸우	-10.2121
▁통신	-10.2125
왔습니다잉	-10.2126
▁심각한	-10.2135
ou	-10.2137
la	-10.2141
▁처음에	-10.2144
▁누나	-10.2144
보세요잉	-10.2145
▁공간이	-10.2148
▁세계적으로	-10.2149
▁공부할	-10.2152
▁너랑	-10.2154
▁버리	-10.2156
▁같아브러	-10.216
보믄	-10.2165
라니께	-10.217
▁와인	-10.2172
검	-10.2175
▁1,000	-10.2178
▁읽어	-10.2179
▁할아버지	-10.2181
헬	-10.2181
▁콘서트	-10.2181
▁너도	-10.2181
▁범	-10.2182
▁70	-10.2183
▁뭣을	-10.2184
▁샤워	-10.2184
▁설립	-10.2184
스의	-10.2185
▁거기에	-10.2185
▁보내주시믄	-10.2189
▁겉	-10.219
▁심사	-10.2191
이션	-10.2195
▁말씀해	-10.2205
▁이익을	-10.2216
▁결혼식	-10.2226
▁유형	-10.2231
▁너무나	-10.2237
▁대만	-10.2239
▁하러	-10.2241
계획	-10.2248
넘	-10.2249
▁사장님	-10.2251
▁이루어져	-10.2264
▁됐당께요	-10.2266
▁밝은	-10.2268
떼	-10.2268
륙	-10.2268
▁로고	-10.2269
▁동기	-10.2269
▁제품으로	-10.2271
▁진행하는	-10.2272
▁계절	-10.2274
▁소비자들	-10.2276
▁지검	-10.2277
▁천연	-10.2277
▁감사하겄습니다	-10.2278
이기도	-10.2281
▁지갑	-10.2282
▁일본에서	-10.2283
느냐	-10.2286
▁오늘도	-10.2287
▁낳	-10.2287
▁기름	-10.2288
부분	-10.2288
▁지난번에	-10.2317
▁것들	-10.2327
자믄	-10.2328
▁덕	-10.2335
▁먹으믄	-10.2346
해보고	-10.2349
랩	-10.2356
▁엔지니어	-10.2356
묶	-10.2356
잇	-10.2356
▁일어났	-10.2356
▁가운데	-10.2356
▁흡연	-10.2356
▁기쁘	-10.2356
▁영광	-10.2359
▁새롭	-10.236
혔다고	-10.237
▁발생할	-10.2373
▁어디로	-10.2373
▁시장에	-10.2386
▁중독	-10.2387
▁감자	-10.2391
잖	-10.2393
▁당일	-10.2404
▁거절	-10.2407
ck	-10.2414
▁때문이여	-10.2422
▁괜찮은	-10.2423
▁가족들과	-10.2424
엘	-10.2424
부터는	-10.2426
혀가꼬	-10.2427
홀	-10.2428
▁초과	-10.2428
돕	-10.2433
▁시장에서	-10.2434
시키기	-10.2436
▁관광지	-10.2437
▁좋아허는	-10.244
넷	-10.2444
렉	-10.2444
▁디지털	-10.2444
▁해결책	-10.2449
래도	-10.2451
ow	-10.2453
▁통역	-10.2457
해주신	-10.2458
▁논	-10.2462
▁여겨	-10.2463
허니	-10.2464
▁열리는	-10.2465
▁찾아보	-10.2465
▁공포	-10.2471
▁걱정하지	-10.2484
허지라잉	-10.2487
▁경비	-10.2487
▁능력이	-10.2488
▁제어	-10.2492
원으로	-10.2492
▁돼지	-10.2497
▁예정이랑께요	-10.2499
▁많습니다잉	-10.25
12	-10.2502
▁보여주는	-10.2506
였당께요	-10.251
▁입구	-10.251
들어	-10.2512
▁장애	-10.2516
허다	-10.2517
▁ᄏᄏ	-10.2518
원입니다잉	-10.2519
▁오전에	-10.2524
허신	-10.2525
작업	-10.253
MS	-10.2546
▁정상적으로	-10.2547
▁비밀	-10.255
▁편집	-10.2555
▁IT	-10.2555
▁상호	-10.2557
▁심장	-10.2557
줘서	-10.2558
▁전송	-10.256
▁인물	-10.256
▁실내	-10.2562
▁않어	-10.2575
▁수용	-10.2578
▁내에서	-10.2586
▁자리에	-10.2593
져서	-10.2603
▁읎는	-10.2605
▁하던	-10.2609
하요	-10.2618
쾌	-10.2619
시다잉	-10.262
▁같다고	-10.2621
▁다행이	-10.2621
·	-10.2623
▁얻기	-10.2623
▁텔레비전	-10.2623
빡	-10.2623
엠	-10.2623
▁흰색	-10.2623
▁안녕	-10.2624
▁팩	-10.2626
▁논문	-10.2627
▁지내고	-10.2629
▁아픈	-10.2629
▁비싼	-10.2629
함이	-10.2638
▁분야에서	-10.2638
▁봉	-10.2638
호선	-10.2643
▁것이라	-10.2651
▁출력	-10.2655
▁고르	-10.266
▁선수들	-10.2667
▁소개해	-10.2667
▁방법에	-10.2675
었다고	-10.2676
빠	-10.2678
▁심각	-10.2684
▁날씨가	-10.2686
함에	-10.2686
▁거랑께	-10.2691
▁사람덜	-10.2693
▁친한	-10.2696
▁측에서	-10.2696
▁알려줄	-10.2699
퇴	-10.27
▁사람에게	-10.2702
라요	-10.2706
페이지	-10.2706
▁상의	-10.2711
▁무대	-10.2711
▁만화	-10.2713
▁으	-10.2714
맻	-10.2714
▁협상	-10.2715
▁이외에	-10.272
▁코팅	-10.2723
스티	-10.2724
ed	-10.2726
▁출구	-10.273
▁진학	-10.2733
게요	-10.2735
▁노력할	-10.2736
▁날짜를	-10.2737
▁한국과	-10.2738
▁신호	-10.2739
▁사용한	-10.2741
▁생물	-10.2744
▁강력한	-10.2745
▁공공	-10.2746
▁받게	-10.2749
▁기간이	-10.2751
봐도	-10.2756
▁지금부터	-10.2759
▁찾아가	-10.2759
▁혔는데	-10.2762
▁열어	-10.2767
▁상관없	-10.2771
▁90	-10.2774
▁중요허	-10.2774
▁부모님이	-10.2781
▁것이며	-10.2792
▁사이에서	-10.2797
▁소식을	-10.2799
▁믿어	-10.2806
▁소프트웨어	-10.2806
▁면세점	-10.2806
분들	-10.2806
▁일어난	-10.2806
▁규제	-10.2807
니깐	-10.2807
▁뛰어난	-10.2809
▁메인	-10.2809
▁스토리	-10.2811
▁내년	-10.2811
▁인턴	-10.2813
▁출입	-10.2813
▁종료	-10.2814
▁같애	-10.2814
▁어른	-10.2815
▁미션	-10.2821
▁번째는	-10.2821
▁들었당게	-10.2822
▁제공해	-10.2823
▁기부	-10.2823
드렸	-10.2825
허시고	-10.2829
박스	-10.2833
▁양해	-10.2834
▁감기	-10.2835
▁나아가	-10.2838
▁순수	-10.2838
▁재미있게	-10.2843
하니	-10.2844
▁집이	-10.2845
▁알려져	-10.2847
▁흔들	-10.2849
▁토요일에	-10.2853
▁미국에	-10.2853
▁성실	-10.2855
해본	-10.2856
▁측면	-10.2858
하려믄	-10.2861
▁이익	-10.2863
▁지일	-10.2866
▁회사와	-10.2871
ST	-10.2873
블기	-10.2878
▁기반으로	-10.288
쁜	-10.2882
▁28	-10.2887
▁아니면	-10.2887
으믄서	-10.2888
▁드러	-10.2889
자헌테	-10.2893
▁오후에	-10.2895
▁지적	-10.2895
j	-10.2899
▁DHL	-10.2899
▁귀찮	-10.2899
▁깊이	-10.2899
▁올바른	-10.2899
▁연예인	-10.2899
▁협조	-10.2899
▁쇼핑몰	-10.2899
▁승객	-10.29
▁응답	-10.2901
▁설탕	-10.2901
▁동물들	-10.2902
▁합격	-10.2903
▁어깨	-10.2905
▁묵을	-10.2912
▁전해	-10.2913
까지는	-10.2914
▁걸렸	-10.292
▁늘어나	-10.2925
▁사망	-10.2926
▁캡	-10.293
▁이용하는	-10.2933
▁예정이어라	-10.2935
칩	-10.2942
▁같어야	-10.2943
▁쌍	-10.2944
th	-10.2954
▁결과는	-10.2955
▁세관	-10.2957
▁흔	-10.2964
하려는	-10.2965
하겠당께요	-10.2967
▁좋겄어	-10.2968
학적	-10.2968
▁대상으로	-10.2979
Q	-10.2988
▁발명	-10.2991
께요	-10.2992
▁올림픽	-10.2992
▁우체국	-10.2992
▁마스크	-10.2992
▁손가락	-10.2992
▁되면	-10.2993
▁개최	-10.2993
▁얼매	-10.2995
▁아이폰	-10.2996
▁종합	-10.2996
▁철저	-10.2997
퍼센트	-10.2998
▁강남	-10.2998
▁분이	-10.2998
곳	-10.3
▁합리적	-10.3003
▁살펴보	-10.3005
▁없어야	-10.3008
▁갈등	-10.3023
▁10%	-10.3023
▁노출	-10.3023
▁스파	-10.3024
▁핀	-10.3025
▁싶다믄	-10.3026
▁되어야	-10.3028
▁새해	-10.3031
▁만나고	-10.3035
▁알려주실	-10.304
▁쥐	-10.304
▁기도	-10.3041
▁버려	-10.3041
▁식으로	-10.3042
▁어떠	-10.3045
▁견적서	-10.305
▁갸들	-10.3054
▁보조	-10.3055
▁아니었	-10.3055
▁적합한	-10.3057
ss	-10.306
잖아야	-10.3062
▁서울에	-10.3067
▁잘하는	-10.3073
▁금요일에	-10.3078
▁아동	-10.3083
섬	-10.3085
이었당께요	-10.3085
놔	-10.3086
+	-10.3086
▁얻는	-10.3086
렁	-10.3086
떡	-10.3089
▁진행하고	-10.3089
꽃	-10.3091
▁있어브러	-10.3091
십니다잉	-10.3092
▁프리	-10.3092
▁방이	-10.3093
▁함유	-10.3093
▁고대	-10.3094
▁세포	-10.3096
주신	-10.3097
▁나라에	-10.3098
▁기억이	-10.31
▁마찬가지로	-10.3118
▁폭력	-10.3122
▁300	-10.3124
▁신중	-10.3124
▁물이	-10.3125
▁비판	-10.3125
▁제목	-10.3126
▁상태를	-10.3131
▁대학에	-10.3135
▁괜찮을	-10.3136
▁대형	-10.3139
나무	-10.3159
▁샤	-10.3162
▁않는다고	-10.3165
▁미소	-10.3165
졌어라	-10.3167
▁알려줘	-10.3176
픽	-10.3181
▁없당께	-10.3182
▁아름다움	-10.3182
▁활성화	-10.3182
▁눌러	-10.3182
▁묘사	-10.3182
▁취득	-10.3185
▁도와줄	-10.3187
▁명령	-10.3189
▁나누어	-10.319
▁운임	-10.3193
▁연락처	-10.3196
▁키워	-10.32
▁없습니다	-10.3201
▁대처	-10.3204
▁관세	-10.3208
▁줄여	-10.321
▁쉬는	-10.321
▁원본	-10.3217
▁시원	-10.322
▁감상	-10.3224
▁상업	-10.3227
머니	-10.3228
▁수업이	-10.3232
▁똑같이	-10.3239
할라믄	-10.3242
▁샘플은	-10.3249
▁싶은디요	-10.3251
지역	-10.3262
▁가능헌	-10.3267
▁벗	-10.3271
싼	-10.3272
팔	-10.3276
▁돈으로	-10.3278
▁즐거움	-10.3278
▁컨펌	-10.3278
앤	-10.3278
▁귀여운	-10.3278
줌	-10.3278
▁끊임없	-10.3278
▁확률	-10.3279
▁형태로	-10.3282
▁좋겄습니다잉	-10.3284
콜	-10.3284
▁산책	-10.3285
능력	-10.3285
▁교류	-10.3287
▁유효	-10.3288
▁시선	-10.329
▁확대	-10.3292
▁아따	-10.3298
▁잡지	-10.33
▁했지만	-10.33
해야만	-10.3302
▁너한테	-10.3303
▁불법	-10.331
▁주셨	-10.3311
▁하시	-10.3317
▁효과적인	-10.332
▁이른	-10.3321
▁뉴	-10.3322
해보쇼잉	-10.3324
▁확	-10.3328
▁해소	-10.3329
▁말아	-10.3329
▁시간과	-10.3331
▁이웃	-10.3344
▁사실이	-10.3346
하는거	-10.3346
▁세상에	-10.3347
▁해결하기	-10.3348
▁그들헌테	-10.335
▁헌다고	-10.335
▁승무원	-10.3351
▁완벽한	-10.3357
허덜	-10.3362
▁배가	-10.3372
있어	-10.3374
룩	-10.3375
▁아이스크림	-10.3375
돋	-10.3375
▁긍께	-10.3375
위원회	-10.3375
▁런던	-10.3376
▁이틀	-10.3376
▁건강에	-10.3377
▁입원	-10.3379
▁언제쯤	-10.3381
칼	-10.3383
▁취급	-10.3384
▁욕구	-10.3384
흐	-10.3385
▁적당량	-10.3389
▁사용헐	-10.339
▁계단	-10.3393
▁재미있는	-10.3404
▁봤을	-10.3407
▁사기	-10.3408
▁통하여	-10.3411
▁갑니다잉	-10.3417
부렀습니다	-10.3418
▁공동	-10.3422
할때	-10.3428
해븝니다	-10.3432
▁차단	-10.3442
▁있음	-10.3445
▁않아야	-10.3448
▁작년에	-10.3449
▁자산	-10.3452
일까정	-10.347
▁머리가	-10.3472
탱	-10.3473
겸	-10.3473
벼	-10.3473
윈	-10.3473
▁바퀴	-10.3476
▁여러분들	-10.3476
▁소셜	-10.3476
▁파괴	-10.3476
▁말로	-10.3477
▁뭘	-10.3477
▁우승	-10.348
▁출연	-10.3481
시설	-10.3484
▁되도록	-10.3484
▁창문	-10.3485
서비스	-10.3489
봄	-10.3489
▁확인해보	-10.3491
▁될랑가요	-10.3492
▁로그인	-10.3493
▁했을	-10.3494
▁연속	-10.3496
혀라	-10.3497
▁주식	-10.3499
▁있제라	-10.35
주셨	-10.35
▁자격	-10.3501
▁동네	-10.3512
▁알려주시기	-10.3514
▁추적	-10.3517
▁징	-10.3531
▁예약이	-10.3539
시기	-10.3551
▁흑	-10.3555
해줬	-10.3562
▁대금	-10.3564
▁미니	-10.3566
▁도로	-10.3566
▁보내주실	-10.3567
▁했었	-10.3569
졸	-10.3572
▁프로모션	-10.3572
▁피아노	-10.3572
▁블록	-10.3573
▁야채	-10.3576
▁점검	-10.3577
▁음식점	-10.3577
▁물리	-10.358
▁잡퍼	-10.3582
▁없애	-10.3582
▁살아가	-10.3587
▁변동	-10.3593
해주셔	-10.3596
해븐당께요	-10.3597
▁내용에	-10.36
해브러야	-10.3601
▁있음을	-10.3608
▁유학	-10.361
▁집안	-10.361
▁좋아서	-10.3616
하네요잉	-10.3625
이라니께요	-10.3626
80	-10.3629
▁가스	-10.3632
개발	-10.3635
▁그것에	-10.3652
▁“	-10.3652
번에	-10.3657
느라	-10.3659
▁생각엔	-10.3663
PS	-10.3665
▁ABC	-10.3672
▁업로드	-10.3672
▁촉촉	-10.3672
IN	-10.3672
▁다섯	-10.3674
▁미안하지만	-10.3676
▁체결	-10.3677
못	-10.3677
대회	-10.3677
▁100%	-10.3681
▁쓰여	-10.3684
▁시작할	-10.3685
둘	-10.3689
살이	-10.3689
시쯤	-10.3691
▁채용	-10.3692
▁흥미를	-10.3694
19	-10.3697
▁헤드	-10.3702
▁불리는	-10.3703
▁콘	-10.3708
▁모른	-10.3711
▁쳐	-10.3712
느	-10.3713
▁단위	-10.3714
▁있어갖고	-10.3714
▁공장에서	-10.3719
블믄	-10.372
▁첨부한	-10.3726
▁표정	-10.3727
▁세워	-10.3728
▁다니는	-10.373
단계	-10.373
▁못해가꼬	-10.3732
ir	-10.3732
된다고	-10.3738
▁고유	-10.3741
▁뒤로	-10.3743
▁가시믄	-10.3743
▁마주	-10.3748
▁29	-10.3752
▁쪼	-10.3757
시키고	-10.3758
▁수단	-10.3758
▁어찌	-10.3762
▁관점	-10.3763
▁특이	-10.3768
겹	-10.3773
셋	-10.3773
▁대중교통	-10.3773
▁솔루션	-10.3773
맵	-10.3773
뵙	-10.3773
▁불구허고	-10.3773
▁기쁨	-10.3773
▁환승	-10.3774
▁지나가	-10.3776
▁태양	-10.3779
▁기냥	-10.3782
▁보여주고	-10.3782
▁아그들	-10.3782
▁26	-10.3783
▁메모	-10.3786
▁드린	-10.3788
프트	-10.3789
▁오기	-10.3793
솔	-10.3794
▁복용	-10.3797
▁중요성	-10.38
▁주소로	-10.3801
▁손해	-10.3801
▁소매	-10.3806
▁흐	-10.3807
해지고	-10.3809
▁너와	-10.3812
100	-10.3816
▁늘어	-10.3818
▁기원	-10.3819
▁학과	-10.3821
▁선택할	-10.3824
▁가구	-10.3828
▁엄	-10.3833
▁않을까	-10.3834
▁매주	-10.3834
▁청구서	-10.3835
▁털	-10.3836
▁199	-10.3837
▁초점	-10.3838
▁고객헌테	-10.3839
▁하나로	-10.3839
▁해결할	-10.3841
▁십	-10.3844
버린	-10.3844
▁승리	-10.3848
▁대신에	-10.3849
as	-10.385
▁보며	-10.385
▁없지라	-10.3863
▁바보	-10.3868
▁같어	-10.3874
▁에이전트	-10.3875
터미널	-10.3875
▁정식	-10.3877
브러야	-10.3877
▁상품은	-10.3877
▁다운	-10.3882
▁성취	-10.3882
▁커플	-10.3884
▁오믄	-10.3886
윤	-10.3889
▁독특한	-10.3892
▁외모	-10.3899
좀	-10.39
▁전반적	-10.39
CC	-10.3904
▁인류	-10.3905
▁일어나는	-10.3906
▁지속적인	-10.3908
▁매체	-10.3911
으로다가	-10.3913
▁전원	-10.3914
▁특허	-10.3917
▁애기들	-10.3926
▁멀	-10.3926
▁합의	-10.3929
▁지배	-10.3931
▁않는다는	-10.3934
▁것인가	-10.3939
선수	-10.394
▁인생을	-10.3948
▁자라	-10.3948
헌다믄	-10.3953
학자	-10.3964
▁화장	-10.3967
▁파는	-10.3969
▁있어브러요	-10.3971
해드리	-10.3974
▁얻었	-10.3978
▁엘리베이터	-10.3978
▁인도네시아	-10.3978
뱅	-10.3978
▁도쿄	-10.3978
▁택배	-10.3978
▁흘러	-10.3978
▁경향이	-10.3978
▁편의점	-10.398
▁그다음	-10.3981
▁생각헌당께요	-10.3981
▁보여줍니다	-10.3982
기관	-10.3983
▁바빠	-10.3984
▁핵	-10.3985
▁더는	-10.3986
▁들어갔	-10.399
▁맞아	-10.3991
▁필요헌	-10.3991
▁세대	-10.3991
▁대해갖고	-10.3996
▁기본적으로	-10.3997
▁보게	-10.3999
▁보내드린	-10.4
▁소설	-10.4005
▁할라고	-10.4005
총	-10.4006
▁전용	-10.4009
▁가가꼬	-10.4009
모델	-10.4009
▁추진	-10.401
해브렀지라	-10.401
▁궁금하	-10.4013
▁만에	-10.4014
▁혼란	-10.4014
었당께	-10.4018
▁청년	-10.4019
▁팝	-10.4019
▁않지라	-10.402
▁괜찮으	-10.4021
▁가면	-10.4025
허고자	-10.4028
▁가기로	-10.4029
보단	-10.4031
▁중단	-10.4036
▁그린	-10.404
▁중요하다	-10.404
▁고객에게	-10.4041
▁받으믄	-10.4044
▁메이	-10.4053
▁신용	-10.4054
▁만나기	-10.4057
켜	-10.4058
▁장점이	-10.4062
▁행동이	-10.407
▁거지라	-10.4071
▁이용한	-10.4071
▁허리	-10.4074
▁소리가	-10.4078
쇄	-10.4078
덩	-10.4082
▁믿고	-10.4082
펀	-10.4082
▁검은색	-10.4082
▁드렸	-10.4084
▁젤로	-10.4085
▁거대	-10.4087
▁행운	-10.409
▁필터	-10.409
▁보인다	-10.409
▁않았당께요	-10.4096
▁최신	-10.4097
▁가려	-10.4098
죽	-10.4099
▁주차	-10.4102
▁들려	-10.4104
▁스키	-10.4105
▁특수	-10.4105
환경	-10.4121
▁어울리는	-10.4126
ᄏᄏᄏ	-10.414
▁아이를	-10.4154
했는지	-10.4154
▁주어	-10.4155
▁시민	-10.4155
겠다잉	-10.4156
▁이때	-10.4165
▁건디	-10.4173
▁없다	-10.4173
▁바랍니다	-10.4175
▁부탁드립니다	-10.4178
▁기존에	-10.4181
▁쿠	-10.4183
▁부모님께	-10.4184
캔	-10.4184
▁날에	-10.4186
ᄒ	-10.4188
▁부드러운	-10.4188
▁싱가포르	-10.4188
빅	-10.4188
▁바뀌었	-10.4188
빗	-10.4188
▁스크린	-10.4188
▁칭찬	-10.4188
▁시리즈	-10.4188
▁배터리	-10.4188
▁설득	-10.4189
▁연휴	-10.419
▁유아	-10.4191
▁나만	-10.4192
▁사라지	-10.4196
▁다닐	-10.4198
▁이번에는	-10.4199
▁그래가꼬	-10.4204
▁들었어요잉	-10.4205
▁간편	-10.4205
▁이처럼	-10.4207
▁끝까지	-10.4215
▁포기하지	-10.4218
엄	-10.4222
▁먹지	-10.4233
▁제공할	-10.4241
AR	-10.4242
▁인해가꼬	-10.4244
▁우정	-10.4249
▁환경에	-10.4255
▁수영장	-10.4255
▁짝	-10.4259
▁물에	-10.426
▁켜	-10.4264
▁적절	-10.427
▁포함된	-10.4271
음에도	-10.4271
▁체력	-10.4279
▁교수	-10.4292
▁허지라	-10.4293
븠	-10.4294
해지는	-10.4294
하것습니다	-10.4294
▁일상생활	-10.4295
▁생존	-10.4296
▁법률	-10.4298
▁위협	-10.4302
▁준비해	-10.4303
▁것이라는	-10.4304
▁현상이	-10.4304
▁실천	-10.4307
▁거요	-10.431
us	-10.431
▁참고로	-10.4313
머리	-10.4315
거든요잉	-10.4315
▁세팅	-10.4318
▁대학교에	-10.4324
지만서도	-10.4328
▁일하고	-10.4329
▁자본	-10.4329
▁해보고	-10.4331
▁상태에서	-10.4334
▁지하	-10.4338
▁명시	-10.4341
줘블	-10.4344
▁도면	-10.4345
겠다	-10.4347
▁일주일에	-10.4348
▁개별	-10.4349
▁반대로	-10.4351
▁회화	-10.4357
▁목적으로	-10.4357
▁지역에	-10.4363
▁알아보고	-10.4372
▁사인	-10.4372
었으믄	-10.4373
▁희	-10.4379
▁솔직	-10.4394
▁외에도	-10.4398
뻔	-10.4401
▁멋지	-10.4402
▁아프리카	-10.4402
월부터	-10.4403
▁리뷰	-10.4403
▁못혔습니다잉	-10.4403
▁향후	-10.4406
▁깔끔	-10.4414
▁공감	-10.4419
▁타인	-10.4422
▁정확하게	-10.4424
▁들어갈	-10.4425
▁누구보다	-10.4425
▁안되	-10.4427
▁점수를	-10.4427
▁겁	-10.4434
벽	-10.4438
▁불행	-10.4441
징	-10.4442
털	-10.4443
▁지대로	-10.4452
▁목적지	-10.4453
▁넘는	-10.4459
우스	-10.4461
▁f	-10.4464
▁탑	-10.4468
▁중심으로	-10.4471
▁아그	-10.4478
▁프로그램에	-10.4479
▁에어	-10.448
▁역사를	-10.4484
이었고	-10.4487
▁책상	-10.4493
▁요즘은	-10.4495
▁길에	-10.4496
▁정당	-10.4499
▁실수로	-10.45
부렀다	-10.4503
공원	-10.4508
▁떡볶이	-10.451
▁애니메이션	-10.451
▁찾았	-10.451
▁여동생	-10.451
▁다행히	-10.451
▁블루	-10.4511
▁줄어들	-10.4512
▁부탁드린당께요	-10.4512
▁않다고	-10.4517
▁출판	-10.4517
▁있응께	-10.4519
▁쪼깨씩	-10.4522
▁사람도	-10.4522
▁개봉	-10.4523
▁일할	-10.4532
▁일자리	-10.4533
▁주어진	-10.4536
▁않습니다	-10.4536
▁열린	-10.454
▁행정	-10.4542
▁죄	-10.4544
▁물어봐	-10.4553
였던	-10.4555
▁불가능한	-10.4557
▁읽는	-10.4567
▁혔어요	-10.4569
▁사용허는	-10.4575
▁먹은	-10.4579
럴	-10.4583
▁콩	-10.4584
▁차이점	-10.4591
▁좋아요잉	-10.4591
닐	-10.4596
▁경쟁력	-10.4599
▁보드	-10.46
▁용어	-10.4601
▁좋당께요	-10.4605
▁싶고	-10.4607
즘	-10.4615
흘	-10.4616
▁떡	-10.4616
▁도중	-10.4618
▁있어블	-10.4619
▁인력	-10.4619
롬	-10.462
ᄋ	-10.462
▁다운로드	-10.462
▁태어나	-10.462
▁에어컨	-10.4621
▁무조건	-10.4623
500	-10.4626
▁바쁜	-10.4626
혔다는	-10.4626
▁정해진	-10.463
km	-10.463
▁연극	-10.463
▁무기	-10.4631
▁지난주에	-10.4634
▁위기	-10.4641
▁고향	-10.4646
▁승무원이	-10.4648
▁보습	-10.4648
▁기기	-10.4651
▁데에	-10.4652
▁어렵습니다잉	-10.4657
딱	-10.466
▁대량	-10.4665
▁알지	-10.4666
벤	-10.4667
또	-10.467
팬	-10.467
▁IP	-10.4672
활동	-10.4676
기업	-10.4679
▁많지	-10.4679
용품	-10.4681
▁당신께	-10.4683
스카	-10.4683
헌다고	-10.4685
▁시청자	-10.4685
▁남들	-10.4688
▁통해갖고	-10.4701
▁은제	-10.4703
▁있습니까	-10.4704
했어요	-10.4705
▁소금	-10.4706
▁창업	-10.4708
▁발음	-10.471
▁가보	-10.4712
리스트	-10.4715
▁일본어	-10.4717
▁독자	-10.472
te	-10.4723
▁세우	-10.4723
멘	-10.4731
긋	-10.4731
▁그렇게	-10.4731
▁깊게	-10.4731
놈	-10.4731
듀	-10.4731
쁠	-10.4731
주시겄어요	-10.4731
▁백화점	-10.4731
▁멈추	-10.4731
▁리포트	-10.4731
▁뿌듯	-10.4731
시킵니다	-10.4732
▁맨드는	-10.4733
▁긴급	-10.4737
▁도망	-10.4739
▁민감	-10.474
▁텐디	-10.4741
▁테러	-10.475
▁연출	-10.4751
▁미친	-10.4756
▁그헌테	-10.476
▁요약	-10.476
▁IS	-10.4761
▁고런	-10.4766
▁잠시만	-10.4777
▁시스템이	-10.4779
▁다름	-10.4784
▁재산	-10.4787
된다믄	-10.4787
르게	-10.4791
▁내년에	-10.4797
im	-10.4804
▁칸	-10.4809
▁원합니다잉	-10.4814
▁걸로	-10.4815
▁이민	-10.4817
▁풍부	-10.4822
TA	-10.483
AP	-10.4832
ad	-10.4832
▁뛰어나	-10.4836
▁생각허고	-10.4838
▁가공	-10.4838
▁임시	-10.4838
▁잃어	-10.4843
껴	-10.4843
▁상기	-10.4843
▁잊어	-10.4844
붕	-10.4844
▁깊었	-10.4844
▁옮겨	-10.4844
괄	-10.4844
옹	-10.4844
▁왜냐믄	-10.4844
▁롯데	-10.4844
▁첨부파일	-10.4844
▁때때로	-10.4844
▁압력	-10.4846
▁구멍	-10.4846
▁레벨	-10.4846
하여야	-10.4848
▁편견	-10.4852
▁책임이	-10.4853
▁송부	-10.4856
▁45	-10.4856
▁살짝	-10.4857
▁요청합니다잉	-10.4858
▁외출	-10.4859
▁가능하다믄	-10.4865
MP	-10.4871
스턴	-10.4873
▁들어가는	-10.4874
▁달려	-10.4874
했으믄	-10.4874
▁급여	-10.4875
▁임대	-10.4875
▁방문할	-10.4875
▁줘야	-10.4876
▁전문점	-10.4878
▁혼자서	-10.488
▁갸	-10.4884
▁인재	-10.4893
▁v	-10.4901
▁거쳐	-10.4903
카드	-10.4904
토리	-10.4905
▁엄마는	-10.4915
▁우려	-10.492
▁왔는디	-10.4922
그래	-10.4929
해주시고	-10.4938
▁드시	-10.494
▁하니	-10.4945
▁법적	-10.4947
▁아닐	-10.4949
▁최소한	-10.4952
왔지라	-10.4956
묘	-10.4957
흙	-10.4957
▁휴대전화	-10.4957
▁하하하	-10.4957
▁$1	-10.4961
▁프레임	-10.4963
▁골프	-10.4965
▁화이트	-10.4965
▁보완	-10.4968
▁길거리	-10.4969
▁구매한	-10.497
▁알려준	-10.4971
▁제기	-10.4972
▁조합	-10.4974
▁농구	-10.4975
▁경계	-10.4981
▁위반	-10.4982
▁필요하다고	-10.4986
40	-10.4989
▁신속	-10.499
▁자식	-10.4991
▁것이여	-10.4991
▁사용하기	-10.4998
▁인생에서	-10.5001
▁여행자	-10.5001
▁느끼게	-10.5007
잖어	-10.5008
빌	-10.5018
▁상점	-10.502
▁굽	-10.5022
▁중국인	-10.5037
▁상태가	-10.5053
▁이끌	-10.5057
▁죄송합니다	-10.5063
▁순서	-10.507
낭	-10.5071
▁매뉴얼	-10.5072
▁밖으로	-10.5072
뇨	-10.5072
쉴	-10.5072
▁태권도	-10.5072
▁메세지	-10.5072
▁경력	-10.5074
▁에이	-10.5074
▁2018	-10.5075
왔던	-10.5075
▁장난	-10.5075
▁가깝	-10.5077
▁포스터	-10.5077
▁오르	-10.5079
▁가려고	-10.508
▁월급	-10.508
▁보존	-10.5081
▁노력하고	-10.5082
▁헌디	-10.5084
▁간식	-10.509
▁해준	-10.5093
▁들어서	-10.5094
▁콜라	-10.5102
▁휴일	-10.5104
▁흑인	-10.5104
▁예시	-10.5104
▁겨울에	-10.5106
▁전체적으로	-10.5107
집니다	-10.5118
▁없었당께요	-10.5119
▁주방	-10.5122
▁소문	-10.5126
▁입국	-10.5128
▁싶다고	-10.5132
▁장점은	-10.5132
셀	-10.5133
몰	-10.5133
▁이루기	-10.5136
▁시스템은	-10.5138
▁방으로	-10.5139
빵	-10.5139
합니까	-10.514
▁나와서	-10.515
70	-10.5155
▁역량	-10.5159
▁관련해가꼬	-10.516
▁숲	-10.5162
픈	-10.5171
▁허요	-10.5172
▁원하지	-10.5172
▁ᅲᅲ	-10.5172
▁사진으로	-10.5176
15	-10.5178
▁보내기	-10.5186
멸	-10.5188
▁똑똑	-10.5188
▁말레이시아	-10.5188
▁애완동물	-10.5188
▁프린트	-10.5188
갓	-10.5188
짱	-10.5188
▁마이크	-10.519
▁가르치	-10.519
▁못허고	-10.519
▁무엇인지	-10.5191
▁환영	-10.5192
▁지진	-10.5192
▁영감을	-10.5194
▁젖	-10.5194
▁취향	-10.5194
▁뿌리	-10.5194
▁야외	-10.5195
▁입사	-10.5195
▁야간	-10.5203
▁시골	-10.5204
▁오른쪽으로	-10.5211
▁그것들	-10.5211
거래	-10.5214
▁자퍼	-10.5215
되었는지	-10.5217
▁OS	-10.5223
▁아파	-10.5225
▁찌	-10.5229
먼	-10.5239
▁어려움이	-10.5239
▁알려진	-10.5248
▁들은	-10.5249
▁뭐가	-10.5252
▁나이가	-10.5252
▁않았다	-10.5253
▁조명	-10.5258
▁문구	-10.5258
평가	-10.5263
ur	-10.5275
계약	-10.5275
▁시트	-10.5283
▁들어왔	-10.5286
▁후보	-10.5287
▁마음으로	-10.529
▁주문할	-10.5294
▁필수적	-10.5296
드릴까요잉	-10.5297
릅니다잉	-10.5301
럭	-10.5305
▁커뮤니케이션	-10.5306
짤	-10.5306
▁라디오	-10.5306
▁두려워	-10.5306
▁드디어	-10.5306
▁을마나	-10.5306
▁차라리	-10.5306
▁중간고사	-10.5307
▁보여줄	-10.531
▁투표	-10.5313
▁관광객	-10.5316
▁컴	-10.5318
▁드리고	-10.5318
▁과자	-10.5319
▁창조	-10.532
▁계란	-10.5322
▁있으시믄	-10.5326
▁정치적	-10.5328
▁빌리	-10.5328
▁배출	-10.5334
OT	-10.5336
▁불편함	-10.5338
▁진단	-10.5345
▁저한테	-10.5346
▁모임	-10.5347
▁한정	-10.535
▁팀원들	-10.5351
▁찍는	-10.5357
▁살아가는	-10.5358
▁사전에	-10.5358
▁손으로	-10.5361
▁없었어라	-10.5364
▁귀사에서	-10.5364
▁되어서	-10.5367
▁요금이	-10.5368
하므로	-10.5376
▁보시믄	-10.5377
하셔서	-10.5377
▁먹기	-10.538
자료	-10.538
▁재정	-10.539
▁재물	-10.5392
▁나오지	-10.5394
▁부분에서	-10.5395
ap	-10.5396
했어야	-10.5397
▁가지게	-10.5399
▁들었는디	-10.5411
▁골라	-10.5413
텍	-10.5425
놨	-10.5425
▁인스타그램	-10.5425
꼽	-10.5425
믹	-10.5425
샵	-10.5425
▁파란색	-10.5425
▁가까워	-10.5425
▁괴롭	-10.5425
▁환율	-10.5427
▁빌딩	-10.5427
▁가격과	-10.5428
▁위에서	-10.5428
▁파스타	-10.5431
▁납기	-10.5431
▁그랴	-10.5431
▁아이돌	-10.5433
▁결심	-10.5436
▁실현	-10.5436
▁감성	-10.5437
▁안내해	-10.5437
▁전부터	-10.5439
▁애플	-10.5441
▁도달	-10.5442
▁내야	-10.5444
▁이루어진	-10.5445
▁안전한	-10.5448
▁예매	-10.5449
헌디	-10.545
▁생선	-10.5453
▁박사	-10.5456
▁사항은	-10.5459
▁로비	-10.5462
▁매번	-10.5463
▁제외하고	-10.5466
▁등급	-10.5478
▁맞추어	-10.5482
▁위해갖고	-10.5486
▁유발	-10.5488
드린당께요	-10.5491
▁소화	-10.5495
으신	-10.5496
콘	-10.55
핀	-10.5503
J	-10.5503
to	-10.551
▁영향력	-10.5512
▁생각허는	-10.5517
였는디	-10.5521
년부터	-10.5521
▁말씀드리	-10.5521
▁진로	-10.5524
▁중이여	-10.5527
겐	-10.5532
▁중국에서	-10.5536
델	-10.5537
▁사물	-10.5537
▁생각해보	-10.5539
▁묵고	-10.5543
▁기독교	-10.5546
▁스테이크	-10.5546
▁펌웨어	-10.5546
잎	-10.5546
▁밝혀	-10.5546
▁디즈니	-10.5546
▁흥미로운	-10.5547
▁추후	-10.5552
이어서	-10.5552
하였으며	-10.5553
▁파손	-10.5554
였고	-10.5567
▁진료	-10.5567
TS	-10.5568
▁출신	-10.5569
▁사람으로	-10.5572
▁않았고	-10.5577
▁용서	-10.558
nd	-10.5583
▁추정	-10.5584
▁돼서	-10.5587
보자잉	-10.5593
▁강도	-10.5594
▁기간에	-10.5595
▁관리자	-10.5606
▁연인	-10.5609
▁주름	-10.5609
▁의상	-10.5612
되었다고	-10.5617
lo	-10.562
▁관점에서	-10.562
▁받아서	-10.5626
▁노력하는	-10.5628
▁사이트에서	-10.5635
▁말해주	-10.5638
▁정원	-10.564
▁인하여	-10.5645
▁되었습니다	-10.5659
▁대리	-10.5661
흡	-10.5665
템	-10.5665
캠	-10.5667
▁좋겄다	-10.5668
▁기다릴	-10.5668
▁일어날	-10.5668
▁로봇	-10.5668
▁보내주시기	-10.5673
하십쇼잉	-10.5673
▁돌아왔	-10.5675
▁내려가	-10.5675
▁추석	-10.5677
▁남녀	-10.5678
▁돌아와	-10.568
▁살인	-10.5685
▁장난감	-10.5685
▁느가	-10.5687
검사	-10.5694
▁매달	-10.5695
보기	-10.5695
▁주시고	-10.57
물질	-10.5702
▁건너	-10.5708
▁주택	-10.5709
▁장르	-10.5715
▁손실	-10.5722
▁도착하믄	-10.5728
▁지난주	-10.5732
ID	-10.5733
▁침해	-10.5739
▁받아들이	-10.5743
▁싫어하는	-10.5747
▁진심	-10.5753
▁깨끗한	-10.5759
▁요거	-10.576
▁맨들었	-10.5762
▁강제	-10.5769
▁일요일에	-10.5772
▁같지	-10.5773
▁예술가	-10.5786
▁액세서리	-10.5791
▁카테고리	-10.5791
둬	-10.5791
뚝	-10.5791
잭	-10.5791
▁마침내	-10.5791
▁두려움	-10.5791
▁유치원	-10.5791
▁xx	-10.5791
▁압박	-10.5791
▁떨어진	-10.5792
▁다수	-10.5793
▁빨간색	-10.5793
▁그만큼	-10.5795
▁의존	-10.5798
▁누락	-10.5799
▁검증	-10.58
▁그런지	-10.5801
▁성향	-10.5802
▁신나	-10.5803
▁나빠	-10.5803
▁얼음	-10.5805
▁졸업식	-10.5822
▁재생	-10.583
해줘야	-10.5831
▁통보	-10.5831
져가꼬	-10.584
셨어라	-10.5847
▁걸리는	-10.5851
▁살기	-10.5858
???	-10.586
▁확실한	-10.5862
▁쭉	-10.5866
▁크리스	-10.5872
▁구성되어	-10.5878
▁중이어라	-10.5882
옷	-10.5883
▁똥	-10.5884
▁손님들	-10.5886
학기	-10.5889
▁엉	-10.5892
▁주믄	-10.59
▁곰	-10.5903
되었던	-10.5909
▁갈아	-10.591
크림	-10.5912
깐	-10.5913
륨	-10.5916
뿔	-10.5916
톰	-10.5916
▁나타났	-10.5916
▁없게	-10.5919
▁짜증	-10.592
▁스킨	-10.5924
▁궁금해	-10.5925
▁돕는	-10.5932
▁설비	-10.5935
▁이끌어	-10.5941
▁회전	-10.5947
▁로마	-10.5949
▁원한다믄	-10.5949
▁싶다는	-10.5961
▁조회	-10.5962
▁좋아합니다잉	-10.5967
▁권력	-10.5972
▁마법	-10.5973
▁와가꼬	-10.5976
▁의문	-10.5978
해드리겄습니다잉	-10.598
▁쌀	-10.5996
이었당께	-10.5998
▁화제	-10.5999
것같	-10.6
▁조리	-10.6008
▁좋으	-10.601
▁아시	-10.601
▁저그	-10.6011
▁구체적으로	-10.6015
주셔야	-10.6016
헤	-10.6016
▁그녀와	-10.602
▁이름으로	-10.6023
▁강력	-10.6029
▁보수	-10.603
▁크고	-10.6031
이었던	-10.6033
거같	-10.6039
▁니기	-10.6042
썰	-10.6043
▁낭비	-10.6043
▁납품	-10.6043
▁좌우	-10.6043
▁들여	-10.6043
▁그래픽	-10.6044
▁처벌	-10.6045
님께서	-10.6047
드릴게라	-10.6048
▁해당하는	-10.6052
▁원칙	-10.6053
AN	-10.6053
▁흔히	-10.6057
에겐	-10.6057
먼트	-10.6059
▁통증	-10.6059
25	-10.6065
ent	-10.6066
▁봤는디	-10.6071
▁패드	-10.6074
▁교실	-10.6074
▁성형	-10.6076
▁버튼	-10.6081
▁명세	-10.6091
▁증명서	-10.6095
▁땀	-10.6099
▁일치	-10.6099
▁상관없이	-10.61
▁써야	-10.6108
실랑가요	-10.6132
▁통일	-10.6135
▁돼야	-10.6139
▁주제로	-10.6141
잘	-10.6145
보내	-10.6149
▁남기	-10.6166
주시믄	-10.617
잼	-10.6171
▁모르겄어	-10.6171
▁프로세스	-10.6171
▁싱글	-10.6171
▁중이랑께요	-10.6171
▁리더십	-10.6172
▁호흡	-10.6173
▁물고기	-10.6175
▁있어븝니다	-10.618
▁보여준	-10.6181
으니께	-10.6181
레이션	-10.6181
마리	-10.6182
▁나믄	-10.6187
▁부스	-10.6189
허면	-10.6196
▁찬성	-10.6201
주시고	-10.6211
▁인권	-10.6218
▁들어가서	-10.6218
▁싶당게	-10.6221
▁사용허고	-10.6222
▁부부	-10.6226
▁놓치	-10.6228
▁처음부터	-10.6229
▁중점	-10.6234
▁없음	-10.6235
보드	-10.6236
해드릴	-10.6237
▁밖에서	-10.6243
▁보내드릴	-10.6246
▁사양	-10.6247
졌당께요	-10.6251
아니	-10.6253
▁절대로	-10.6255
▁선거	-10.6268
빨	-10.6273
띠	-10.6278
ot	-10.628
이므로	-10.6286
천원	-10.6289
▁로그	-10.6296
갱	-10.63
밴	-10.63
▁가벼운	-10.6301
▁부탁드려요잉	-10.6301
▁스트리머	-10.6301
곱	-10.6301
틸	-10.6301
▁교통사고	-10.6301
▁무릎	-10.6301
▁밴드	-10.6301
▁노트북	-10.6301
▁마실	-10.6303
▁프로필	-10.6303
▁찍고	-10.6306
▁바란다잉	-10.6308
▁학업	-10.6311
줘가꼬	-10.6313
▁취직	-10.6314
▁있는디요	-10.6317
▁파트	-10.6322
▁철학	-10.6325
세계	-10.6329
▁효과적으로	-10.633
▁좋다	-10.6331
▁먹방	-10.6331
들헌티	-10.6334
▁학부	-10.6335
▁복지	-10.6338
코드	-10.6339
▁소속	-10.6344
▁들었어라	-10.6344
▁풍부한	-10.6351
허거나	-10.6354
▁변수	-10.6356
▁도서	-10.6361
▁때문이여라	-10.6361
▁31	-10.6364
셨으믄	-10.6367
▁제주	-10.6371
놀이	-10.638
▁사회에서	-10.6385
해브러서	-10.6386
해주기	-10.6398
▁갖추	-10.6399
딜	-10.6409
읍	-10.6411
허다고	-10.6416
핵	-10.6418
사진	-10.6421
▁다르다	-10.643
씹	-10.6432
▁샐러드	-10.6432
▁커뮤니티	-10.6432
하겄다	-10.6432
▁리조트	-10.6432
▁우연히	-10.6432
파운드	-10.6433
▁영웅	-10.6433
▁묵으	-10.6434
▁끝났	-10.6435
▁민족	-10.6436
▁절약	-10.644
▁출석	-10.644
▁동화	-10.6444
▁알아봐	-10.6449
길래	-10.6449
▁보충	-10.6451
▁같습니다	-10.6457
▁않으면	-10.6458
▁기후	-10.6461
▁사람덜이	-10.6461
므로	-10.6468
▁기다려야	-10.6469
▁장애인	-10.6472
해브렀당께요	-10.6475
▁실시간	-10.6476
▁탄력	-10.6477
▁문화적	-10.6484
드렸습니다잉	-10.6485
▁죽어	-10.6493
▁구워	-10.6496
▁신부	-10.6528
▁오일	-10.6529
▁알려드리	-10.6542
정책	-10.6545
▁조화	-10.6552
▁필요헙니다	-10.6556
되어있는	-10.6559
렴	-10.6559
▁수요일에	-10.6562
▁프레	-10.6563
했다믄	-10.6564
▁우찌케	-10.6566
뼈	-10.6566
햄	-10.6566
▁댓글	-10.6566
▁플라스틱	-10.6566
▁글치만	-10.6566
▁비밀번호	-10.6567
▁어렵다	-10.6567
▁답답	-10.6568
▁댕기	-10.657
▁돌아올	-10.6571
▁응급	-10.6574
사업	-10.6577
했는데	-10.658
▁째깐한	-10.6582
▁법인	-10.6582
▁문법	-10.6587
▁모르지만	-10.6593
갖구	-10.6593
▁간격	-10.6593
▁궁금합니다잉	-10.6594
▁건축물	-10.6594
▁리그	-10.6603
▁보증	-10.6615
▁보석	-10.6617
▁고소	-10.6623
▁Ma	-10.6623
▁소모	-10.6625
버릴	-10.663
▁같다	-10.6637
▁만나게	-10.6648
▁때문이지라	-10.665
▁시일	-10.665
▁있으신가요	-10.6654
▁유사	-10.6656
18	-10.6658
▁들지	-10.6662
문제	-10.6667
▁복사	-10.6673
▁상해	-10.6676
산업	-10.6683
춤	-10.6687
▁목요일에	-10.6687
▁때문입니다	-10.6688
▁단순한	-10.6693
셜	-10.6696
웅	-10.6699
앗	-10.67
덤	-10.6701
▁긋따가	-10.6701
▁캘리포니아	-10.6701
▁평범한	-10.6701
▁브라질	-10.6701
구마잉	-10.6701
▁귀엽	-10.6702
▁텐께	-10.6702
▁그쪽	-10.6703
▁용돈	-10.6704
▁스캔	-10.6705
▁가능한가요잉	-10.6708
▁교복	-10.6709
▁탄생	-10.671
▁절반	-10.671
▁중요헌	-10.6712
▁올릴	-10.6716
▁다녀왔	-10.6718
▁팀원	-10.6718
75	-10.6718
▁건디요	-10.6718
▁지났	-10.6719
▁둘러	-10.6726
▁내부적으로	-10.6727
▁환상	-10.6728
▁"""	-10.6734
▁쏘	-10.6735
갈비	-10.6735
▁마치고	-10.6736
냅니다	-10.6738
▁쉬고	-10.6741
층으로	-10.6741
▁문학	-10.6757
▁여행용	-10.6762
▁맛있게	-10.6765
▁제약	-10.6775
되어있습니다잉	-10.679
99	-10.6795
▁마크	-10.6798
▁되게	-10.6801
넣	-10.6821
릅니다	-10.6825
▁인정받	-10.6829
잠	-10.6829
▁엑셀	-10.6838
▁프린터	-10.6838
넥	-10.6838
▁에이전시	-10.6838
▁대구	-10.6839
▁영혼	-10.684
▁엄격	-10.684
▁당황	-10.6841
▁쩍에	-10.6843
▁불편하	-10.6844
▁다니고	-10.6847
▁노트	-10.6847
▁슬프	-10.6847
▁드리도록	-10.6851
▁엑스	-10.6851
▁눈물	-10.6852
▁과연	-10.6852
▁같아가꼬	-10.686
▁구현	-10.6861
▁동반	-10.6867
BA	-10.6868
▁적당한	-10.6872
▁조건으로	-10.6872
▁효율적으로	-10.6881
▁안경	-10.6884
▁열차	-10.6891
였어요잉	-10.6893
군요	-10.6897
AC	-10.6906
▁싶기	-10.6912
있어라	-10.6913
▁부상	-10.6916
▁자신들	-10.6922
뤄	-10.693
▁되어가꼬	-10.6931
pe	-10.6931
▁에러	-10.6943
▁가보고	-10.6943
거여라	-10.6955
▁지역에서	-10.696
학교	-10.6964
잖아	-10.6966
눌	-10.6967
▁용량	-10.6969
▁열려	-10.697
▁요소들	-10.697
팩	-10.6972
딸	-10.6975
▁Control	-10.6977
▁인테리어	-10.6977
▁태어났	-10.6977
턱	-10.6977
틈	-10.6977
푹	-10.6977
▁ᄒᄒ	-10.6977
▁단백질	-10.6977
▁셋째	-10.6977
▁캠프	-10.6977
▁오렌지	-10.6977
▁갑작	-10.6977
▁슬픔	-10.6977
▁액체	-10.6977
▁동료들	-10.6977
공간	-10.698
▁반납	-10.6989
▁알겠습니다잉	-10.6998
▁번씩	-10.7002
▁친구에게	-10.7006
▁된다면	-10.7021
▁아니랑께요	-10.7021
▁안심	-10.7033
허요잉	-10.7033
▁거기서	-10.7034
▁피해자	-10.7036
me	-10.7039
▁상위	-10.7042
▁빛나	-10.7044
이어가꼬	-10.7049
▁생겨서	-10.7052
▁사진들	-10.7052
▁어울리	-10.7059
▁이혼	-10.7061
▁모드	-10.7073
▁훌륭	-10.7074
▁은행에서	-10.7082
▁맞는지	-10.709
▁맨들고	-10.7096
▁착한	-10.7102
▁어떨	-10.7103
▁긍정적으로	-10.7114
_	-10.7117
▁셔틀버스	-10.7117
▁즐거웠	-10.7117
▁캠페인	-10.7117
샷	-10.7117
팁	-10.7117
▁블로그	-10.7117
혐	-10.7117
▁캠핑	-10.7117
▁측면에서	-10.7118
▁해외여행	-10.712
▁반죽	-10.7123
▁50%	-10.7126
▁운행	-10.7127
▁위험한	-10.7127
▁처방	-10.7128
▁이쁘	-10.7129
▁마스터	-10.713
▁잡다	-10.7132
▁불평	-10.7133
▁땜시롱	-10.714
▁다양헌	-10.7147
▁지하철역	-10.7147
▁싸움	-10.715
▁재판	-10.7152
▁있겠	-10.7153
놀	-10.7153
▁말아야	-10.7161
ie	-10.7167
▁문제없	-10.717
하시면	-10.7173
▁한잔	-10.7179
혔었	-10.7182
▁예비	-10.7191
▁무엇인가	-10.7193
해봐야	-10.7198
혔당께요잉	-10.7241
▁안쪽	-10.7244
▁싶지만	-10.7245
▁애들	-10.7247
▁향수	-10.7252
쩍	-10.7255
렵	-10.7256
옵	-10.7258
되븝니다	-10.7259
랙	-10.726
꽉	-10.726
▁트렌드	-10.726
덴	-10.726
멧	-10.726
찜	-10.726
쿤	-10.726
▁부동산	-10.726
▁슈퍼	-10.726
▁협업	-10.726
▁스펙	-10.7261
▁유전자	-10.7261
▁쿠키	-10.7263
▁교훈	-10.7263
▁여성들	-10.7268
▁창출	-10.727
▁하우스	-10.727
▁결코	-10.727
▁곡선	-10.7273
."""	-10.7273
되었다는	-10.7274
▁거시여	-10.7283
▁연말	-10.7287
▁예정이여라	-10.7289
▁생기믄	-10.7294
▁서양	-10.7297
▁단계에서	-10.73
▁성공적으로	-10.731
▁받았어라	-10.732
▁교정	-10.7325
스코	-10.7332
▁쉽고	-10.7333
▁지출	-10.7336
칩니다	-10.7338
▁35	-10.7342
당게요	-10.7348
▁유래	-10.7352
혔당께요	-10.7353
▁향기	-10.7362
▁감지	-10.7384
욱	-10.7385
인디요잉	-10.7393
획	-10.7396
q	-10.7405
삐	-10.7405
▁펼쳐	-10.7405
뮤	-10.7405
아메리카	-10.7405
당깨요	-10.7406
▁물어봤	-10.7407
헌디요	-10.7407
펜	-10.7408
즉	-10.7411
▁거에요잉	-10.7412
▁발효	-10.7414
▁표본	-10.7417
▁보증금	-10.7418
으쇼잉	-10.7422
▁직무	-10.7424
▁바꾸고	-10.7425
▁요새	-10.7427
▁있었습니다	-10.743
▁출발하는	-10.7436
▁동양	-10.744
▁선배	-10.7442
▁많아가꼬	-10.7446
▁있었으믄	-10.7447
▁타이어	-10.745
IP	-10.7452
▁역사적	-10.7453
▁유니	-10.7456
▁재밌게	-10.7464
▁외국어	-10.7476
▁읽기	-10.7478
▁날아	-10.7484
하느라	-10.7494
▁늘려	-10.7495
▁사소	-10.7495
▁나쁘	-10.7499
▁빠르	-10.75
▁소수	-10.7504
if	-10.7518
했어라우	-10.752
▁변경된	-10.7522
▁사원	-10.7527
브러라	-10.7534
▁제발	-10.7538
▁위대	-10.7542
되었다	-10.7543
▁사장	-10.7547
져블	-10.7551
핏	-10.7552
▁노란색	-10.7552
▁요로코롬	-10.7552
▁있어븐다니께요	-10.7552
넬	-10.7552
렐	-10.7552
흉	-10.7552
▁냉장고	-10.7552
▁화이팅	-10.7552
▁모댔	-10.7553
▁관객	-10.7558
▁느그	-10.7563
밤	-10.7563
▁토대로	-10.7564
▁소득	-10.7567
▁창의적인	-10.7568
▁으디	-10.7571
▁독점	-10.7571
▁들어있	-10.7571
잖아요잉	-10.7572
▁순위	-10.7575
▁지낼	-10.7577
▁올린	-10.7577
▁대여	-10.7577
▁되길	-10.758
▁있었지만	-10.7582
미터	-10.7585
▁연두	-10.7587
▁빠르고	-10.7596
▁준다고	-10.7605
▁않았지만	-10.7606
▁인수	-10.7606
돼서	-10.7608
▁멀어	-10.7608
▁연동	-10.7612
트레	-10.7619
자로서	-10.7621
▁주차장	-10.7624
600	-10.7625
▁있었다잉	-10.7626
▁자살	-10.7627
▁가져오	-10.7632
▁먹어야	-10.7641
▁연구소	-10.7647
▁커다	-10.7652
기능	-10.7653
95	-10.7653
치료	-10.7653
▁최적	-10.7657
하긴	-10.766
하셔가꼬	-10.7666
했는디요	-10.7671
▁운전자	-10.7675
▁외국에서	-10.7692
▁진행되는	-10.7695
▁LED	-10.7702
▁뮤지컬	-10.7702
▁봅니다잉	-10.7702
탔	-10.7702
▁재활용	-10.7702
▁기다렸	-10.7702
▁공무원	-10.7702
▁워떤	-10.7702
▁텐데	-10.7702
▁댄스	-10.7702
▁삼촌	-10.7704
▁추측	-10.7705
▁염색	-10.7708
▁죄송한디	-10.7709
▁어떨까요잉	-10.7709
▁나옵니다잉	-10.771
▁스카이	-10.771
▁제휴	-10.7711
▁Mr	-10.7712
▁미스터	-10.7712
일간	-10.7716
ip	-10.7718
▁빠진	-10.7722
▁명절	-10.7722
써	-10.7727
▁20%	-10.7728
▁휴대	-10.7739
▁알림	-10.7746
▁부자	-10.7753
▁개성	-10.7753
헐라고	-10.7756
▁많기	-10.7764
▁진행되고	-10.7768
▁앉아서	-10.7771
▁된당가요	-10.7777
▁대학원	-10.7782
▁결함	-10.7789
▁재질	-10.7793
▁대안	-10.7796
상태	-10.7833
마저	-10.7835
▁빼고	-10.7841
▁읎어	-10.7842
▁비전	-10.7844
엽	-10.7852
▁고등학생	-10.7853
▁머리카락	-10.7853
▁앨범	-10.7853
▁컨트롤	-10.7853
▁헬스장	-10.7853
룬	-10.7853
하겄어라	-10.7853
퓨	-10.7853
흠	-10.7853
▁액션	-10.7853
더라고요잉	-10.7855
사운드	-10.7856
▁열쇠	-10.7856
▁덜어	-10.7858
겠지라	-10.7858
▁합쳐	-10.786
▁베이스	-10.786
▁생각하쇼잉	-10.7861
하자잉	-10.7868
컵	-10.7875
▁맞나요잉	-10.7876
였지라	-10.7883
▁걸쳐	-10.7887
▁해왔	-10.7889
였당게	-10.7889
▁글자	-10.7898
▁정비	-10.7902
▁오신	-10.7903
▁고쳐	-10.7906
▁게스트	-10.791
CA	-10.7911
▁직면	-10.7912
▁미치	-10.7913
했으며	-10.7915
▁가리	-10.7917
▁공주	-10.7922
▁잠들	-10.7924
조건	-10.7925
▁물어	-10.7958
▁내용물	-10.7963
체제	-10.7967
▁팬들	-10.7986
시죠잉	-10.7989
▁모른다	-10.799
▁간다고	-10.7991
▁기구	-10.8
▁진행될	-10.8003
톱	-10.8005
샘	-10.8007
▁뜨거운	-10.8007
▁미세먼지	-10.8007
▁햄버거	-10.8007
밟	-10.8007
밭	-10.8007
탭	-10.8007
▁맹그는	-10.8007
▁트위터	-10.8007
▁획득	-10.8007
▁이슬람	-10.8007
▁일으키	-10.8007
▁드레스	-10.8007
▁트럭	-10.8008
▁떠났	-10.8009
▁비롯	-10.8009
▁접촉	-10.801
▁빨간	-10.8013
▁놀라운	-10.8014
▁잠재적	-10.8014
▁있제	-10.8016
▁걸립니다잉	-10.8017
▁나눌	-10.8017
▁연령	-10.802
▁많다	-10.802
▁꺼내	-10.8022
▁상사	-10.8023
▁출국	-10.8024
▁소송	-10.8025
▁지닌	-10.8031
▁변형	-10.8031
▁없나요잉	-10.8033
샤	-10.8034
큰	-10.8034
▁왔는데	-10.8034
▁힘들게	-10.8041
▁조작	-10.8041
▁효율적인	-10.8045
▁알지만	-10.8046
▁미루	-10.8047
하나요잉	-10.8051
▁간주	-10.8055
▁골드	-10.8056
▁보냈습니다잉	-10.8061
▁학점	-10.8067
▁쓰기	-10.8069
▁있었당게	-10.8087
▁점차	-10.8089
▁지표	-10.8094
▁가능하다	-10.8094
연구	-10.8105
▁이해하기	-10.8113
▁다가가	-10.8116
▁않았기	-10.8121
▁없는데	-10.813
16	-10.8131
▁완료된	-10.8141
음식	-10.815
▁겁니다	-10.8152
▁모니터	-10.8162
▁낯선	-10.8163
▁멕시코	-10.8163
▁비트코인	-10.8163
▁스튜디오	-10.8163
스러웠	-10.8163
찹	-10.8163
▁트위치	-10.8163
▁스트랩	-10.8163
▁현황	-10.8165
▁아이콘	-10.8166
▁갈아타	-10.8167
▁종목	-10.817
▁학교생활	-10.8172
▁비닐	-10.8172
▁격려	-10.8173
▁찾아볼	-10.8177
▁무례	-10.8177
▁넘치	-10.8179
▁연애	-10.8179
ut	-10.818
▁난중에	-10.818
▁맛집	-10.8181
▁조율	-10.8182
되었습니다	-10.8184
▁30%	-10.8186
▁강림	-10.8187
▁추세	-10.8193
▁가치관	-10.8193
힘	-10.8193
▁구성원	-10.8194
ab	-10.8194
▁원하시는	-10.8194
포인트	-10.8201
ion	-10.8203
▁채우	-10.8204
mp	-10.8205
▁들어온	-10.8206
▁나갔	-10.821
▁거품	-10.8211
▁비교적	-10.8213
▁소포	-10.8216
▁생각하지라	-10.8217
▁환자들	-10.8219
▁것만으로	-10.8221
▁줄이기	-10.8226
주시기	-10.8237
▁궁금혀요	-10.8237
피트	-10.8238
▁멤버들	-10.824
▁그녀에게	-10.8243
▁모형	-10.8247
▁흐르	-10.825
▁물리적	-10.8263
▁건데	-10.8271
65	-10.8272
▁다치	-10.8281
▁도착해가꼬	-10.8287
▁유산	-10.829
▁물건들	-10.8293
24	-10.8295
▁최적화	-10.8299
▁살펴	-10.8301
▁시공	-10.8304
▁무신	-10.8311
담긴	-10.8319
▁저작권	-10.8322
▁달콤한	-10.8322
▁텍스트	-10.8322
▁가난한	-10.8322
라운드	-10.8323
▁죄송허지만	-10.8324
▁친환경	-10.8324
▁빌릴	-10.8327
▁변환	-10.8331
▁항공권	-10.8336
▁손목	-10.8337
▁끝날	-10.8338
▁힘내	-10.8339
▁보아	-10.8341
▁간단히	-10.8343
▁영문	-10.8343
ᅲᅲ	-10.8345
휴	-10.8346
▁가자잉	-10.8352
▁식단	-10.8352
개씩	-10.8353
▁같아요	-10.8354
뉴	-10.8358
▁매력적인	-10.8358
▁개수	-10.8361
▁연간	-10.837
▁효과적이	-10.8371
땜시	-10.8373
▁갖추고	-10.8373
▁널리	-10.8376
▁물체	-10.8379
▁사본	-10.8395
되븐	-10.8412
ell	-10.8416
깁니다	-10.8422
▁재배	-10.8424
▁선생님께	-10.8428
▁중이며	-10.8433
▁많다고	-10.8445
해달라고	-10.8447
그램	-10.8463
구조	-10.8466
▁않다	-10.8468
흰	-10.8483
탬	-10.8483
▁클라이언트	-10.8483
▁프레젠테이션	-10.8483
닛	-10.8483
▁장학금	-10.8483
▁논쟁	-10.8484
▁갖춘	-10.8486
▁언론	-10.8486
▁김밥	-10.8488
▁초밥	-10.8489
▁보여라	-10.8494
▁위헌	-10.8498
▁관절	-10.8499
▁학문	-10.8504
▁책자	-10.8517
▁허버	-10.8519
▁초래	-10.852
▁효율성	-10.8521
▁조종	-10.8523
▁화재	-10.8523
특	-10.8525
▁벗어	-10.8525
▁대출	-10.8538
▁읽었	-10.856
▁전투	-10.856
▁법원	-10.8565
▁원료	-10.8566
베리	-10.8573
▁때문이제	-10.8574
덜이랑	-10.8577
▁로드	-10.8578
▁가능하믄	-10.8584
▁우덜에게	-10.8584
ha	-10.8585
▁마찬가지	-10.8593
백만	-10.8632
▁우아	-10.8635
▁트수	-10.8641
쇠	-10.8644
ON	-10.8645
▁보내드리겄습니다	-10.8646
픔	-10.8646
ᅲ	-10.8647
꼴	-10.8647
펐	-10.8647
▁케이팝	-10.8647
꼐	-10.8647
싹	-10.8647
▁햇빛	-10.8647
▁있나요	-10.8647
▁스위스	-10.8647
▁스위치	-10.8647
▁무서워	-10.8647
▁해산물	-10.8647
▁협회	-10.8647
▁이태원	-10.8648
▁교환학생	-10.8649
▁거래처	-10.8657
▁섬유	-10.8658
▁금속	-10.8663
▁서울시	-10.8663
▁알려주세요잉	-10.8664
▁미안혀	-10.8666
▁받으실	-10.8666
란가요	-10.8666
▁사냥	-10.8668
▁아닐까	-10.8669
▁있을까잉	-10.868
▁살려	-10.8682
▁연료	-10.8686
시스템	-10.8693
농	-10.8694
▁저런	-10.8697
그룹	-10.8697
콩	-10.87
▁재무	-10.8702
봉께	-10.8702
▁싶다잉	-10.8717
부렀어	-10.8725
되도록	-10.8734
▁명소	-10.8735
▁150	-10.8744
▁늘리	-10.8753
세포	-10.8754
맹키	-10.8765
▁아니여라	-10.8781
배송	-10.8806
옵니다잉	-10.8807
▁추출	-10.8811
art	-10.8813
폼	-10.8814
햇	-10.8814
▁스타벅스	-10.8814
▁스타트업	-10.8814
꽂	-10.8814
슐	-10.8814
툴	-10.8814
▁와이파이	-10.8814
▁남동생	-10.8814
▁API	-10.8814
▁조만간	-10.8814
▁스탠	-10.8814
먹으러	-10.8814
▁업계	-10.8815
▁듣지	-10.8815
▁물어볼	-10.8815
▁최악	-10.8817
▁얼른	-10.8817
▁아시안	-10.8819
▁개인정보	-10.8819
▁감염	-10.8819
▁끈기	-10.882
ard	-10.882
▁공동체	-10.8821
▁영원히	-10.8823
하오니	-10.8824
▁분쟁	-10.8825
▁탈출	-10.8825
입니까잉	-10.8826
▁경쟁사	-10.8826
▁설문	-10.8827
ate	-10.883
▁약물	-10.8832
▁장착	-10.8833
허자	-10.8835
▁테마	-10.8838
▁사생활	-10.8839
▁녹음	-10.8841
▁왔어요잉	-10.8842
▁권장	-10.8842
▁감명	-10.8849
▁지냈	-10.8851
스톤	-10.8857
▁CD	-10.8858
▁부합	-10.8858
붙	-10.8859
▁요청하신	-10.8861
▁최소화	-10.8866
▁지능	-10.8868
빼	-10.8868
몸	-10.8869
▁결과적으로	-10.8873
▁만나러	-10.8878
▁새우	-10.8879
▁뭐라고	-10.8886
▁양산	-10.8889
▁거당가	-10.8897
했었는디	-10.8906
▁모터	-10.8908
겠당게	-10.8909
▁모래	-10.8912
▁물량	-10.8914
▁효율적	-10.8919
▁싶었는디	-10.8933
▁국물	-10.8936
▁Co	-10.8939
▁있능가	-10.8947
90	-10.8951
▁같지라	-10.8951
게끔	-10.898
뷰	-10.8981
뽀	-10.8983
▁카탈로그	-10.8983
섰	-10.8983
▁플러그	-10.8983
뒀	-10.8983
▁민주주의	-10.8983
▁아저씨	-10.8983
▁클래식	-10.8983
▁촉진	-10.8984
▁봉사활동	-10.8984
▁사라져	-10.8987
▁맨들기	-10.8988
▁뽑아	-10.8989
▁프라이	-10.8991
▁돌아갈	-10.8994
▁특유	-10.8995
▁그리워	-10.8998
▁무척	-10.9001
줬으믄	-10.9002
▁경찰관	-10.9002
▁서술	-10.9002
▁도울	-10.9003
▁먹어보	-10.9004
▁지혜	-10.9005
▁입술	-10.9006
▁응용	-10.9006
▁반환	-10.9008
▁헌신	-10.9011
▁보내드리겄습니다잉	-10.9011
▁바라며	-10.9014
▁진입	-10.9015
▁자율	-10.9016
▁물류	-10.9019
▁퇴원	-10.9024
▁않았어요잉	-10.9026
▁인종	-10.903
▁학생들헌테	-10.9038
▁유사한	-10.904
▁나오믄	-10.9041
갈수록	-10.9042
▁절감	-10.9043
▁구두	-10.9044
▁주시면	-10.9044
쌀	-10.9046
▁당사자	-10.9048
and	-10.9048
▁운명	-10.9074
▁대행	-10.9074
▁있었당께	-10.9075
▁도장	-10.9081
13	-10.9084
▁눈치	-10.9086
▁준수	-10.9096
▁Ch	-10.9097
US	-10.9098
되거나	-10.9102
▁매트	-10.9103
▁생각해요잉	-10.9106
보호	-10.9113
▁가능헙니다	-10.9123
허시는	-10.9148
▁꾸준	-10.9151
ᄌ	-10.9156
▁인천공항	-10.9156
▁즐거워	-10.9156
▁챔피언	-10.9156
뚫	-10.9156
윗	-10.9156
컷	-10.9156
▁토마토	-10.9156
셈	-10.9156
▁바닷가	-10.9156
48	-10.9157
▁이어폰	-10.9158
▁혼합	-10.916
됐당께요	-10.9165
▁반갑	-10.9168
▁비누	-10.9171
▁즐겁고	-10.9174
▁있냐	-10.9174
▁결과물	-10.9176
헌당가요	-10.9177
▁출산	-10.9179
▁경영진	-10.918
▁끝나믄	-10.9193
▁아파서	-10.9196
▁CS	-10.9199
▁바른	-10.9203
▁진동	-10.9209
탑	-10.9221
▁않아브러	-10.924
이에요	-10.9241
▁필요성	-10.9245
▁개방	-10.9246
▁좋겄어라	-10.9246
내내	-10.9257
▁필요하믄	-10.927
▁무엇이든	-10.9284
▁좋겄어요	-10.9285
하였당께요	-10.9295
융	-10.933
▁겁나많은	-10.9331
▁기말고사	-10.9331
▁샌드위치	-10.9331
텀	-10.9331
▁코멘트	-10.9331
▁태어난	-10.9331
땡	-10.9331
쉐	-10.9331
▁깜짝	-10.9331
▁어두운	-10.9331
▁호기심	-10.9331
▁으떤	-10.9331
▁축복	-10.9332
▁이집트	-10.9332
▁흥분	-10.9332
▁UPS	-10.9333
▁흥미롭	-10.9333
▁알다시피	-10.9335
▁터키	-10.9338
▁모릅니다잉	-10.9339
▁적당	-10.9342
▁알아볼	-10.9345
▁간접	-10.9345
▁호환	-10.9345
▁넘버	-10.9346
▁글씨	-10.9348
▁기업들	-10.9348
▁금연	-10.9352
센트	-10.9353
줄게라	-10.9354
▁니한테	-10.9355
▁초반	-10.9355
영화	-10.9355
▁외교	-10.9359
타운	-10.936
▁모르겠지만	-10.9362
▁있으요	-10.9367
▁하나씩	-10.9368
▁좋것	-10.9368
직원	-10.9369
▁보유하고	-10.9375
▁같어요	-10.9383
▁비난	-10.9391
▁성함	-10.9392
▁갈색	-10.9393
▁나쁘지	-10.9398
▁나름	-10.94
▁없당가요	-10.9406
▁폐기	-10.9414
ex	-10.943
▁미세	-10.9438
▁싶당께	-10.9446
▁IC	-10.9455
랑게요	-10.9457
▁외국인들	-10.9468
▁빠졌	-10.9474
뭣	-10.9479
▁돼브러	-10.9507
닦	-10.9509
ᄅ	-10.951
▁높습니다	-10.951
▁늦었	-10.951
▁알레르기	-10.951
돔	-10.951
앵	-10.951
찐	-10.951
▁공휴일	-10.951
▁나타난	-10.951
▁세미나	-10.951
▁간호	-10.9511
▁혁명	-10.9512
하덜	-10.9512
▁엔진	-10.9513
▁여즉	-10.9513
▁근본적	-10.9514
▁놀랐	-10.9514
답니다잉	-10.9516
▁착각	-10.9516
▁투입	-10.9523
▁노예	-10.9524
▁있듯이	-10.9526
▁추워	-10.9535
▁공통	-10.954
▁임신	-10.9541
▁연설	-10.9543
▁게이트	-10.9548
▁임금	-10.9552
▁지침	-10.9556
▁있었어야	-10.9557
▁때문인	-10.9562
▁소음	-10.9564
▁저항	-10.9566
▁관련해서	-10.9575
하시길	-10.9582
▁보니께	-10.9583
▁있거나	-10.9586
앞	-10.9592
▁합성	-10.9594
▁않았다믄	-10.9599
▁읎어라	-10.9603
▁가능할까요	-10.9603
800	-10.9605
▁가져야	-10.9617
▁관광객들	-10.9679
끔	-10.9683
▁벚꽃	-10.9691
▁캠퍼스	-10.9691
푼	-10.9691
▁오프라인	-10.9692
▁일러스트	-10.9692
▁디테일	-10.9692
▁어우러	-10.9692
▁혈액	-10.9692
▁도덕적	-10.9692
▁빼앗	-10.9692
▁원산지	-10.9692
▁반대편	-10.9698
▁그만두	-10.9698
▁토끼	-10.9698
▁욕심	-10.97
▁폭발	-10.9707
▁올렸	-10.9707
▁태그	-10.9707
▁좋을까요잉	-10.971
▁가능하당가요	-10.9711
▁체중	-10.9713
돼브렀	-10.9717
▁CO	-10.9721
▁완화	-10.9722
RP	-10.9724
▁필요하당께요	-10.9724
합시다잉	-10.9731
▁안정적인	-10.9739
▁보냈던	-10.9741
▁작아	-10.9747
▁정신적	-10.9751
▁없으니	-10.9756
▁유출	-10.9757
▁의학	-10.9762
같	-10.9762
▁오시는	-10.9779
디자인	-10.978
ig	-10.9782
호텔	-10.9783
▁물어본	-10.9794
▁지나믄	-10.9795
학습	-10.98
▁왕자	-10.9809
되었으믄	-10.9832
▁강점	-10.9836
MI	-10.9848
▁찍었	-10.9862
얘	-10.9875
긍	-10.9876
▁맨듭니다	-10.9877
▁멈춰	-10.9877
덱	-10.9877
릉	-10.9877
쌈	-10.9877
퀸	-10.9877
킴	-10.9877
▁도대체	-10.9877
▁진즉에	-10.9877
▁삽입	-10.9877
▁떠오르	-10.9877
▁적혀있	-10.9877
▁붙어있	-10.9877
▁한마디	-10.9877
▁곤란	-10.9877
▁어떨랑가요	-10.9878
▁슬픈	-10.9878
▁2013	-10.988
▁충돌	-10.9881
▁쪼매	-10.9881
▁멀티	-10.9882
▁2012	-10.9883
▁떠날	-10.9886
▁결석	-10.9889
▁태워	-10.9892
▁읽어보	-10.9899
▁먹으면	-10.9899
▁키즈	-10.9901
입니까	-10.9906
▁터치	-10.9907
란께요	-10.991
▁볼거리	-10.9914
▁간절	-10.9915
▁있었는데	-10.9922
▁집중력	-10.9925
해주믄	-10.993
▁제조업	-10.9939
스틱	-10.9961
쥐	-10.9969
홍	-10.997
땅	-10.9975
▁LC	-10.9984
상황	-10.9989
랬	-11.0028
200	-11.0033
병원	-11.0045
▁좋지라	-11.0049
▁10,000	-11.0063
숭	-11.0065
▁맡겨	-11.0065
렘	-11.0065
▁인터페이스	-11.0065
▁프린팅	-11.0065
뱀	-11.0065
쓱	-11.0065
▁자외선	-11.0065
▁떠올리	-11.0065
▁마케터	-11.0065
▁바뀐	-11.0065
▁받아들여	-11.0066
▁꿈꾸	-11.0069
▁은퇴	-11.0071
▁필름	-11.0071
▁주최	-11.0072
▁논란	-11.0072
▁매칭	-11.0077
▁목격	-11.0078
▁예능	-11.0083
▁다릅니다잉	-11.0083
▁실습	-11.0085
▁지속해	-11.0085
▁야경	-11.0086
▁친구들이랑	-11.0091
▁온천	-11.0093
▁않으며	-11.0097
▁출전	-11.0102
▁123	-11.0103
▁모션	-11.0106
▁실무	-11.0107
▁있었어요잉	-11.011
▁의류	-11.0128
▁드러나	-11.0139
뒤	-11.0164
뜻	-11.0165
틱	-11.017
▁음성	-11.0188
때마다	-11.0192
업무	-11.0202
▁주고받	-11.0205
돼갖고	-11.0213
▁행성	-11.0219
▁겪었	-11.0258
▁믿었	-11.0258
▁안드로이드	-11.0258
깅	-11.0258
꿨	-11.0258
쯔	-11.0258
엣	-11.0258
톨	-11.0258
▁뽀로로	-11.0258
▁신분증	-11.0258
▁펌프	-11.0258
▁오사카	-11.0258
▁습득	-11.0258
▁플랜	-11.0258
▁납부	-11.0259
▁정거장	-11.0259
▁예상되	-11.026
▁이베이	-11.0261
▁이끄는	-11.0262
▁목걸이	-11.0263
▁화폐	-11.0264
▁환급	-11.0264
▁회장님	-11.0265
▁불쾌	-11.0266
▁확산	-11.0267
▁플라	-11.0268
▁아직꺼정	-11.0268
▁대리점	-11.0268
▁주민들	-11.027
▁평등	-11.0274
▁모르겠당게	-11.0275
▁명예	-11.0277
▁데리고	-11.028
주세요	-11.0284
▁심플	-11.029
▁배워야	-11.0295
▁최종적으로	-11.0296
▁분노	-11.0296
▁영원	-11.0307
▁마약	-11.0312
▁복구	-11.0319
▁음료수	-11.0342
▁동물원	-11.0362
됐어라	-11.0378
▁알려드리겄습니다	-11.0384
주쇼	-11.0395
▁돌보	-11.0401
67	-11.0441
즌	-11.0446
▁핸드	-11.0453
헨	-11.0454
▁뚜껑	-11.0454
▁머릿속	-11.0454
▁움직일	-11.0454
탓	-11.0454
▁골고루	-11.0454
▁오피스	-11.0454
▁하나하나	-11.0454
야말로	-11.0455
▁그러므로	-11.0456
▁키보드	-11.0456
▁살아남	-11.0458
하였으나	-11.0458
▁황금	-11.0463
88	-11.0466
▁무섭	-11.0467
▁초청	-11.0468
▁왜곡	-11.0469
▁알맞	-11.0469
▁여행객	-11.047
▁베스트	-11.047
▁사촌	-11.0475
▁롤러	-11.0475
▁실질적	-11.0477
▁보람	-11.0483
▁기념품	-11.0488
▁적립	-11.0488
▁양쪽	-11.049
▁아끼	-11.0492
허겄습니다잉	-11.0494
▁성경	-11.0498
▁구별	-11.0502
▁친해지	-11.0518
▁패치	-11.052
▁지도자	-11.0535
끝	-11.0566
방울	-11.0634
▁안타깝	-11.0654
ᄉ	-11.0654
▁Jackal	-11.0654
▁에어비앤비	-11.0654
▁우선순위	-11.0654
▁월드컵	-11.0654
▁윈도우	-11.0654
▁퀄리티	-11.0654
곽	-11.0654
▁아티스트	-11.0654
▁뭐시당가요	-11.0654
ᄏ	-11.0709
큼	-11.0815
땜	-11.0841
퀴	-11.0853
멍	-11.0853
삽	-11.0858
툰	-11.0858
쉽	-11.098
쿨	-11.1002
엇	-11.1061
붓	-11.1066
웬	-11.1066
찔	-11.1066
첩	-11.1066
붐	-11.1066
찍	-11.1198
뜬	-11.1279
핫	-11.1279
빔	-11.1496
펠	-11.1496
젝	-11.1496
듣	-11.1645
줍	-11.166
껍	-11.1718
뷔	-11.1719
썩	-11.1719
깡	-11.1946
ᄂ	-11.1946
엑	-11.2155
랫	-11.2172
룡	-11.2178
팡	-11.2178
떨	-11.2368
떠	-11.2368
땐	-11.2372
쓸	-11.2373
둑	-11.2415
댄	-11.2416
똘	-11.2416
킷	-11.2657
딘	-11.266
뜩	-11.266
뱃	-11.266
샌	-11.266
켄	-11.266
풋	-11.266
둡	-11.266
논	-11.2874
챙	-11.2908
멈	-11.291
닷	-11.291
ᄇ	-11.291
ᅡ	-11.291
맷	-11.291
옴	-11.291
윙	-11.291
퀘	-11.291
퉁	-11.291
컴	-11.3141
흑	-11.3141
닭	-11.3142
굿	-11.3167
윌	-11.3167
췄	-11.3167
롯	-11.3424
깜	-11.343
°	-11.343
젓	-11.343
콕	-11.343
므	-11.352
멀	-11.3689
힙	-11.37
갯	-11.37
웰	-11.37
켈	-11.37
깝	-11.3967
뢰	-11.397
뇌	-11.3976
낀	-11.3977
밸	-11.3978
옛	-11.3978
똑	-11.3978
갤	-11.3978
솜	-11.3978
쥬	-11.3978
찡	-11.3978
칫	-11.3978
콧	-11.3978
닙	-11.4264
슘	-11.4264
쌔	-11.4264
즙	-11.4264
툼	-11.4264
팟	-11.4264
쭈	-11.4264
슴	-11.4547
쏠	-11.4558
짬	-11.4558
첼	-11.4558
댁	-11.4558
뎌	-11.4558
숍	-11.4558
챠	-11.4558
펄	-11.4558
앱	-11.4573
깎	-11.486
섹	-11.486
뻗	-11.4861
짠	-11.4861
덥	-11.4861
뵈	-11.4861
앰	-11.4861
흩	-11.4861
캘	-11.5173
휠	-11.5173
쭐	-11.5173
챗	-11.5173
쪼	-11.5204
곰	-11.5207
낙	-11.5207
냅	-11.539
둠	-11.5492
ᄃ	-11.5496
댓	-11.5496
ᅩ	-11.5496
꽁	-11.5496
뺄	-11.5496
츄	-11.5496
껄	-11.5496
녕	-11.5813
쬐	-11.5829
*	-11.5829
ᅣ	-11.5829
덧	-11.5829
벡	-11.5829
뻘	-11.5829
얏	-11.5829
찾	-11.5875
얀	-11.6167
핸	-11.617
킵	-11.6171
빤	-11.6174
솥	-11.6174
엿	-11.6174
짚	-11.6174
넛	-11.6174
캣	-11.6174
엉	-11.6242
“	-11.6243
$	-11.6249
헙	-11.6528
봇	-11.653
ᄆ	-11.6531
쑈	-11.6531
얌	-11.6531
눕	-11.6531
밋	-11.6531
썸	-11.6531
챔	-11.6531
램	-11.6574
펴	-11.6611
숲	-11.6613
낌	-11.6901
쨩	-11.6902
펫	-11.6902
껌	-11.6902
렙	-11.6902
최	-11.6981
냉	-11.6996
똥	-11.6997
탐	-11.6998
룹	-11.7246
ᄎ	-11.7286
ᄐ	-11.7286
ᅭ	-11.7286
겟	-11.7286
댐	-11.7286
뚱	-11.7286
랗	-11.7286
륜	-11.7286
쑥	-11.7286
윾	-11.7286
챕	-11.7286
ᄊ	-11.7286
긁	-11.7286
눔	-11.7286
셰	-11.7686
ᅵ	-11.7686
늄	-11.7686
팍	-11.7686
늑	-11.7686
븟	-11.7686
훗	-11.7686
낄	-11.8102
켠	-11.8103
>	-11.8103
ᄁ	-11.8103
ᄑ	-11.8103
뭄	-11.8103
볕	-11.8103
뿜	-11.8103
쑤	-11.8103
쩐	-11.8103
찼	-11.8103
킥	-11.8103
흔	-11.825
ᅮ	-11.8538
ᄄ	-11.8538
ᅤ	-11.8538
ᅥ	-11.8538
ᅧ	-11.8538
ᅨ	-11.8538
뜰	-11.8538
뺀	-11.8538
솟	-11.8538
쟈	-11.8538
젼	-11.8538
븜	-11.8538
잣	-11.8538
갖	-11.8655
넌	-11.8704
섯	-11.8977
댈	-11.8992
왓	-11.8992
텨	-11.8992
튬	-11.8992
삿	-11.8992
쭉	-11.9179
쩌	-11.9464
훔	-11.9468
뤘	-11.9468
헝	-11.9468
;	-11.9468
ᅳ	-11.9468
딕	-11.9468
멕	-11.9468
셸	-11.9468
쥴	-11.9468
쪄	-11.9468
텅	-11.9468
쿵	-11.9468
땀	-11.9679
굽	-11.9683
씀	-11.9957
펌	-11.9968
곶	-11.9968
떴	-11.9968
웍	-11.9968
ᄀ	-11.9968
겅	-11.9968
돗	-11.9968
딥	-11.9968
벳	-11.9968
뽕	-11.9968
젯	-11.9968
쩨	-11.9968
챌	-11.9968
쉼	-11.9968
붑	-11.9968
왜	-12.0207
펙	-12.0491
궤	-12.0495
뭇	-12.0495
궐	-12.0495
몹	-12.0495
샬	-12.0495
얍	-12.0495
쫌	-12.0495
춧	-12.0495
쁘	-12.0981
@	-12.105
첸	-12.105
칵	-12.105
겔	-12.105
씌	-12.105
맘	-12.1345
쌍	-12.1346
앉	-12.135
릅	-12.1635
웁	-12.2029
숫	-12.2169
떤	-12.2258
벗	-12.2637
꿈	-12.2637
뭐	-12.2641
닿	-12.2642
딴	-12.2642
곧	-12.2642
촬	-12.293
녹	-12.3355
팝	-12.3356
쓴	-12.3356
랴	-12.3607
댔	-12.3639
끌	-12.4076
찢	-12.4402
캡	-12.4958
꼭	-12.4959
읽	-12.5855
썼	-12.5868
옆	-12.5869
쎄	-12.6154
끗	-12.6155
꼈	-12.6155
콥	-12.6156
훼	-12.6156
숩	-12.7156
쏘	-12.7978
뽑	-12.7979
쿄	-12.8265
깁	-12.8718
낳	-12.9229
첫	-12.9229
맙	-13.0939
쁨	-13.094
딧	-13.0946
큘	-13.0946
캄	-13.0946
탠	-13.2609
굳	-13.4325
삶	-13.4325
낫	-13.4325
샀	-13.4325
밌	-13.4609
넉	-13.4612
겉	-13.6825
퀄	-13.7112
몇	-14.0156
걷	-14.0157
걍	-14.0159
끊	-14.0159
맴	-14.016
‘	-14.016
뀔	-14.0441
룻	-14.0446
짧	-14.5161
젖	-14.5161
뭘	-14.5161
홈	-14.5162
뭔	-14.5162
릎	-14.5441
갸	-15.5178
훨	-15.518
및	-15.518
꿋	-15.5257
엎	-15.5258
썬	-15.5259
숯	-15.526
귈	-15.5261
괭	-15.5262
툭	-15.5263
쩰	-15.5264
짖	-15.5265
뾰	-15.5266
뉜	-15.5267
꾹	-15.5268
ᅴ	-15.5269
ᅱ	-15.527
ᅰ	-15.5271
ᅯ	-15.5272
ᅬ	-15.5273
ᅫ	-15.5274
ᅪ	-15.5275
ᅢ	-15.5276
헹	-15.5277
뵐	-15.5278
휩	-15.5279
홋	-15.528
텝	-15.5281
촘	-15.5282
쩧	-15.5283
덟	-15.5284
꾀	-15.5285
ᅦ	-15.5286
<	-15.5287
엮	-15.5288
땠	-15.5289
낡	-15.529
찝	-15.5291
숟	-15.5292
ᄍ	-15.5293
ᄈ	-15.5294
촛	-15.5295
짙	-15.5296
얽	-15.5297
뿍	-15.5298
눴	-15.5299
땃	-15.53
낍	-15.5301
핼	-15.5302
굵	-15.5303
팥	-15.5304
찻	-15.5305
쫀	-15.5306
뱉	-15.5307
댑	-15.5308
핍	-15.5309
펭	-15.531
몫	-15.5311
팸	-15.5312
펩	-15.5313
빴	-15.5314
풉	-15.5315
앓	-15.5316
엌	-15.5317
뮬	-15.5318
컸	-15.5319
쌉	-15.532
걔	-15.5321
횡	-15.5322
헛	-15.5323
꺾	-15.5324
씁	-15.5325
뺏	-15.5326
굶	-15.5327
샴	-15.5328
갚	-15.5329
팠	-15.533
갇	-15.5331
뻤	-15.5332
옇	-15.5333
헷	-15.5334
잤	-15.5335
횟	-15.5336
빚	-15.5337
쁩	-15.5338
큽	-15.5339
쫄	-15.534
왠	-15.5341
뭉	-15.5342
춥	-15.5343
늬	-15.5344
껑	-15.5345
쨌	-15.5346
붉	-15.5347
벚	-15.5348
귄	-15.5349
잦	-15.535
늙	-15.5351
걀	-15.5352
뉘	-15.5353
낚	-15.5354
썹	-15.5355
쏟	-15.5356
렷	-15.5357
뜯	-15.5358
얹	-15.5359
딪	-15.536
깥	-15.5361
쫓	-15.5362
좁	-15.5363
맑	-15.5364
얇	-15.5365
쭤	-15.5366
쿼	-15.5367
샐	-15.5368
녔	-15.5369
릇	-15.537
닮	-15.5371
씻	-15.5372
벅	-15.5373
낯	-15.5374
띄	-15.5375
옳	-15.5376
앨	-15.5377
맺	-15.5378
끓	-15.5379
쩔	-15.538
곁	-15.5381
듈	-15.5382
덮	-15.5383
펼	-15.5384
섞	-15.5385
셉	-15.5386
꽤	-15.5387
꼼	-15.5388
눠	-15.5389
뻐	-15.539
럿	-15.5391
묻	-15.5392
뒷	-15.5393
켰	-15.5394
옮	-15.5395
젊	-15.5396
밑	-15.5397
듭	-15.5398
멤	-15.5399
봅	-15.54
휘	-15.5401
닫	-15.5402
왼	-15.5403
훌	-15.5404
볶	-15.5405
뀌	-15.5406
쌓	-15.5407
꿔	-15.5408
굉	-15.5409
겪	-15.541
넓	-15.5411
숨	-15.5412
잃	-15.5413
밝	-15.5414
슷	-15.5415
웹	-15.5416
잊	-15.5417
븝	-15.5418
맡	-15.5419
뛰	-15.542
춰	-15.5421
싫	-15.5422
웨	-15.5423
멋	-15.5424
떻	-15.5425
깊	-15.5426
녁	-15.5427
낮	-15.5428
걱	-15.5429
믿	-15.543
괜	-15.5431
웠	-15.5432
밖	-15.5433
찮	-15.5434
읎	-15.5435
볍	-15.5436
늦	-15.5436
얻	-15.5437
첨	-15.5438
높	-15.5439
렇	-15.544
됩	-15.5441
뀐	-15.5441
렀	-15.5442
험	-15.5443
겄	-15.5444
았	-15.5445
륭	-15.5446
많	-15.5446
