<s>	0
</s>	0
<unk>	0
<pad>	0
▁	-3.58662
을	-3.78915
의	-4.17027
를	-4.23024
,	-4.30695
에	-4.33167
이	-4.34191
가	-4.43781
는	-4.4975
은	-4.72492
▁수	-4.85704
도	-5.11824
?	-5.1492
로	-5.17879
한	-5.42005
과	-5.42918
에서	-5.44558
지	-5.44749
고	-5.46872
▁이	-5.47626
으로	-5.51306
▁있습니다	-5.58731
▁그	-5.6076
와	-5.68797
할	-5.7469
.	-5.75866
하고	-5.80222
하는	-5.8367
▁있는	-5.85391
인	-5.91507
기	-5.92193
▁나는	-5.9284
입니다	-5.93277
서	-6.0569
게	-6.09097
해	-6.10976
▁저는	-6.11539
▁것	-6.1534
만	-6.16004
다	-6.16648
▁더	-6.17417
어	-6.21951
▁한	-6.22505
▁내가	-6.25593
▁때	-6.32571
▁내	-6.33224
▁할	-6.34846
▁우리는	-6.36897
합니다	-6.41131
하게	-6.41152
▁안	-6.42685
▁우리	-6.43273
나	-6.44048
시	-6.44632
일	-6.48227
▁제가	-6.49146
▁당신이	-6.50318
리	-6.51321
▁다른	-6.54479
면	-6.55377
▁잘	-6.56249
야	-6.57781
스	-6.59513
▁합니다	-6.59755
요	-6.59967
된	-6.59982
▁위해	-6.60254
▁1	-6.61519
▁것입니다	-6.66243
자	-6.6735
▁많은	-6.68679
▁것을	-6.71565
▁대한	-6.71611
적인	-6.72795
라	-6.74722
▁때문에	-6.76012
하기	-6.76879
▁2	-6.78591
들은	-6.79094
▁주	-6.80666
습니다	-6.81084
▁전	-6.81517
▁중	-6.81775
수	-6.82045
사	-6.8242
하지	-6.83482
아	-6.83486
주	-6.84069
하여	-6.84193
▁하는	-6.84267
히	-6.84523
▁다	-6.85891
▁것이	-6.87099
▁3	-6.87286
▁네	-6.88466
▁가장	-6.88543
월	-6.9015
▁그리고	-6.91437
해서	-6.91482
▁제	-6.93091
까지	-6.93208
들이	-6.93782
▁두	-6.94472
▁일	-6.97017
▁해	-6.98458
▁많이	-6.98622
▁후	-6.98689
년	-7.02124
에게	-7.02956
했습니다	-7.03331
▁좋은	-7.03465
▁다시	-7.03563
해요	-7.04056
적	-7.04212
▁대해	-7.04392
▁당신은	-7.044
대	-7.04488
▁모든	-7.04913
▁거	-7.06809
▁당신의	-7.07786
▁함께	-7.08055
예	-7.08201
▁가	-7.08549
▁것은	-7.09067
상	-7.09653
분	-7.10726
해야	-7.11198
▁우리가	-7.11495
▁오늘	-7.11526
▁확인	-7.12112
▁너무	-7.12458
▁사	-7.12906
▁아	-7.13604
들을	-7.13665
이에요	-7.14402
▁하고	-7.15218
▁해요	-7.15294
▁있어요	-7.16487
▁나	-7.16793
▁지금	-7.17127
드	-7.17361
치	-7.17415
는데	-7.18163
했어요	-7.18389
▁저희	-7.18809
▁시	-7.21621
▁같은	-7.22372
▁하지만	-7.23751
▁사용	-7.23931
▁못	-7.24428
▁어떤	-7.25666
▁다음	-7.25892
니	-7.27073
하	-7.27453
▁될	-7.2759
▁있어	-7.27625
▁지	-7.27724
▁또한	-7.2806
▁등	-7.28073
성	-7.28335
▁같이	-7.28658
에는	-7.28719
러	-7.29282
트	-7.29296
화	-7.30346
▁저	-7.30357
진	-7.30874
▁생각	-7.30928
비	-7.31133
던	-7.31319
장	-7.32111
▁오	-7.32164
제	-7.32203
▁말	-7.32543
▁현재	-7.33177
▁고	-7.33547
▁난	-7.34129
▁보	-7.34991
▁부	-7.35331
▁5	-7.3563
전	-7.3617
적으로	-7.36256
▁통해	-7.36766
부	-7.36789
보다	-7.3684
정	-7.3688
하면	-7.37857
▁4	-7.37975
▁한국	-7.38202
이나	-7.3828
▁있을	-7.3832
들	-7.38719
신	-7.38859
▁비	-7.38954
거	-7.3901
▁큰	-7.39563
▁당신	-7.39937
보	-7.40063
▁및	-7.41186
지만	-7.4166
▁유	-7.41721
▁게	-7.41904
▁친구	-7.41923
실	-7.41997
원	-7.42015
▁정	-7.42141
▁A	-7.42478
소	-7.42648
▁바랍니다	-7.42977
▁이번	-7.43596
마	-7.44006
▁줄	-7.44889
▁그는	-7.4609
▁진행	-7.46253
▁영화	-7.46847
부터	-7.4699
라고	-7.47371
▁10	-7.4761
▁제품	-7.48021
▁기	-7.48274
구	-7.48828
▁회사	-7.49354
▁만약	-7.49526
개	-7.49556
며	-7.49931
▁건	-7.51113
▁어떻게	-7.51192
데	-7.51972
▁바	-7.51992
▁그들	-7.52382
▁경우	-7.52696
▁가지	-7.53234
▁사람이	-7.53449
▁모두	-7.5414
▁세	-7.54601
▁것이에요	-7.54674
▁됩니다	-7.55101
▁너	-7.55197
▁정보	-7.55226
님	-7.55258
▁원	-7.55281
▁대	-7.55287
▁동안	-7.55726
▁혹시	-7.5613
▁볼	-7.56367
다고	-7.56561
질	-7.56668
우	-7.5695
▁정도	-7.5699
▁영어	-7.57186
▁자	-7.57314
▁정말	-7.58886
▁하	-7.59849
▁마	-7.5985
▁보내	-7.59988
되는	-7.60309
▁보고	-7.60497
▁걸	-7.61033
▁따라	-7.61082
오	-7.6177
▁이것은	-7.61808
▁위한	-7.6187
▁있다	-7.62624
됩니다	-7.62733
▁알고	-7.62841
▁무	-7.62982
▁좀	-7.63153
되어	-7.63469
▁가지고	-7.64028
'	-7.64617
▁자신	-7.6527
될	-7.65315
크	-7.65676
▁싶습니다	-7.65864
▁주문	-7.66362
▁사람	-7.676
명	-7.67989
어요	-7.68772
랑	-7.68898
세	-7.68994
▁알	-7.69431
디	-7.69748
▁모	-7.70031
▁전에	-7.70244
▁시간	-7.70253
▁본	-7.70302
▁없습니다	-7.70538
▁차	-7.71051
▁새로운	-7.71731
선	-7.71771
▁몇	-7.71802
▁아래	-7.71928
▁갈	-7.72072
▁그래서	-7.72446
▁음식	-7.72507
▁번	-7.72584
▁시간이	-7.73366
라는	-7.73482
미	-7.7355
▁배	-7.73596
▁같아	-7.73733
동	-7.73804
▁날	-7.74351
▁바로	-7.74419
당	-7.7462
식	-7.74917
용	-7.75171
차	-7.75665
위	-7.76749
▁방	-7.77
▁개	-7.77088
▁서비스	-7.77252
▁여행	-7.77268
네	-7.77385
▁다양한	-7.77504
길	-7.77728
▁항상	-7.77833
▁입	-7.77844
▁시작	-7.77965
▁매우	-7.78159
▁사랑	-7.78248
▁문제	-7.78259
e	-7.78288
▁여러	-7.78316
▁없는	-7.78607
▁데	-7.78632
▁살	-7.78899
산	-7.78919
▁구	-7.7894
▁아니라	-7.79125
까	-7.80269
처럼	-7.81023
▁소	-7.81321
들의	-7.81343
▁여	-7.81541
▁선	-7.8168
시간	-7.81863
관	-7.82246
A	-7.82359
▁이러한	-7.82748
▁공	-7.82911
▁미	-7.83541
르	-7.83627
▁나의	-7.83731
▁예약	-7.83736
▁또	-7.83768
▁필요	-7.83961
▁있고	-7.84442
단	-7.85503
▁사진	-7.85962
▁간	-7.86067
▁6	-7.86176
▁있어서	-7.86242
안	-7.86484
▁않고	-7.86513
하며	-7.86743
▁계속	-7.86745
▁추가	-7.86758
다면	-7.86873
2	-7.86901
▁요청	-7.87222
▁이상	-7.87585
▁아직	-7.87719
▁그녀	-7.87747
체	-7.87865
번	-7.88177
▁같아요	-7.8826
▁들어	-7.88526
▁B	-7.88568
여	-7.88675
국	-7.88893
▁준비	-7.89327
▁있나요	-7.89352
물	-7.89827
▁제품을	-7.90241
▁거야	-7.90273
려	-7.90329
▁반	-7.90333
▁디자인	-7.90588
▁해야	-7.90632
방	-7.90979
▁것으로	-7.91283
▁불	-7.91302
▁신	-7.91572
▁운동	-7.92032
▁상품	-7.92735
▁조	-7.9283
바	-7.92884
▁하나	-7.93458
▁않습니다	-7.9355
▁달	-7.9366
▁있도록	-7.93786
으면	-7.93885
▁편	-7.93945
데이	-7.94082
▁같습니다	-7.94355
▁구매	-7.94361
▁집	-7.94476
▁내일	-7.94548
▁판매	-7.94562
▁타	-7.94597
건	-7.94629
그	-7.94657
▁거예요	-7.94892
▁공부	-7.95092
▁직접	-7.95236
▁생각합니다	-7.95267
▁만들어	-7.95281
모	-7.95604
이고	-7.95615
점	-7.95617
▁일을	-7.9566
래	-7.95666
형	-7.95766
다는	-7.95995
▁먼저	-7.96071
에서는	-7.96111
이라고	-7.96374
▁사람들이	-7.96685
▁당신에게	-7.96884
조	-7.97012
▁경험	-7.97224
▁내용	-7.9738
함	-7.97742
▁약	-7.97779
▁세계	-7.97995
운	-7.98283
네요	-7.98482
▁7	-7.98682
면서	-7.99061
거나	-7.99103
▁아무	-7.99117
▁이야기	-7.99186
▁노력	-7.99454
▁분	-7.99488
▁왜	-7.99522
▁S	-7.99822
▁수업	-7.99832
▁스	-7.99906
▁연락	-8.0014
▁내는	-8.0043
▁재	-8.00484
▁첫	-8.00754
프	-8.01112
재	-8.01202
▁어	-8.01231
▁그것	-8.01531
▁변경	-8.01635
▁작업	-8.01644
▁가는	-8.01664
▁상	-8.02174
회	-8.02375
터	-8.02422
▁물	-8.02441
▁학교	-8.02551
▁방법	-8.02699
문	-8.02907
▁필요한	-8.02945
▁게임	-8.03056
중	-8.03368
내	-8.03503
▁발	-8.03554
▁고객	-8.0375
▁위	-8.03883
▁되었습니다	-8.03944
린	-8.04369
▁않은	-8.04418
▁배송	-8.04443
-	-8.0452
▁동	-8.0459
▁이유는	-8.0475
유	-8.04871
▁이런	-8.04936
하세요	-8.05004
레	-8.05097
▁되	-8.05259
▁계획	-8.05386
▁길	-8.05517
▁문제가	-8.05867
인데	-8.06127
▁서로	-8.06209
o	-8.06352
▁그것은	-8.06469
노	-8.06518
▁양	-8.06524
▁일이	-8.06524
▁나에게	-8.06704
▁예	-8.06826
D	-8.06938
C	-8.07127
카	-8.07289
타	-8.07317
행	-8.07402
▁좋아	-8.07436
▁생산	-8.07741
▁피	-8.07763
S	-8.07841
▁가격	-8.07883
엔	-8.07959
▁제공	-8.07992
되었습니다	-8.08047
▁되는	-8.08391
▁여자	-8.08408
파	-8.08558
무	-8.08786
▁전화	-8.0892
티	-8.08996
▁때문입니다	-8.09016
지는	-8.09298
되지	-8.09446
▁단	-8.10104
▁꼭	-8.10398
▁되어	-8.10469
▁8	-8.10474
▁개발	-8.10479
▁남	-8.10727
란	-8.10866
▁20	-8.10871
▁있었습니다	-8.11196
간	-8.11802
▁그녀는	-8.11883
▁하지	-8.12062
▁일본	-8.12301
▁중요한	-8.12367
▁위해서	-8.12484
▁좋아하는	-8.12778
▁적	-8.13017
▁도착	-8.13106
▁연구	-8.13428
권	-8.13784
든	-8.13844
이라는	-8.13949
▁시간을	-8.14114
▁있는지	-8.14313
생	-8.14382
▁않는	-8.1454
▁서	-8.14628
▁사실	-8.14828
▁없이	-8.1499
▁지원	-8.15075
▁기술	-8.1512
▁부탁드립니다	-8.15214
▁앞으로	-8.1528
▁파	-8.15286
▁점	-8.15323
▁후에	-8.1544
세요	-8.15711
a	-8.15735
1	-8.15761
음	-8.15786
▁연	-8.15981
▁'	-8.16315
▁장	-8.16537
죠	-8.16753
것	-8.16953
▁온	-8.17096
▁그러나	-8.17131
3	-8.173
▁강	-8.17428
학	-8.17517
연	-8.17616
▁비용	-8.1768
으	-8.17707
심	-8.17778
▁인	-8.17788
▁있는데	-8.17977
▁했어요	-8.18093
▁있	-8.18141
▁수도	-8.18266
▁부분	-8.18277
워	-8.1841
▁매	-8.18437
피	-8.18549
I	-8.1864
▁설명	-8.1891
▁미국	-8.18923
계	-8.19033
▁샘플	-8.19285
▁C	-8.19301
▁관련	-8.19465
었습니다	-8.195
▁이미	-8.19502
▁선택	-8.19584
▁방문	-8.19615
▁열	-8.19655
▁아닌	-8.19707
하였습니다	-8.19813
▁그런	-8.19943
▁사람들은	-8.2004
▁메일	-8.2023
▁조금	-8.20348
하겠습니다	-8.20376
▁있다고	-8.20511
i	-8.20559
M	-8.2062
▁명	-8.21224
▁남자	-8.21409
▁영향	-8.2144
▁교육	-8.2146
▁한번	-8.21704
▁했습니다	-8.2191
▁이용	-8.21997
역	-8.22144
▁또는	-8.22165
▁이제	-8.22321
발	-8.22424
버	-8.22763
▁된	-8.22806
▁9	-8.22934
▁처음	-8.22983
했던	-8.23201
▁있게	-8.23428
가꼬	-8.23903
▁문화	-8.23968
▁있다는	-8.23996
▁싶은	-8.2419
▁프로그램	-8.24218
▁사람들	-8.24298
▁열심히	-8.24666
▁여기	-8.24783
져	-8.24784
▁얘기	-8.24792
▁번째	-8.24915
▁곳	-8.25113
하도록	-8.25955
▁뒤	-8.26098
▁일정	-8.262
공	-8.26202
▁모습	-8.26207
▁팀	-8.26317
하면서	-8.26386
▁총	-8.26501
▁각	-8.26551
▁호텔	-8.26608
포	-8.26664
▁대해서	-8.26676
력	-8.268
▁나라	-8.26881
▁첨부	-8.2705
▁잠	-8.27142
▁행복	-8.27328
▁속	-8.27375
입	-8.27416
금	-8.27565
니까	-8.27696
▁하겠습니다	-8.27703
▁받을	-8.27745
▁30	-8.28054
▁해당	-8.28058
더	-8.28625
▁싶어	-8.28651
▁개인	-8.28689
▁어느	-8.2872
""	-8.28847
▁적용	-8.28909
▁이렇게	-8.29103
▁심	-8.29315
▁주세요	-8.29447
▁인해	-8.29447
▁삶	-8.29471
▁결과	-8.29582
감	-8.29703
P	-8.29934
두	-8.30045
▁산	-8.30083
경	-8.30088
니다	-8.30679
때	-8.30845
▁발생	-8.30905
B	-8.31279
▁자기	-8.31384
입니더	-8.31407
▁피부	-8.31451
도록	-8.31716
즈	-8.31795
▁한국에서	-8.31844
▁되고	-8.32146
s	-8.32202
m	-8.32222
▁가족	-8.32346
▁표현	-8.32404
▁중국	-8.32981
온	-8.33059
한테	-8.33143
들과	-8.33215
▁경	-8.33307
▁빨리	-8.33365
▁진짜	-8.33752
되고	-8.338
4	-8.33907
이라	-8.33938
▁해서	-8.34005
류	-8.34151
▁포	-8.34186
있	-8.34212
▁우	-8.34415
▁없어	-8.34455
▁가능한	-8.34664
▁그럼	-8.34669
T	-8.34906
▁않을	-8.34925
양	-8.34957
▁그렇게	-8.34975
▁눈	-8.35016
매	-8.35041
▁대부분	-8.35121
▁어제	-8.3536
▁생각해요	-8.35455
▁결정	-8.35631
기를	-8.35671
▁전달	-8.35773
호	-8.35948
료	-8.36087
집	-8.36261
▁있다면	-8.36285
▁12	-8.36558
▁수정	-8.36755
▁제작	-8.36863
▁이것	-8.37122
날	-8.37241
▁아주	-8.3758
▁생활	-8.37769
▁외	-8.37841
▁관계	-8.37984
등	-8.38114
▁있으면	-8.38176
속	-8.38186
▁있기	-8.38203
▁아이	-8.38313
량	-8.38362
▁하면	-8.38618
이며	-8.38769
브	-8.3917
/	-8.39186
▁P	-8.39258
▁없	-8.39344
▁이해	-8.39372
교	-8.39429
▁결제	-8.39504
믄	-8.3983
▁그림	-8.39876
▁모델	-8.40007
▁상황	-8.40111
▁중에	-8.40514
▁노	-8.40535
▁서류	-8.40668
▁최고	-8.40765
▁관리	-8.40782
▁막	-8.41107
▁계약	-8.41178
▁만들	-8.41243
토	-8.41314
▁것에	-8.41345
▁시험	-8.41434
법	-8.41446
▁처리	-8.41566
코	-8.41575
종	-8.4173
▁실	-8.41842
▁맞	-8.41879
E	-8.41884
저	-8.41926
▁알려	-8.42036
▁돈을	-8.4208
▁원하는	-8.42081
▁물건	-8.42162
증	-8.4238
겨	-8.42449
판	-8.42569
▁도움	-8.42729
달	-8.43129
▁하기	-8.43207
▁들	-8.43799
▁치	-8.43889
▁성	-8.43908
▁사회	-8.43987
일에	-8.43989
들에게	-8.44188
▁호	-8.44288
릴	-8.4435
습니더	-8.44355
y	-8.44361
▁버스	-8.44406
▁한국의	-8.44434
▁그가	-8.44585
▁기능	-8.44828
▁업무	-8.4485
▁국가	-8.44872
▁파일	-8.44872
줄	-8.44983
c	-8.45067
▁활동	-8.45173
▁그냥	-8.45485
긴	-8.45525
▁새	-8.45636
L	-8.45929
되	-8.46033
했는데	-8.46094
플	-8.46157
▁한국에	-8.46184
표	-8.46204
▁얼마나	-8.46287
▁애	-8.46504
인지	-8.46636
살	-8.46656
▁가서	-8.46666
▁성공	-8.46808
▁테스트	-8.46941
▁초	-8.4695
▁않아	-8.46988
급	-8.46988
▁화	-8.47098
R	-8.47107
울	-8.47124
반	-8.47164
▁요	-8.47214
▁글	-8.47369
▁유지	-8.47447
갈	-8.47492
▁니	-8.47617
색	-8.47679
었	-8.47755
▁해결	-8.47848
직	-8.47861
겠습니다	-8.4799
▁왜냐하면	-8.48024
본	-8.48072
자가	-8.48199
▁그들이	-8.48317
▁책	-8.4871
▁도시	-8.49233
▁인간	-8.49341
▁도움이	-8.49349
▁집에	-8.4945
▁설치	-8.49642
려고	-8.49736
▁귀사	-8.49828
▁사람은	-8.49869
▁변화	-8.499
▁저의	-8.50132
▁방송	-8.50148
▁카드	-8.5024
▁소개	-8.50261
▁죽	-8.50365
▁진	-8.50378
▁손	-8.50434
...	-8.50511
▁아니	-8.50616
▁발송	-8.50737
▁자주	-8.50876
▁M	-8.50948
O	-8.51214
▁지역	-8.51248
설	-8.51409
▁자료	-8.51482
7	-8.51539
▁목표	-8.51626
▁말을	-8.51639
이랑	-8.51678
에도	-8.51873
나요	-8.5204
▁기업	-8.52174
▁음악	-8.52186
▁사진을	-8.52299
품	-8.5238
하려고	-8.52489
▁발전	-8.52515
▁선적	-8.52578
▁보면	-8.52588
작	-8.52657
▁여러분	-8.52685
▁관심	-8.52701
층	-8.52826
▁학생	-8.5302
했	-8.53127
▁의미	-8.53132
▁나를	-8.53308
"	-8.53368
▁문의	-8.53501
▁발표	-8.53532
▁리	-8.53538
▁이름	-8.53714
▁좋을	-8.53883
▁작은	-8.53945
▁당	-8.54033
배	-8.54081
해주세요	-8.54181
석	-8.5421
▁지난	-8.54243
키	-8.54249
▁여행을	-8.54571
▁제일	-8.54609
▁과정	-8.54639
▁장소	-8.54754
했고	-8.54827
▁형	-8.5484
000	-8.54855
루	-8.55079
▁건강	-8.55092
업	-8.5526
▁회의	-8.55363
▁관한	-8.55468
▁때문이에요	-8.55522
▁행동	-8.55548
▁하는데	-8.55607
임	-8.55684
▁찾아	-8.55725
▁기억	-8.55967
▁높은	-8.56179
▁완료	-8.56308
▁나도	-8.56323
▁취소	-8.56393
▁하루	-8.56409
▁기대	-8.56595
▁있지만	-8.56608
▁참여	-8.56642
%	-8.56721
민	-8.56922
▁타고	-8.56976
박	-8.57138
▁마지막	-8.57142
통	-8.57321
▁D	-8.57435
성을	-8.57435
▁카메라	-8.57522
쪽	-8.57567
▁우리에게	-8.5764
l	-8.57713
▁광고	-8.57974
근	-8.58108
..	-8.582
▁몸	-8.58434
▁사용할	-8.58716
▁김	-8.58736
▁쉽게	-8.58762
주세요	-8.58878
▁대학	-8.59013
▁비행기	-8.59019
▁11	-8.59105
▁만나	-8.59258
▁먹	-8.59279
각	-8.5928
▁카	-8.59292
▁작성	-8.59351
▁예정입니다	-8.59429
▁선물	-8.59781
▁인터넷	-8.59989
했을	-8.60221
▁직업	-8.60222
▁사업	-8.60335
로부터	-8.60579
▁코	-8.60654
▁T	-8.60846
▁"	-8.61078
▁영상	-8.61156
g	-8.61221
▁감사	-8.61275
▁않	-8.61323
어서	-8.61338
립	-8.6147
▁이유	-8.61479
▁있을까요	-8.61496
다가	-8.61648
개의	-8.61716
d	-8.61849
▁요리	-8.61966
▁마이	-8.6199
▁안에	-8.62066
한다면	-8.62347
▁아침	-8.62413
영	-8.62576
걸	-8.62578
▁문	-8.62647
니더	-8.62727
▁그러	-8.6279
▁환경	-8.62899
▁것도	-8.62913
▁시장	-8.63141
▁보여	-8.63448
▁요즘	-8.63614
▁기회	-8.63798
▁대화	-8.63922
▁F	-8.63927
▁의해	-8.63933
별	-8.64088
▁특히	-8.64177
▁오래	-8.64499
▁따라서	-8.64612
강	-8.64661
6	-8.6467
하는데	-8.64694
t	-8.6482
절	-8.64995
친	-8.65123
▁저에게	-8.65601
▁여성	-8.65641
▁와	-8.65687
하실	-8.65777
▁시스템	-8.65886
▁성장	-8.66011
스트	-8.66039
▁우선	-8.66055
▁필요합니다	-8.66175
▁이메일	-8.66178
▁쓰	-8.66197
가지	-8.66261
▁언제	-8.6635
추	-8.6645
n	-8.66526
▁연결	-8.66767
▁올	-8.66962
▁말씀	-8.67229
록	-8.67229
▁더욱	-8.67303
열	-8.67445
말	-8.67545
대로	-8.67546
▁19	-8.67657
5	-8.67687
▁중요	-8.68022
리는	-8.68298
▁잘못	-8.68349
출	-8.684
▁답변	-8.68462
▁알아	-8.68486
▁자연	-8.68506
▁야	-8.68509
▁주는	-8.68512
▁잡	-8.68555
시면	-8.68687
▁싶어요	-8.68696
▁컴퓨터	-8.68842
▁질문	-8.68897
▁등록	-8.69106
▁나와	-8.69289
너	-8.6932
8	-8.69334
락	-8.69369
집니다	-8.69436
▁사람을	-8.69483
약	-8.69551
▁검토	-8.69631
▁키	-8.69733
▁담	-8.6985
▁약속	-8.70054
하신	-8.70071
▁겁니다	-8.7022
하시면	-8.70438
▁되지	-8.70605
▁너는	-8.7064
▁그런데	-8.70694
▁생각해	-8.70831
▁공급	-8.70847
▁얼마	-8.70851
▁엄마	-8.70861
줍니다	-8.7115
▁받아	-8.71242
▁걱정	-8.71327
팀	-8.71443
▁발견	-8.71605
▁맛	-8.71735
▁부탁	-8.7201
▁제안	-8.72011
▁꿈	-8.72011
▁없어요	-8.72238
▁포함	-8.72246
p	-8.72248
▁적이	-8.72469
▁전체	-8.7257
▁종류	-8.72591
▁언어	-8.72617
▁질	-8.7262
▁좋	-8.72656
▁안전	-8.72731
▁우리나라	-8.72783
▁미리	-8.73148
▁먹고	-8.73259
▁없을	-8.73328
▁받고	-8.73537
▁혼자	-8.73613
으며	-8.73668
▁레	-8.73704
▁되면	-8.73715
▁메시지	-8.73785
▁통	-8.73819
▁사고	-8.73918
▁술	-8.74106
▁변	-8.74108
▁팔	-8.74393
▁경기	-8.74412
▁배우	-8.74485
마다	-8.74583
▁커	-8.74661
▁가치	-8.74707
▁서울	-8.74842
▁있으며	-8.74866
림	-8.74914
▁평가	-8.74958
▁가고	-8.74966
▁차이	-8.75005
난	-8.75161
께	-8.75211
▁만든	-8.75259
▁가능합니다	-8.75363
▁의견	-8.75452
▁""	-8.75582
▁가게	-8.75617
▁100	-8.75728
▁H	-8.75794
▁위험	-8.75804
▁대표	-8.75905
▁제품은	-8.75927
▁사이	-8.75927
▁작품	-8.76084
션	-8.7614
이기	-8.76149
링	-8.76242
셨	-8.76265
▁근데	-8.76284
▁결혼	-8.7636
▁만드는	-8.7647
▁생	-8.76553
▁드	-8.76639
▁위치	-8.76686
▁브랜드	-8.76875
▁분석	-8.76916
▁먹는	-8.76982
▁지급	-8.76994
하지만	-8.77039
▁노래	-8.7716
▁저녁	-8.7724
▁가진	-8.77277
▁능력	-8.773
▁이번에	-8.77373
▁돈	-8.77435
▁공간	-8.7771
F	-8.77737
▁공유	-8.77793
▁때는	-8.77837
▁이건	-8.7791
▁신청	-8.77944
▁확인해	-8.78066
▁머리	-8.78081
▁버	-8.78185
▁선생님	-8.78202
▁해외	-8.78215
달러	-8.78276
격	-8.78294
▁요구	-8.78371
는지	-8.78378
▁매일	-8.78421
▁얼굴	-8.78559
▁지하철	-8.78607
▁G	-8.78694
▁위해서는	-8.78832
▁있지	-8.78856
▁E	-8.79019
▁보는	-8.79191
▁친구들과	-8.79275
▁않았습니다	-8.7929
복	-8.79428
이야	-8.79461
네예	-8.79483
른	-8.79514
▁그때	-8.79617
▁당신과	-8.79681
▁아니면	-8.79816
군	-8.79995
▁귀	-8.80196
▁전통	-8.80196
▁15	-8.80369
준	-8.80472
기도	-8.8048
▁씨	-8.80765
er	-8.80804
▁자리	-8.80848
런	-8.80898
▁부족	-8.80958
천	-8.81077
▁일부	-8.81324
창	-8.81476
▁알려주	-8.81563
▁커피	-8.81608
▁말고	-8.8174
▁채	-8.81887
▁기간	-8.82012
▁법	-8.82103
▁책을	-8.82346
론	-8.82361
졌습니다	-8.82455
▁봐	-8.82471
▁존재	-8.82471
▁기존	-8.82491
▁받은	-8.82594
불	-8.82725
9	-8.82833
▁거의	-8.82984
▁참	-8.83038
u	-8.83123
▁데이터	-8.83126
▁일반	-8.83199
▁가능	-8.83603
▁개선	-8.83702
▁끝	-8.83758
▁검사	-8.8377
▁상태	-8.83862
▁사는	-8.83875
▁제출	-8.84133
▁한다고	-8.84211
있는	-8.84243
▁마케팅	-8.84467
▁순간	-8.84491
▁밤	-8.84686
▁건물	-8.84704
▁감	-8.84871
▁투자	-8.84959
주의	-8.84964
▁수량	-8.85182
▁거래	-8.85192
액	-8.85225
자는	-8.85431
▁무료	-8.85454
냐	-8.85612
시에	-8.85771
▁지불	-8.85786
▁환불	-8.8586
▁식사	-8.86019
▁국	-8.86125
▁있었	-8.86134
▁친구들	-8.86175
▁운영	-8.8619
▁제품이	-8.86228
▁용	-8.8638
결	-8.86393
▁업체	-8.86414
▁끼	-8.86615
테	-8.86721
으로부터	-8.87203
▁억수로	-8.8721
▁예를	-8.87232
▁사이즈	-8.87237
▁취	-8.87259
▁대신	-8.87293
▁오후	-8.87295
▁토	-8.87361
▁색	-8.87392
▁아마	-8.87416
▁최대한	-8.875
▁번역	-8.87528
팅	-8.87544
지고	-8.87599
▁충분	-8.87737
▁표시	-8.87875
N	-8.87932
▁지속	-8.8804
▁앱	-8.88126
▁최선	-8.88164
개월	-8.88346
▁사용하는	-8.88364
▁최근	-8.88369
▁감정	-8.8868
▁설정	-8.8888
투	-8.89059
▁무슨	-8.89111
인가요	-8.89136
합니더	-8.89259
▁들어가	-8.89317
▁추천	-8.89329
▁마음	-8.89435
▁자세	-8.89501
▁할인	-8.89637
▁만큼	-8.89705
하거나	-8.89736
▁보호	-8.89803
후	-8.89804
쳐	-8.89832
▁먹을	-8.90003
기는	-8.90036
지도	-8.90059
▁있습니더	-8.90075
▁이미지	-8.90189
▁주소	-8.90191
▁옷	-8.90221
▁만족	-8.90228
▁넣	-8.90232
▁각각	-8.90304
▁오늘은	-8.9031
초	-8.90316
름	-8.90344
▁짐	-8.90625
▁싶	-8.90664
씨	-8.90856
▁생각이	-8.90978
▁주변	-8.90989
▁혹은	-8.90997
▁너희	-8.91008
▁외국인	-8.91053
▁고민	-8.91097
▁것처럼	-8.91148
외	-8.91423
▁놀	-8.91472
▁집중	-8.91513
▁누	-8.91775
▁보통	-8.91805
▁곧	-8.91811
▁감사합니다	-8.91936
▁보이	-8.91964
▁직	-8.91981
▁포장	-8.91998
▁표	-8.92062
▁싶은데	-8.92063
어야	-8.92227
▁니가	-8.92285
▁구조	-8.92472
▁과제	-8.92502
▁수행	-8.92542
▁만	-8.92555
▁유명한	-8.92565
▁졸업	-8.92632
00	-8.92652
▁나가	-8.92716
시는	-8.93108
목	-8.93156
▁알게	-8.9322
▁정부	-8.93225
▁백	-8.93492
▁계	-8.93562
▁사람들에게	-8.93685
한다고	-8.93709
▁그래	-8.93792
▁은행	-8.93801
해도	-8.93834
▁전문	-8.93849
▁했는데	-8.93863
▁같	-8.93982
▁앞	-8.94045
▁그룹	-8.94112
▁밥	-8.9417
▁활용	-8.94185
▁이후	-8.94217
▁시간에	-8.94234
▁가야	-8.94308
k	-8.94351
▁않아요	-8.94384
▁프로젝트	-8.94388
▁집에서	-8.94418
▁물론	-8.94454
하고자	-8.9449
▁예상	-8.94584
왔	-8.94704
태	-8.9472
▁추	-8.94734
▁둘	-8.94753
되면	-8.94755
▁힘들	-8.94935
▁성격	-8.94943
▁복	-8.94955
▁알려주세요	-8.9498
▁크	-8.95024
▁몬	-8.9503
▁지금까지	-8.95042
볼	-8.95042
커	-8.95194
▁결국	-8.95196
▁뜻	-8.9524
▁받는	-8.9525
▁N	-8.95352
언	-8.9548
▁밀	-8.95608
▁참고	-8.9567
▁기계	-8.95809
▁고려	-8.95897
▁메뉴	-8.95923
기에	-8.95938
▁뭐	-8.96025
▁보낼	-8.96206
▁따로	-8.96375
▁나서	-8.96408
했지만	-8.96431
!	-8.96683
▁이동	-8.96707
▁꿈을	-8.96739
▁관련된	-8.9677
▁금	-8.96816
았습니다	-8.96847
▁구성	-8.97013
보다는	-8.97019
항	-8.9705
▁천	-8.97131
▁아닙니다	-8.97194
담	-8.97198
▁놓	-8.97321
주는	-8.97328
▁생각하는	-8.97461
▁완전	-8.97474
▁너에게	-8.97578
▁부모님	-8.97704
편	-8.97708
▁병	-8.97806
▁K	-8.98139
▁증가	-8.98154
▁그래도	-8.98184
킹	-8.98215
▁잔	-8.9839
였	-8.98422
▁방식	-8.98453
▁접	-8.98563
▁재고	-8.98597
▁많아	-8.98631
했어	-8.98693
습	-8.98694
▁베	-8.9874
▁자신이	-8.99038
▁보낸	-8.9904
▁갖	-8.99217
▁교	-8.9932
▁가방	-8.99342
▁조사	-8.9937
▁세상	-8.99391
견	-8.99393
혀	-8.99413
▁L	-8.99481
▁크게	-8.9952
축	-8.99534
▁위에	-8.99543
케	-8.99638
▁지나	-8.99643
었어요	-8.99774
딩	-8.99783
▁책임	-8.99838
▁새로	-8.99948
처	-8.99955
▁못한	-8.99973
▁생각을	-9.00091
졌	-9.00097
▁국제	-9.00133
병	-9.0038
▁관해	-9.00431
▁긍정적	-9.00579
▁영국	-9.00617
▁보기	-9.00622
▁치료	-9.00625
▁보니	-9.0063
현	-9.00705
퍼	-9.00776
▁형태	-9.00795
▁관	-9.00862
에서도	-9.00896
▁같은데	-9.00922
▁효과	-9.00978
먹	-9.01008
▁굉장	-9.01377
환	-9.01405
▁R	-9.01488
동안	-9.01561
▁마음을	-9.01561
▁마지막으로	-9.02008
일까지	-9.02126
▁돌	-9.02164
▁핸드폰	-9.02182
라면	-9.02221
▁식	-9.02434
▁면	-9.02464
▁절대	-9.02814
까요	-9.02859
▁금액	-9.03033
▁사항	-9.03073
▁아버지	-9.03266
▁이야기를	-9.03322
▁정리	-9.03535
▁일단	-9.0358
▁안내	-9.03814
해주	-9.03919
▁없어서	-9.04041
▁사건	-9.04056
스러운	-9.04495
▁여기서	-9.04606
▁메	-9.04906
탄	-9.04976
이지만	-9.05056
▁드리겠습니다	-9.05112
▁영	-9.05121
▁돼	-9.05132
▁경제	-9.05176
▁업데이트	-9.05187
▁윽수	-9.05187
▁목	-9.05223
▁느낌	-9.05263
▁가능성	-9.05292
▁성적	-9.0532
▁행사	-9.05434
꼬	-9.0544
▁넘	-9.05534
▁군	-9.05635
들에	-9.05683
▁비교	-9.05735
술	-9.05742
▁국내	-9.05805
▁드립니다	-9.06055
G	-9.06109
▁원래	-9.06188
▁순	-9.06333
▁인천	-9.06348
학년	-9.06355
▁기분이	-9.0643
v	-9.06513
▁빠른	-9.06592
었다	-9.06653
▁개의	-9.06728
▁대로	-9.06764
▁스스로	-9.06868
▁않으면	-9.06897
▁바다	-9.06906
봤	-9.06916
칠	-9.07008
▁사람들을	-9.07022
▁누군가	-9.07056
▁가면	-9.07098
보고	-9.07102
▁안녕하세요	-9.07157
▁온라인	-9.0716
▁나중에	-9.07193
백	-9.07255
합	-9.07268
겠	-9.07275
▁거에요	-9.07312
망	-9.07312
▁평	-9.0733
쯤	-9.07373
▁장비	-9.07384
▁인기	-9.07454
▁해도	-9.07474
▁누구	-9.07558
였습니다	-9.07568
하다고	-9.07573
▁좋습니다	-9.0759
받	-9.07672
▁지금은	-9.07716
▁사이트	-9.07813
▁달라	-9.0785
블	-9.07859
▁청	-9.07959
▁왕	-9.07971
▁택시	-9.08006
▁카페	-9.08012
▁된다면	-9.0806
▁기록	-9.08098
▁되기	-9.08135
▁미래	-9.0822
▁고등학교	-9.08347
가요	-9.08402
▁동물	-9.08511
▁재료	-9.08512
▁뻐스	-9.08572
▁역	-9.08667
V	-9.08699
▁역시	-9.08743
▁나오는	-9.08938
▁소리	-9.08979
▁반드	-9.09113
▁살아	-9.09125
▁박	-9.09159
▁거리	-9.09189
▁이곳	-9.09283
감을	-9.09407
▁돌아	-9.09495
▁받았습니다	-9.09547
▁학생들	-9.09792
▁신경	-9.09812
▁기준	-9.09976
▁계정	-9.10097
▁광	-9.10226
▁있습니까	-9.10329
성이	-9.1037
▁라	-9.10401
▁아이들	-9.10404
▁향	-9.10406
▁어떠한	-9.10408
▁그것이	-9.10459
로서	-9.1046
▁자동차	-9.10641
▁크기	-9.1065
▁삼	-9.11001
▁읽	-9.11018
올	-9.11052
▁승인	-9.11091
았	-9.11157
▁좋지	-9.11206
▁풀	-9.1131
럽	-9.11406
라도	-9.11449
▁일찍	-9.115
예요	-9.11507
▁탈	-9.11508
것도	-9.11541
▁유명	-9.11592
▁아름다운	-9.1178
▁공연	-9.11883
드립니다	-9.1199
▁대하여	-9.12016
▁조건	-9.12021
▁친	-9.12106
▁특별한	-9.12126
씩	-9.12185
▁저도	-9.12235
▁않았	-9.1234
▁느낄	-9.12374
듯	-9.12722
▁환자	-9.12725
▁입금	-9.12846
▁바라	-9.12916
▁맞는	-9.1295
▁분위기	-9.12974
▁받지	-9.13048
▁창	-9.13093
▁가정	-9.13118
▁제시	-9.13178
▁일어나	-9.13243
▁인상	-9.13359
▁하나의	-9.13622
거리	-9.13644
▁늘	-9.1368
▁맛있는	-9.13696
기가	-9.13863
▁도와	-9.13965
▁자유	-9.14028
▁역사	-9.14096
b	-9.14115
▁아이템	-9.14185
▁벌	-9.1429
▁자체	-9.14372
▁최종	-9.14433
▁흥미	-9.14474
▁된다	-9.14483
▁축제	-9.14518
되어야	-9.14541
하다	-9.14584
▁200	-9.14593
▁넣어	-9.14653
능	-9.14654
▁것과	-9.14699
▁관심이	-9.1477
▁별	-9.14936
on	-9.14942
봐	-9.14993
▁웃	-9.14995
▁줍니다	-9.15004
련	-9.15029
▁향상	-9.15219
율	-9.15233
▁근	-9.15374
▁조직	-9.15383
▁와서	-9.15386
▁인보이스	-9.154
되기	-9.15407
▁‘	-9.1543
▁하는지	-9.15532
▁학교에	-9.15575
▁체	-9.15645
▁식당	-9.15762
뿐만	-9.15915
0	-9.1597
한다는	-9.16018
메	-9.16086
향	-9.16183
▁산업	-9.16251
▁꽃	-9.16272
▁있으니	-9.16276
▁주제	-9.16401
▁부분이	-9.16419
▁정확한	-9.16473
▁입고	-9.16477
▁보이는	-9.16489
▁올해	-9.16553
착	-9.16598
▁추억	-9.16647
▁연습	-9.16672
▁만날	-9.16679
▁미팅	-9.16691
▁내부	-9.16717
K	-9.16737
▁단어	-9.16863
▁목적	-9.16927
▁통해서	-9.16968
▁건가요	-9.1699
▁독	-9.16991
in	-9.17021
▁손님	-9.17143
끼	-9.17212
▁제거	-9.17227
밀	-9.17272
▁현실	-9.17303
▁공장	-9.17344
▁방법이	-9.17574
▁18	-9.1764
▁울	-9.1768
▁악	-9.17682
만큼	-9.17689
▁전공	-9.17852
▁나머지	-9.17889
▁컬러	-9.17889
이란	-9.17925
▁검	-9.17969
▁I	-9.18077
▁수준	-9.18086
▁출장	-9.18115
▁떠나	-9.18148
▁없었	-9.18183
▁종	-9.18253
▁도전	-9.18351
▁자동	-9.18394
▁추가로	-9.18418
▁힘든	-9.18433
▁왔	-9.18547
▁음	-9.18576
▁부담	-9.18583
년에	-9.18948
▁스타일	-9.19026
했다고	-9.19049
▁이전	-9.19107
▁것이라고	-9.19109
▁이벤트	-9.19157
▁그러면	-9.19171
▁수입	-9.19173
▁예정	-9.19296
▁V	-9.19314
▁절	-9.1933
▁없고	-9.19457
▁제품에	-9.19473
▁판단	-9.1951
▁가끔	-9.1951
▁50	-9.1955
려면	-9.19798
▁학	-9.19824
▁U	-9.1993
▁분야	-9.19932
▁오는	-9.19983
▁다르	-9.20066
▁스포츠	-9.20118
▁결	-9.20123
▁있어야	-9.20146
▁번호	-9.20171
▁하며	-9.20265
하길	-9.20287
▁따	-9.20293
U	-9.20302
▁증	-9.2033
군요	-9.2039
▁수가	-9.20564
▁나이	-9.20565
이라도	-9.20567
▁버전	-9.20582
▁실제	-9.2068
▁독일	-9.20764
▁어려운	-9.2078
▁때까지	-9.20885
▁오전	-9.20943
▁외국	-9.21032
▁받았	-9.21039
▁품질	-9.21116
치는	-9.21152
▁모양	-9.21198
새	-9.21302
▁인생	-9.21386
족	-9.21526
▁살고	-9.21559
레이	-9.21647
머	-9.21652
r	-9.21775
▁특정	-9.21787
▁쓸	-9.21794
▁있으	-9.21888
▁시도	-9.21892
▁번째로	-9.2193
▁듣고	-9.21944
▁생일	-9.21982
▁트	-9.21987
▁회	-9.22003
▁주고	-9.22061
사를	-9.22141
▁제대로	-9.22246
▁대학교	-9.22277
▁실제로	-9.22314
▁한국어	-9.22332
▁기본	-9.22349
▁한다는	-9.2237
▁측정	-9.22435
▁W	-9.22457
▁회사는	-9.22474
▁주시기	-9.22486
▁주로	-9.22534
▁기분	-9.22822
막	-9.22885
▁항공	-9.22926
명이	-9.2295
▁주요	-9.22952
W	-9.23
▁무엇을	-9.23003
▁만들고	-9.2302
▁훨씬	-9.23059
▁지구	-9.2319
▁공항	-9.23238
▁쉬	-9.23245
▁리스트	-9.23265
▁방법은	-9.23371
▁갑자기	-9.23392
▁입력	-9.23616
▁단계	-9.23619
광	-9.23637
로운	-9.23682
▁교환	-9.23736
▁준	-9.23819
▁인형	-9.23851
자의	-9.23889
▁멋진	-9.24059
▁선수	-9.24079
▁정신	-9.24104
▁사용자	-9.24112
▁계산	-9.24117
▁빈	-9.24117
▁나오	-9.24118
월에	-9.24121
▁항	-9.24128
▁없다고	-9.24246
▁색상	-9.24266
▁날짜	-9.24307
셔야	-9.2435
압	-9.24382
▁곳이	-9.24388
평	-9.24515
▁송금	-9.24586
▁힘	-9.24663
▁딸	-9.24716
▁실험	-9.24732
▁유럽	-9.24802
▁40	-9.24811
▁교수님	-9.25062
▁현대	-9.25155
▁약간	-9.25177
변	-9.25196
▁귀하	-9.25386
▁촬영	-9.25408
▁원인	-9.25431
해가	-9.25434
▁소통	-9.25492
▁어디	-9.256
주시길	-9.25645
▁보내주	-9.2571
▁직원	-9.25721
십니다	-9.25738
▁비즈니스	-9.25749
▁프랑스	-9.25749
▁의사	-9.25762
▁보관	-9.26025
~	-9.26089
▁쪼매	-9.2609
▁아는	-9.26148
▁폭	-9.26201
드라	-9.26272
▁허	-9.26317
▁맞춰	-9.26432
▁드라마	-9.26434
사가	-9.26514
개를	-9.26549
▁진정	-9.26577
▁입학	-9.26633
핑	-9.26769
▁했	-9.2677
책	-9.26857
령	-9.26968
▁인식	-9.27034
▁올리	-9.27036
이었어요	-9.27122
▁반응	-9.27135
▁팬	-9.27199
▁사람에게	-9.27228
▁기회가	-9.27284
▁넘어	-9.27294
어예	-9.27366
곤	-9.27376
▁전략	-9.27517
H	-9.27529
▁단지	-9.27576
글	-9.27628
드리	-9.27666
▁내려	-9.27742
▁아빠	-9.27845
채	-9.27861
▁절차	-9.27863
▁지식	-9.27925
▁보입니다	-9.27933
an	-9.27958
▁작	-9.28041
▁페이지	-9.28205
▁학교에서	-9.28312
▁싸	-9.28334
▁마음이	-9.28356
▁망	-9.28359
▁운송	-9.28519
애	-9.28535
▁다음에	-9.28536
▁환전	-9.28546
▁빠르게	-9.28565
청	-9.2866
▁북	-9.28796
▁주에	-9.28813
되었	-9.28864
▁문서	-9.2892
▁회신	-9.28935
순	-9.28955
▁같다	-9.29026
▁나무	-9.29091
▁즐길	-9.29216
▁짧	-9.2923
적이고	-9.29246
▁있었다	-9.29257
▁돌아가	-9.29387
▁최대	-9.29615
▁경쟁	-9.29638
▁정책	-9.29644
▁제한	-9.29755
▁적어	-9.29761
움	-9.29771
▁없다	-9.29799
해줄	-9.29869
▁경찰	-9.29906
▁여전히	-9.29923
▁완성	-9.2998
▁박스	-9.30051
▁피해	-9.30053
라꼬	-9.30064
▁도와주	-9.30101
▁민	-9.3021
▁바꾸	-9.30237
었는데	-9.30263
탕	-9.30271
츠	-9.30279
▁파티	-9.30378
▁오더	-9.30388
▁중에서	-9.30438
▁요소	-9.30442
덜	-9.30451
▁하면서	-9.3053
▁깨	-9.30542
놓	-9.30623
▁담당자	-9.30693
▁앞에	-9.30899
▁계좌	-9.31003
께서	-9.31014
▁휴가	-9.31113
▁인사	-9.31153
벌	-9.31163
▁있어예	-9.31308
▁그대로	-9.3135
▁중입니다	-9.31355
▁접근	-9.31381
▁마치	-9.31515
▁동의	-9.31608
력을	-9.31631
▁예술	-9.31651
롭	-9.31683
▁최근에	-9.31739
▁축구	-9.3179
▁말하는	-9.31847
클	-9.31866
봉	-9.31905
들도	-9.3196
▁부산	-9.32016
▁그건	-9.32075
십니더	-9.32124
▁안정	-9.32137
▁출	-9.32207
▁뒤에	-9.32245
▁옆에	-9.32266
베	-9.32396
▁연락을	-9.32437
침	-9.32495
▁에너지	-9.3253
▁곳에	-9.32596
▁들었습니다	-9.32597
▁긴	-9.32693
▁이는	-9.32724
하였	-9.32732
▁찾	-9.32817
합니데이	-9.32844
▁될까요	-9.32902
▁묵	-9.32925
적이	-9.32954
돌	-9.32989
h	-9.32991
▁학습	-9.33001
▁투	-9.33073
▁있던	-9.33117
찰	-9.33134
하시는	-9.33139
송	-9.33157
시고	-9.33282
▁했던	-9.33283
▁이것이	-9.33319
▁나온	-9.33396
왔습니다	-9.33443
▁특징	-9.33543
▁아직도	-9.33543
▁참석	-9.33573
에요	-9.33612
▁역할을	-9.33628
▁싶다	-9.33676
▁때마다	-9.33733
▁갖고	-9.33766
▁못할	-9.33912
더라도	-9.33948
▁주의	-9.3411
▁생각에	-9.34129
▁직장	-9.34143
▁합	-9.34176
▁가까운	-9.3428
▁주인공	-9.34295
▁사이에	-9.34579
▁0	-9.34741
▁결과를	-9.34743
▁빛	-9.34773
▁어린	-9.34851
게요	-9.34956
▁물품	-9.34976
▁그리	-9.35024
▁사무실	-9.35025
or	-9.35129
▁소비자	-9.35158
▁괜찮	-9.3517
▁관광	-9.35173
▁인도	-9.35197
▁캐	-9.35362
▁설계	-9.35423
▁주기	-9.35431
▁생기	-9.3546
▁J	-9.35492
했기	-9.35502
▁장면	-9.35524
▁일은	-9.35569
택	-9.35597
▁스마트폰	-9.35776
▁홍보	-9.3582
▁당시	-9.35898
▁청소	-9.36106
▁입장	-9.3613
▁필요해요	-9.36176
▁침	-9.36191
▁고객님	-9.3621
꺼	-9.36213
함으로써	-9.36221
셔	-9.36259
▁돈이	-9.3626
▁페	-9.36309
▁급	-9.36364
▁육	-9.36461
탈	-9.36477
▁특별	-9.36483
기로	-9.36484
▁함	-9.36503
▁써	-9.36516
▁편지	-9.36539
▁죄송하지만	-9.36541
▁말이	-9.36704
▁옷을	-9.36743
▁대체	-9.36773
사항	-9.36816
▁관련하여	-9.36876
▁대해서는	-9.36882
▁쇼핑	-9.36914
▁실패	-9.36932
x	-9.37035
▁보냈	-9.37037
▁인정	-9.37069
잖아	-9.37145
싶	-9.37197
악	-9.37204
▁해주	-9.37339
원이	-9.37375
▁참가	-9.37444
▁풍	-9.37461
▁않아서	-9.37504
장이	-9.37535
▁암	-9.37593
슨	-9.37605
▁늦게	-9.37676
▁따른	-9.37695
▁좋았	-9.3785
▁이슈	-9.37891
취	-9.38001
▁제조	-9.38021
따	-9.3803
▁즈희	-9.38061
▁것보다	-9.38062
▁동시에	-9.38126
▁길이	-9.38186
▁가격이	-9.38191
▁쓰는	-9.38246
극	-9.38387
률	-9.38424
▁몇몇	-9.38448
▁강아지	-9.3845
▁들고	-9.3845
▁그러므로	-9.38452
▁정도로	-9.38465
▁회사에서	-9.38537
▁푸	-9.38701
▁실수	-9.38714
▁지연	-9.38718
▁고객이	-9.38825
▁이유로	-9.38899
장을	-9.39001
▁말해	-9.39034
었어	-9.39068
억	-9.39108
▁답	-9.39138
승	-9.39169
▁사랑하는	-9.39221
▁찾을	-9.39227
▁고양이	-9.39233
▁감사하겠습니다	-9.39283
었던	-9.39356
리고	-9.39363
▁것인지	-9.39422
▁매장	-9.39467
▁기다리	-9.39519
▁판	-9.3956
으니	-9.396
▁즉	-9.39707
▁점심	-9.39715
▁회사에	-9.39976
▁출발	-9.40081
▁정상	-9.40161
▁찍	-9.4033
시까지	-9.40349
20	-9.40359
▁활동을	-9.40389
▁브	-9.40394
▁스케줄	-9.404
▁테	-9.40428
쉬	-9.40449
값	-9.4045
슬	-9.40458
▁퍼	-9.40472
▁가득	-9.40507
녀	-9.40583
▁없었습니다	-9.40613
▁아침에	-9.4066
▁고맙	-9.40799
▁상황이	-9.40999
▁다리	-9.41193
▁축하	-9.41266
▁달리	-9.41268
▁학생들이	-9.41306
▁시절	-9.41359
▁되나요	-9.41444
▁몰	-9.41571
하기로	-9.41705
▁내리	-9.41768
▁병원	-9.41832
▁하나요	-9.41897
▁옆	-9.41911
▁출시	-9.41919
▁여름	-9.41957
▁별로	-9.41969
▁불구하고	-9.41991
쓰	-9.42068
▁대회	-9.42099
▁과거	-9.42103
회사	-9.42242
▁반대	-9.42268
▁편리	-9.42269
▁듯	-9.4239
▁어머니	-9.42409
시킬	-9.4254
리를	-9.4256
▁시각	-9.4257
▁언제든	-9.42682
▁드리	-9.42734
▁사람들과	-9.42762
자들	-9.42782
▁바람	-9.4282
▁때부터	-9.4285
▁수학	-9.42907
자를	-9.42933
▁전혀	-9.42968
▁열정	-9.4304
점점	-9.43115
▁화장실	-9.43224
▁영업	-9.43229
▁주장	-9.43357
▁중인	-9.43377
▁주시면	-9.43427
▁얻을	-9.43575
▁체험	-9.43607
잉	-9.43607
풍	-9.43731
▁달러	-9.43821
▁응	-9.43884
▁전자	-9.43918
▁값	-9.43962
▁어렵	-9.43964
▁상대	-9.44017
▁신뢰	-9.4402
▁배우고	-9.44038
▁불량	-9.44043
▁근무	-9.44058
일이	-9.44086
▁생각하고	-9.44089
▁문제는	-9.44158
▁부품	-9.44213
▁아마도	-9.44257
▁철	-9.44266
▁현지	-9.44419
▁그렇다면	-9.44425
▁덕분에	-9.44425
▁동아리	-9.44426
▁쪽	-9.44478
▁한국인	-9.44483
▁이어	-9.44569
주고	-9.44669
▁제게	-9.44802
였어요	-9.44909
▁전쟁	-9.44918
▁실행	-9.4493
트를	-9.45072
▁먹어	-9.45083
습니까	-9.45097
▁논의	-9.45129
▁왔습니다	-9.45131
번호	-9.45234
▁그라고	-9.45236
짜	-9.45249
▁친절	-9.45275
▁행복한	-9.45447
▁봤	-9.45449
쳤	-9.45553
▁진행할	-9.45634
&	-9.45664
▁이전에	-9.4569
▁맛있	-9.45788
▁좋겠습니다	-9.45807
▁올라	-9.45875
보세요	-9.45894
▁있었어요	-9.45895
▁일주일	-9.45901
▁24	-9.45938
▁틀	-9.45992
▁영어로	-9.46055
▁됩니더	-9.46081
▁콘텐츠	-9.46081
▁객실	-9.46082
▁싫어	-9.46122
▁사과	-9.4613
▁지내	-9.4613
▁즐기	-9.46202
▁연기	-9.4622
▁승	-9.46316
re	-9.46369
▁중심	-9.46491
▁많습니다	-9.46499
▁평균	-9.46509
▁같아서	-9.46574
수록	-9.46587
일부터	-9.46624
전에	-9.4666
▁땅	-9.46685
▁합니더	-9.46708
▁임	-9.4684
▁못하는	-9.46842
▁인터뷰	-9.4692
▁마음에	-9.4692
▁페이스북	-9.4692
▁이용할	-9.46986
▁남은	-9.47023
▁사회적	-9.47071
f	-9.47113
잡	-9.47143
▁시간은	-9.47193
▁파악	-9.47374
▁녹	-9.47412
▁16	-9.4756
▁규정	-9.47767
▁패션	-9.47781
▁요금	-9.47781
스를	-9.47787
▁반복	-9.47839
▁여부	-9.47985
▁만들기	-9.47989
득	-9.48011
▁희망	-9.4803
킬	-9.48034
독	-9.48168
▁필리핀	-9.48191
▁루	-9.48225
▁모르는	-9.48296
패	-9.48443
▁포인트	-9.48489
힌	-9.48586
▁것들을	-9.48634
▁TV	-9.48646
▁전부	-9.48657
▁곳에서	-9.48743
▁작동	-9.48801
던데	-9.48854
▁오랜	-9.48869
▁간단	-9.48975
▁점이	-9.49014
▁외부	-9.49243
▁속에서	-9.49253
▁디	-9.49284
▁않기	-9.49367
했다	-9.49465
▁바탕으로	-9.49479
▁않도록	-9.49538
▁교체	-9.49543
▁요청한	-9.49587
▁상당	-9.49683
셔서	-9.49688
▁불가능	-9.49737
▁13	-9.49751
객	-9.49759
▁보내준	-9.49763
대학교	-9.49837
▁땜시	-9.49912
▁이용해	-9.49933
▁있었던	-9.50066
10	-9.5011
겠지만	-9.50235
▁지도	-9.50261
렸	-9.50297
▁화물	-9.50302
▁이용하여	-9.50336
▁25	-9.50399
▁직원들	-9.50443
▁견적	-9.50564
하던	-9.50573
▁주문한	-9.50592
▁태	-9.5066
만원	-9.50669
▁다양	-9.50694
▁테니	-9.5073
w	-9.50746
▁문자	-9.50782
▁탄	-9.5095
문화	-9.5097
▁말한	-9.5102
▁인한	-9.51118
▁속도	-9.5115
▁범죄	-9.51223
▁물어보	-9.51239
▁당사	-9.51242
▁소식	-9.51269
▁형성	-9.51276
년간	-9.51281
사는	-9.51314
물을	-9.51353
▁맞아	-9.51373
음을	-9.51398
하다는	-9.51417
▁홀	-9.51687
▁협의	-9.51699
이었어	-9.51778
▁그게	-9.51836
▁패	-9.5186
▁못하고	-9.51949
화를	-9.51994
▁본인	-9.52016
▁머	-9.52039
▁마무리	-9.52105
▁농	-9.52171
하려	-9.52191
더라	-9.52316
▁돼요	-9.52344
▁과학	-9.52415
▁조정	-9.52423
▁강화	-9.52466
▁캐릭터	-9.52549
▁검색	-9.52578
▁종종	-9.52582
하믄	-9.52661
▁배울	-9.52675
제품	-9.52675
▁사용하여	-9.52749
수를	-9.52798
▁주실	-9.52813
스는	-9.52842
▁전시	-9.52879
▁걸어	-9.52909
납	-9.52909
▁프로	-9.52919
된다	-9.52929
▁실력	-9.52937
▁못했습니다	-9.5297
▁이후에	-9.5297
▁높이	-9.52995
▁많았	-9.52995
▁웹사이트	-9.52995
▁아기	-9.53012
▁확인하고	-9.531
▁인증	-9.53101
지지	-9.5312
해주는	-9.53209
ar	-9.53221
▁자재	-9.53246
▁기사	-9.53298
▁보상	-9.53414
▁목소리	-9.53452
없이	-9.53462
▁알리	-9.53542
al	-9.53561
▁분명	-9.53568
▁선호	-9.53578
▁지키	-9.53663
▁두고	-9.53729
염	-9.53775
▁청구	-9.53778
▁좋겠어	-9.53803
낸	-9.53823
▁운전	-9.53835
밥	-9.53849
▁티켓	-9.53899
▁사용하고	-9.53968
▁따르면	-9.5398
▁친구와	-9.54008
▁부서	-9.54214
▁누가	-9.54302
▁느껴	-9.54306
자들은	-9.5435
▁찾고	-9.54401
▁월요일	-9.54402
▁아이디어	-9.54469
▁최	-9.54475
▁14	-9.54514
▁최소	-9.54731
짝	-9.54758
였어	-9.54812
범	-9.54814
▁위하여	-9.54846
▁종이	-9.54863
▁됐	-9.54877
관리	-9.54965
이었습니다	-9.55097
▁많아서	-9.55214
▁라인	-9.55219
합니까	-9.55252
▁대통령	-9.55258
곡	-9.55271
▁완벽	-9.55274
시키는	-9.55288
▁담당	-9.55289
▁모르	-9.55301
력이	-9.55303
▁상처	-9.55305
▁단순	-9.55312
▁없지만	-9.55453
▁밖에	-9.5548
▁특	-9.55491
▁통화	-9.55615
▁그곳	-9.55626
▁얻	-9.55637
규	-9.55673
▁이메일로	-9.55719
랜드	-9.5579
하니	-9.55834
명의	-9.55837
▁존	-9.55839
▁O	-9.55878
▁클	-9.55909
▁거라	-9.5603
손	-9.56207
▁더욱더	-9.56238
▁조절	-9.56269
▁응원	-9.5628
▁지켜	-9.56453
▁한다면	-9.56514
져서	-9.56524
다니	-9.56632
▁낸	-9.56646
▁착용	-9.56673
▁확인할	-9.56673
▁상담	-9.56705
철	-9.56711
맨	-9.56728
▁붙	-9.56832
▁칼	-9.56972
까예	-9.57005
▁갔다	-9.57105
▁심지어	-9.57108
남	-9.57114
▁바꿔	-9.57115
▁금요일	-9.57122
▁기다리고	-9.57147
틀	-9.57216
▁성분	-9.57386
▁나왔	-9.57431
으로써	-9.57477
▁좋겠	-9.57524
▁쓰레기	-9.57554
이다	-9.57559
▁노래를	-9.57564
▁레스토랑	-9.57573
▁크리스마스	-9.57573
▁파트너	-9.57578
▁느끼	-9.57583
X	-9.57628
▁않게	-9.577
▁올려	-9.57705
▁조심	-9.57722
▁현	-9.57816
드려	-9.57826
▁이유가	-9.57874
▁반영	-9.5814
▁사람과	-9.58171
다꼬	-9.58193
톤	-9.58213
▁고통	-9.58255
▁짓	-9.5835
▁경험이	-9.58356
▁등이	-9.58368
▁이거	-9.58406
▁비슷한	-9.58443
에스	-9.58509
▁주문을	-9.58561
하시고	-9.58682
장에	-9.58698
▁거라고	-9.58725
▁마세요	-9.58727
▁아무리	-9.5877
주었습니다	-9.58822
▁공식	-9.58823
▁코스	-9.58928
는거	-9.58963
▁낮은	-9.58988
▁드릴	-9.59046
십	-9.59047
▁되었	-9.59066
수가	-9.59102
쿠	-9.59115
▁보다	-9.59147
▁설	-9.59211
하였고	-9.59217
▁나한테	-9.59279
▁죄송합니다	-9.5938
▁방법으로	-9.5939
구나	-9.59436
▁홍콩	-9.59466
▁보여주	-9.5951
럼	-9.59539
▁명의	-9.59596
▁발행	-9.59615
필	-9.59636
▁보내주세요	-9.59642
▁딱	-9.59649
하셨	-9.5969
▁그중	-9.59701
▁작가	-9.5976
하려면	-9.59836
▁젤	-9.59914
▁솔직히	-9.59942
니꺼	-9.60055
님이	-9.60091
▁c	-9.601
▁마을	-9.60105
▁근처에	-9.60161
▁$	-9.60166
▁넌	-9.60244
▁하여	-9.60259
▁적극적	-9.60432
▁p	-9.60458
▁불편	-9.60548
번째	-9.60557
▁좋아요	-9.60568
페	-9.60569
숙	-9.60597
▁비용이	-9.60606
▁가기	-9.60614
▁체크인	-9.60673
▁가져	-9.60691
▁대단	-9.60737
▁다니	-9.60749
▁부분은	-9.60755
▁규칙	-9.60906
▁수수료	-9.60909
▁탑승	-9.6091
▁알았	-9.60942
▁기관	-9.6111
▁들었	-9.61119
아서	-9.61153
▁빼	-9.61162
▁일에	-9.61199
▁섬	-9.61277
▁화면	-9.61391
▁사용해	-9.61393
▁만났	-9.61409
람	-9.6145
▁밑	-9.61523
▁상상	-9.61705
곳	-9.61761
업체	-9.61799
렌	-9.61852
▁높아	-9.61879
▁왼쪽	-9.61879
▁치킨	-9.61898
▁동생	-9.62024
▁않지만	-9.62047
▁만약에	-9.62052
▁강의	-9.62092
▁예전에	-9.62099
▁사용하지	-9.62167
▁공원	-9.6219
▁겨울	-9.6222
▁있음	-9.62254
▁공정	-9.62289
z	-9.6237
▁보험	-9.6237
딜	-9.6237
릿	-9.6237
▁보내는	-9.62373
▁있십니더	-9.62408
▁주말에	-9.62496
▁좋겠어요	-9.62581
▁고정	-9.62619
▁수술	-9.62746
▁밤에	-9.62838
▁신고	-9.62847
▁이탈리아	-9.62862
▁품목	-9.62873
▁저장	-9.62877
▁분들	-9.62906
▁시켜	-9.62909
▁정확히	-9.62919
더니	-9.62924
▁궁금합니다	-9.62948
▁시설	-9.62992
했다는	-9.63002
이라면	-9.6301
몬	-9.6313
▁떠	-9.6323
▁생명	-9.63266
협	-9.63269
▁전기	-9.63325
▁충	-9.63329
▁대상	-9.63344
▁캐나다	-9.63358
▁적응	-9.63375
▁수출	-9.63397
▁걷	-9.63406
▁특성	-9.63406
▁알려주시면	-9.63407
▁17	-9.63414
사의	-9.63486
▁문제에	-9.63498
▁부분에	-9.63507
▁방금	-9.63525
▁집으로	-9.63563
▁말할	-9.63698
는디	-9.63754
됐	-9.63769
▁받으	-9.63775
스터	-9.63809
▁고객에게	-9.63812
▁거로	-9.63891
▁나쁜	-9.63891
▁싶지	-9.63899
▁할머니	-9.63953
▁온도	-9.64027
▁학기	-9.64064
▁탐	-9.64211
▁잠시	-9.64263
돼	-9.64284
▁가입	-9.643
▁앞에서	-9.6431
▁어렸을	-9.64356
▁확실히	-9.6439
▁숙소	-9.6441
▁시기	-9.64505
▁신발	-9.64514
▁배경	-9.64525
▁그동안	-9.64544
▁여유	-9.64558
▁상황에	-9.64628
▁계약서	-9.64662
트리	-9.64704
▁슬	-9.64734
시켜	-9.64787
▁강한	-9.64789
▁답장	-9.64824
▁빠	-9.64846
닝	-9.64857
▁여자친구	-9.64857
납니다	-9.64896
50	-9.64899
▁같아예	-9.64922
▁서버	-9.65005
▁추천해	-9.65016
▁월	-9.65031
▁고기	-9.65038
▁소재	-9.65073
해주고	-9.6508
▁할지	-9.65086
le	-9.651
▁그렇지	-9.6515
▁차량	-9.65168
이라서	-9.65172
▁기재	-9.65189
▁깊은	-9.65362
퍼센트	-9.65381
하러	-9.65392
▁하늘	-9.65407
▁치즈	-9.65454
▁감소	-9.655
▁내게	-9.65545
▁즉시	-9.65567
▁초기	-9.65586
접	-9.65605
알	-9.6569
▁불러	-9.65754
▁무엇이	-9.65759
▁낙	-9.65767
▁일하는	-9.65822
▁많다	-9.6587
▁공격	-9.65967
▁내한테	-9.66037
▁하나는	-9.66069
▁반품	-9.66172
▁없다면	-9.6621
▁동일	-9.66217
▁했지만	-9.66252
▁메일로	-9.66266
▁혼	-9.66267
▁걸리	-9.66275
▁마감	-9.6632
▁가능하	-9.66334
싱	-9.66366
▁며칠	-9.66383
▁있습니꺼	-9.66398
▁꾸	-9.6641
ch	-9.66418
▁확신	-9.6642
▁상대방	-9.66426
▁만난	-9.66429
▁낼	-9.66452
뿐	-9.66556
충	-9.66598
▁태도	-9.66608
▁남성	-9.66643
▁없다는	-9.66663
▁내용이	-9.66775
▁운	-9.66787
립니다	-9.66789
균	-9.6688
컨	-9.6689
:	-9.66893
▁홈페이지	-9.66895
▁보았	-9.66905
▁도서관	-9.66909
▁범위	-9.66919
▁독립	-9.66923
▁보냅니다	-9.66933
해가꼬	-9.67033
▁방향	-9.67074
했습니더	-9.67108
▁끝나	-9.67154
▁물질	-9.67276
▁찍어	-9.67352
닥	-9.67353
▁들어오	-9.674
▁수많은	-9.67408
▁협력	-9.67411
▁뉴욕	-9.67411
▁근육	-9.67419
▁숙박	-9.67427
▁타입	-9.67546
▁통한	-9.67552
▁레이	-9.67564
▁이루어	-9.67564
▁전까지	-9.67593
리지	-9.67636
▁오류	-9.67663
▁잡아	-9.67695
▁싫	-9.67772
삼	-9.67819
▁찾는	-9.67882
▁기념	-9.67887
▁모바일	-9.67927
▁링크	-9.6793
▁남편	-9.67988
▁권리	-9.67995
▁비슷	-9.68006
▁스트레스	-9.68024
▁북한	-9.68072
▁맥주	-9.68106
▁안에서	-9.68132
▁의무	-9.68133
▁오직	-9.68149
▁그날	-9.68239
▁재미있	-9.68357
▁글로벌	-9.68448
▁벌써	-9.68452
mm	-9.68463
▁뭔가	-9.68479
낼	-9.68651
▁보내고	-9.6868
자에게	-9.68704
▁공기	-9.68714
▁체크	-9.6879
▁시대	-9.68819
▁모습이	-9.68889
▁느	-9.68926
▁친구들이	-9.68963
▁베트남	-9.68971
▁동영상	-9.68971
▁과정에서	-9.69017
내는	-9.69058
량을	-9.69065
▁일반적으로	-9.69122
▁세금	-9.69142
▁수리	-9.69162
▁여권	-9.69168
▁수익	-9.69187
▁포기	-9.69193
▁행동을	-9.6921
▁빵	-9.69219
▁여기에	-9.69236
▁싶었	-9.69284
▁일상	-9.69292
례	-9.69294
▁대중	-9.6934
▁비자	-9.69348
▁동일한	-9.69431
찬	-9.6945
▁않으	-9.69466
▁b	-9.69466
▁춤	-9.69496
▁네트워크	-9.69497
할게요	-9.69504
▁아까	-9.69517
▁초대	-9.69522
▁있겠	-9.69529
▁목록	-9.69531
시다	-9.6956
▁가능한지	-9.69571
▁발달	-9.69615
없	-9.69726
▁골	-9.69843
듯이	-9.69879
▁학생들은	-9.69897
▁기억에	-9.69917
왕	-9.69919
▁힘들어	-9.6998
▁않았다	-9.69989
릭	-9.70019
▁맛이	-9.7003
▁아마존	-9.70036
▁즐겁게	-9.70061
▁널	-9.70083
▁감동	-9.70132
▁어렵습니다	-9.70168
리가	-9.70212
▁휴	-9.70273
▁헤	-9.70292
▁침대	-9.70341
줬	-9.70354
▁코드	-9.70399
째	-9.70404
▁문장	-9.7049
▁이해할	-9.70493
▁익	-9.705
▁경영	-9.70563
▁하게	-9.70606
▁s	-9.70667
▁다들	-9.70775
▁미안	-9.7085
▁보내주신	-9.70891
▁보고서	-9.70904
났	-9.70933
▁스트레스를	-9.70993
▁오랫	-9.71109
▁것이고	-9.71115
▁발생하는	-9.71135
▁뉴스	-9.7126
▁현장	-9.71279
▁적절한	-9.71297
▁먹으면	-9.71381
▁어디서	-9.71465
▁곡	-9.71517
▁역할	-9.71611
자리	-9.71613
▁성과	-9.71623
▁중간	-9.71631
되며	-9.71639
있습니다	-9.717
으로서	-9.71707
생활	-9.71756
▁나올	-9.71781
케이	-9.71891
▁다르게	-9.72011
▁적은	-9.72013
칭	-9.72142
▁너무나	-9.72144
▁성인	-9.72153
▁정치	-9.72168
▁잊지	-9.72171
▁기초	-9.72319
▁걸릴	-9.72352
▁권	-9.72361
이면	-9.72382
하기도	-9.72389
▁정의	-9.72522
ol	-9.72531
별로	-9.72551
▁빠져	-9.72554
겠어요	-9.72578
▁돌려	-9.72689
▁보이지	-9.72711
▁건축	-9.72713
)	-9.72715
▁의사소통	-9.72715
▁화장품	-9.72744
▁차지	-9.72751
▁건지	-9.72952
▁않는다면	-9.73027
▁되는지	-9.73107
▁티	-9.73115
하자	-9.7314
▁기다려	-9.73158
▁뇌	-9.73242
▁있었어	-9.73287
줘	-9.73295
입니까	-9.733
▁마시	-9.73323
세기	-9.73331
▁의료	-9.73427
▁소유	-9.73486
▁배치	-9.73659
▁넣고	-9.73678
한다	-9.73725
▁각자	-9.73811
▁취미	-9.73916
▁장치	-9.7392
▁동작	-9.73922
식을	-9.73975
▁처	-9.74174
▁잘못된	-9.74202
▁소요	-9.74225
익	-9.74271
얼	-9.74345
궁	-9.7436
▁피드백	-9.74363
랄	-9.74363
▁케이스	-9.74381
▁당슨	-9.74393
▁대략	-9.74403
▁가이드	-9.74409
▁소비	-9.74527
▁있을까	-9.74581
▁기반	-9.74744
ra	-9.74775
.5	-9.74822
지요	-9.74842
▁선정	-9.74842
▁않아도	-9.74846
▁움직이	-9.74857
▁달라고	-9.74865
벨	-9.74879
en	-9.74914
▁그곳에	-9.74915
▁플레이	-9.7492
▁몰랐	-9.74926
▁있나	-9.74941
▁예측	-9.74952
▁교통	-9.74957
▁피곤	-9.7497
▁중앙	-9.75009
니데이	-9.75011
▁언급	-9.75044
원을	-9.75053
▁숙	-9.7509
▁홍	-9.75095
▁진심으로	-9.75099
하기를	-9.75206
자들이	-9.75269
했으면	-9.75277
라서	-9.75294
쟁	-9.75301
▁시행	-9.75333
사람	-9.75339
드린	-9.75411
성과	-9.75426
▁냄새	-9.75478
▁삭제	-9.75479
돈	-9.75551
겠다고	-9.75649
육	-9.75689
갑니다	-9.75709
▁근처	-9.75807
▁구매자	-9.75913
▁힘을	-9.75914
▁으	-9.75948
▁언제나	-9.75953
퇴	-9.76011
▁어린이	-9.76039
▁났	-9.76078
장에서	-9.761
▁호주	-9.76136
▁받	-9.76158
▁보러	-9.7625
▁그저	-9.76314
▁자신감	-9.76479
▁돌아오	-9.76481
▁기차	-9.76519
들로	-9.76564
틴	-9.76604
▁마사지	-9.76614
답	-9.76635
▁필	-9.76639
▁첫째	-9.7664
▁장점	-9.76648
▁단점	-9.76658
▁매출	-9.76689
▁석	-9.76719
▁비해	-9.76727
▁화가	-9.76754
▁통제	-9.76794
▁예방	-9.76804
▁불안	-9.7685
▁자세히	-9.7686
▁벽	-9.76904
▁분리	-9.77086
▁아프	-9.77127
▁아시아	-9.77175
▁개념	-9.77203
▁경제적	-9.77217
측	-9.77223
▁보면서	-9.77248
▁취업	-9.77267
해줘	-9.77354
▁60	-9.77374
▁창고	-9.77431
▁사항이	-9.77476
했는지	-9.77485
▁남아있	-9.77644
훈	-9.7773
....	-9.77745
▁확정	-9.77789
▁때도	-9.77833
at	-9.77841
▁놀러	-9.77905
▁주신	-9.78012
▁투어	-9.78066
▁21	-9.78115
▁보안	-9.78188
▁후회	-9.78281
콤	-9.78318
▁비디오	-9.78319
교육	-9.78329
▁부족한	-9.78339
▁별도	-9.7837
늘	-9.78389
효	-9.7844
보는	-9.7845
▁늦어	-9.78454
▁발주	-9.78465
짓	-9.78519
르는	-9.78529
▁되었다	-9.78533
겠다	-9.78627
▁터	-9.78663
▁대비	-9.78675
▁소스	-9.78675
▁토요일	-9.78757
학과	-9.78779
켓	-9.78838
▁요청합니다	-9.78858
습니데이	-9.78881
▁그렇기	-9.78897
▁2016	-9.78908
▁한국은	-9.78941
et	-9.78981
▁아내	-9.78987
렸습니다	-9.79152
▁금액을	-9.79156
▁쓴	-9.79164
▁좋아합니다	-9.79234
분이	-9.79279
드릴	-9.79306
있어	-9.7933
▁죽음	-9.79341
▁방지	-9.79397
▁행	-9.79454
▁저번	-9.79465
▁러시아	-9.79478
▁극	-9.79481
감이	-9.79491
▁명확	-9.79504
▁과목	-9.79506
▁장기	-9.79521
려서	-9.79573
상을	-9.79574
골	-9.79605
▁어릴	-9.7963
▁미국에서	-9.79687
▁지정	-9.79813
▁도네	-9.79849
했어예	-9.79853
▁당장	-9.79918
▁초콜릿	-9.80063
▁인쇄	-9.80076
▁알아보	-9.80127
▁출고	-9.80188
▁키우	-9.80224
▁배달	-9.80237
덕	-9.8028
▁있을지	-9.80325
▁없기	-9.80406
랜	-9.80478
되었다	-9.80508
▁아이가	-9.80525
▁자원	-9.80582
밍	-9.80651
▁영수증	-9.80651
▁스페인	-9.80651
▁그들에게	-9.80653
▁화요일	-9.80659
▁생긴	-9.80677
▁축	-9.80679
▁꾸준히	-9.80683
▁부모	-9.80693
it	-9.80719
우린	-9.80723
▁충전	-9.80731
▁사례	-9.80744
▁않았어요	-9.8084
었고	-9.80882
▁있었는데	-9.80892
센터	-9.80918
▁냉	-9.81042
▁듣는	-9.81066
▁원합니다	-9.811
▁포함한	-9.81143
▁도착할	-9.81173
튼	-9.81226
▁SNS	-9.81243
▁일정이	-9.81273
▁소녀	-9.81306
▁끊	-9.81334
▁지방	-9.81353
치를	-9.81379
▁깨끗	-9.81393
▁훌륭한	-9.81402
자와	-9.81436
▁만나서	-9.81446
하라고	-9.81459
▁위로	-9.8152
▁제주도	-9.81527
받는	-9.81564
▁만한	-9.81747
▁몰라	-9.81766
▁Q	-9.81789
좌	-9.81822
▁많고	-9.81838
둔	-9.81838
▁무언가	-9.81839
▁자전거	-9.8184
▁익숙	-9.81846
▁그걸	-9.81854
▁남아	-9.81888
▁자극	-9.81922
▁마련	-9.81938
▁각종	-9.81945
▁쓰고	-9.81994
▁휴식	-9.82013
▁샀	-9.82032
▁그에게	-9.82065
▁구분	-9.82125
짐	-9.82143
▁눈에	-9.82165
▁통합	-9.82206
조차	-9.82303
▁접수	-9.82308
주이소	-9.82321
▁중요합니다	-9.82355
▁사업을	-9.82374
즐	-9.82427
▁챙겨	-9.82437
▁떨어져	-9.82438
▁잠깐	-9.82442
▁수업에	-9.82448
중에	-9.82474
▁중학교	-9.82494
졌다	-9.82513
▁사진이	-9.82562
▁조각	-9.82563
▁통과	-9.82576
▁기준으로	-9.82703
하다가	-9.82727
▁못해서	-9.82733
▁시험을	-9.82737
시부터	-9.8275
굴	-9.82757
▁회원	-9.82768
▁생각했어요	-9.82771
▁다루	-9.82835
▁손상	-9.82862
ri	-9.82918
정도	-9.83085
▁조언	-9.83128
▁롤	-9.83156
▁먹었	-9.83179
▁예전	-9.83213
▁무시	-9.83298
버리	-9.83381
▁제공하는	-9.83427
▁인기가	-9.83433
▁죄송	-9.83454
사와	-9.83458
▁타이	-9.8351
▁측	-9.83544
▁해보	-9.83638
▁흡수	-9.83647
치고	-9.83661
▁좋겠다	-9.83677
▁출근	-9.83678
▁신규	-9.83696
니깐	-9.83698
▁보세요	-9.83701
▁대답	-9.83704
▁점은	-9.83749
▁현상	-9.83783
▁헤어	-9.83826
층에	-9.83849
▁주말	-9.8385
▁뜨	-9.8385
▁단체	-9.83868
▁그라믄	-9.83875
▁해줄	-9.83887
▁굴	-9.83924
쇼	-9.83979
해주시면	-9.84062
▁좋다	-9.84099
▁삼성	-9.84152
▁과일	-9.84167
▁흐	-9.84172
▁고객들	-9.84183
만한	-9.8422
뿌	-9.8423
▁가르쳐	-9.84255
하려는	-9.84264
▁면접	-9.84274
▁우째	-9.84284
▁이론	-9.84299
▁속에	-9.84362
▁이미지를	-9.8437
대를	-9.84388
하는지	-9.84461
▁발생한	-9.84465
▁읽고	-9.84499
▁쇼	-9.84522
▁원단	-9.84652
30	-9.84665
▁경우에는	-9.84782
▁사실을	-9.84809
▁좋아하고	-9.84811
▁들을	-9.84826
▁하였습니다	-9.84846
젠	-9.84868
▁아름답	-9.84868
깃	-9.84868
▁나타나	-9.84873
▁년	-9.84896
▁존경	-9.84903
▁현금	-9.84942
▁문제점	-9.84979
▁통관	-9.84994
▁것이라	-9.85052
▁주변에	-9.8507
▁그려	-9.85082
옥	-9.85166
▁너와	-9.85203
▁않는다	-9.85233
▁아니고	-9.85251
▁생겼	-9.85374
으니까	-9.85444
▁만나는	-9.85465
▁옛날	-9.85486
▁훈련	-9.85486
▁2015	-9.85502
으나	-9.85524
▁채팅	-9.85526
▁편안	-9.8553
▁언니	-9.85531
▁행위	-9.85539
▁허용	-9.85565
임을	-9.85718
▁맥	-9.85822
든지	-9.85863
참	-9.8588
▁번호를	-9.85897
▁힘이	-9.8603
▁싶어서	-9.86043
컬	-9.86105
▁젊은	-9.86107
▁염	-9.86136
▁용기	-9.86154
▁바꿀	-9.86159
었지만	-9.8616
▁부르	-9.86224
▁낫	-9.86239
스타	-9.86269
▁아이들이	-9.86283
지면	-9.86293
▁맘	-9.86365
리아	-9.86621
▁맞추	-9.86652
▁니는	-9.86663
▁없으면	-9.86669
▁금지	-9.86671
혹	-9.86703
▁2017	-9.86732
▁고용	-9.8675
▁항목	-9.86757
▁올라가	-9.86764
▁움직임	-9.86781
▁상승	-9.86789
역에서	-9.86831
▁재미	-9.86913
▁날씨	-9.86913
▁생각하지	-9.86925
▁방학	-9.86965
▁게다가	-9.86998
확	-9.87009
▁효과가	-9.87025
▁제품들	-9.87057
▁텐데	-9.87158
욕	-9.8716
▁예정이	-9.87172
▁받아야	-9.87179
▁가능할	-9.87194
킨	-9.87196
▁매년	-9.87225
화된	-9.87233
▁진행하고	-9.8726
▁옵션	-9.87361
▁오픈	-9.87377
▁그라모	-9.87389
▁보일	-9.87401
▁이사	-9.87452
거든요	-9.87496
냥	-9.87541
▁처음으로	-9.87563
▁했고	-9.87602
장님	-9.87626
▁평소에	-9.87627
드는	-9.87653
▁상세	-9.87676
희	-9.87686
▁황	-9.87797
Y	-9.87813
품을	-9.87875
▁것들이	-9.87886
▁충분한	-9.87932
▁남자친구	-9.87994
▁부드럽	-9.87994
▁전시회	-9.88041
▁구글	-9.88072
▁교회	-9.88076
▁욕	-9.88081
▁나누	-9.88107
▁한국에서는	-9.88108
▁주인	-9.88128
▁찍은	-9.88164
▁도구	-9.88248
▁무게	-9.88272
▁신체	-9.88278
▁주위	-9.88287
▁받기	-9.88316
▁이걸	-9.88321
거든	-9.88405
▁얼	-9.8844
줘야	-9.8847
▁번에	-9.88535
▁효	-9.88562
▁맞지	-9.88572
시장	-9.88594
▁디자이너	-9.88631
▁대한민국	-9.88631
▁하니	-9.88702
▁숫자	-9.88703
▁비행	-9.88711
▁멀리	-9.88715
▁세트	-9.88844
▁오랜만	-9.88969
▁찾기	-9.89017
▁느꼈	-9.89161
흥	-9.89267
힐	-9.89271
▁업그레이드	-9.89272
거야	-9.89279
▁색깔	-9.89282
받을	-9.89309
▁토론	-9.89314
▁억	-9.89322
▁보내드리겠습니다	-9.89334
▁비율	-9.89405
▁명이	-9.89515
▁가능해요	-9.89524
▁영역	-9.89662
▁그거	-9.89726
▁피부에	-9.89729
▁보내줄	-9.89758
▁만들었	-9.89776
▁있었고	-9.89816
▁프로젝트를	-9.89836
▁저번에	-9.89846
▁느끼고	-9.89848
▁문제로	-9.89897
장은	-9.89907
▁아르바이트	-9.89917
▁엄청난	-9.8993
▁라벨	-9.89934
▁관람	-9.89934
▁떨	-9.89996
▁배우는	-9.90088
▁구경	-9.90131
▁거기	-9.90141
하죠	-9.90225
▁따뜻한	-9.90252
누	-9.90275
▁방식으로	-9.90292
▁못했어요	-9.90353
드릴게요	-9.90374
▁오른쪽	-9.90402
▁대기	-9.90411
▁매력	-9.90433
빛	-9.90481
괴	-9.90535
▁나눠	-9.90566
하겠	-9.90567
▁음식은	-9.90582
▁바이어	-9.90594
▁상황에서	-9.90602
▁오빠	-9.90613
▁요번	-9.90645
해주시기	-9.90672
▁다만	-9.90707
▁화학	-9.90725
▁그럴	-9.90779
▁봉사	-9.90801
여서	-9.90815
▁후원	-9.9087
드릴게예	-9.90921
▁국민	-9.90952
▁뛰어	-9.91044
▁즐거운	-9.9122
▁무엇인지	-9.91232
▁작업이	-9.91244
▁곳으로	-9.91288
▁스타	-9.91302
▁어려워	-9.91375
▁차별	-9.91383
하십시오	-9.91432
▁드러	-9.91469
▁궁금한	-9.91527
점이	-9.91701
▁착	-9.91705
▁이게	-9.91733
▁버튼을	-9.91746
▁생각했습니다	-9.91752
▁하려고	-9.91758
▁아니야	-9.9179
칸	-9.91798
▁점수	-9.918
꿀	-9.91822
▁마시고	-9.91827
▁그곳에서	-9.9185
▁만듭니다	-9.91878
▁패키지	-9.91878
▁뽑	-9.91895
▁최초	-9.91898
▁어려울	-9.91898
시키	-9.91899
▁감사드립니다	-9.91918
봐야	-9.91948
▁시작했습니다	-9.91968
▁근거	-9.92035
▁23	-9.92059
합니꺼	-9.92109
▁연관	-9.92117
▁집단	-9.92161
kg	-9.92183
가예	-9.92236
턴	-9.92318
척	-9.92419
북	-9.92446
▁말했습니다	-9.92472
▁멤버	-9.92481
랐	-9.925
스테	-9.92523
렬	-9.9254
십니꺼	-9.92549
▁풍경	-9.92584
▁종교	-9.9259
▁꺼	-9.92595
▁확장	-9.92668
하셔서	-9.92677
▁미국의	-9.92708
▁달에	-9.92723
▁관해서	-9.92737
▁끝내	-9.92764
▁들었어요	-9.92789
▁송장	-9.92847
▁벤	-9.92854
잔	-9.92928
▁빠지	-9.92957
▁조치	-9.92957
성은	-9.93041
▁맨	-9.93056
렀	-9.93169
▁시작했어요	-9.93191
팔	-9.93195
▁수밖에	-9.93207
▁오히려	-9.93207
▁빌	-9.93227
▁상징	-9.93229
▁없는데	-9.93248
▁가슴	-9.93249
▁당연히	-9.93301
▁남는	-9.93456
▁벗	-9.93482
▁고객사	-9.93518
▁형식	-9.93544
▁전문가	-9.93611
▁듣	-9.93653
▁500	-9.9367
▁상품이	-9.93683
▁의도	-9.93697
▁펜	-9.93738
보면	-9.93756
▁a	-9.93763
▁생성	-9.93775
▁말은	-9.93792
량이	-9.93795
▁거짓말	-9.93878
▁비타민	-9.93878
▁정류장	-9.9388
▁둘째	-9.93894
▁닭	-9.93915
▁보장	-9.93931
▁담배	-9.93947
▁서명	-9.93966
▁아파트	-9.93966
▁학원	-9.9412
▁필수	-9.94135
▁호텔에	-9.94138
▁참조	-9.94165
▁날이	-9.9417
같은	-9.94192
받고	-9.94205
▁어려	-9.9424
▁물을	-9.94337
하니까	-9.94425
▁증명	-9.94468
▁인지	-9.94473
▁덜	-9.94487
완	-9.94497
▁앞서	-9.94521
▁그리스	-9.94536
▁영양	-9.94554
▁감독	-9.94577
▁기획	-9.94584
▁케	-9.94584
▁대응	-9.94596
▁쉽지	-9.94599
▁가족들	-9.94624
놓고	-9.94665
▁닫	-9.94715
여행	-9.94778
▁시점	-9.94804
▁배운	-9.94867
▁된다고	-9.94868
▁우주	-9.94889
▁한국으로	-9.94906
▁자랑	-9.9496
▁기타	-9.94976
▁느끼는	-9.94986
스가	-9.95088
▁수요	-9.95099
앙	-9.95123
▁좋다고	-9.95206
톡	-9.95232
븐	-9.95234
▁케이블	-9.95234
▁세부	-9.95264
▁맛볼	-9.95279
와서	-9.9528
▁공부하는	-9.954
▁송	-9.95411
▁눈이	-9.95426
▁어려움	-9.95477
▁세계에서	-9.95532
▁중국어	-9.95553
▁통하여	-9.95605
▁소중한	-9.9561
▁누구나	-9.95637
▁미래에	-9.95693
기술	-9.95723
받은	-9.95737
▁부여	-9.95751
▁방향으로	-9.95772
탁	-9.95774
▁찬	-9.95815
▁버리	-9.95905
▁새벽	-9.95932
▁체육	-9.95933
▁극복	-9.95937
룸	-9.95958
▁비싸	-9.95967
▁접속	-9.9598
▁활	-9.95985
▁예정이에요	-9.961
▁강조	-9.96128
▁이름은	-9.96185
▁예산	-9.96214
▁품	-9.96236
▁개안	-9.96272
▁완	-9.96276
처리	-9.96297
▁오늘날	-9.96315
▁말했어요	-9.96321
먼	-9.96529
▁했어	-9.96592
겜	-9.96608
▁픽업	-9.96608
▁미디어	-9.96609
▁패턴	-9.96616
지예	-9.96639
캐	-9.96675
▁남겨	-9.9675
▁저녁에	-9.96773
▁폐	-9.96896
▁하세요	-9.96978
▁주지	-9.97058
▁느낌이	-9.97113
▁끝나고	-9.97179
▁지지	-9.97282
▁언젠가	-9.97303
▁핵심	-9.97323
▁충격	-9.97324
▁가능하다면	-9.97432
▁교사	-9.97452
▁환	-9.97463
들어	-9.97498
▁복잡	-9.97579
▁너한테	-9.97579
▁되겠	-9.97696
▁보내드리	-9.97712
▁말하고	-9.97718
금을	-9.97759
해볼	-9.97774
▁장식	-9.97791
▁일하고	-9.97791
▁되었고	-9.9782
▁기여	-9.97824
▁평소	-9.97857
았다	-9.97867
▁군대	-9.9788
혜	-9.9792
▁불만	-9.97999
▁다이어트	-9.98002
▁학생이	-9.9801
맞	-9.98027
▁미술	-9.98063
폐	-9.98071
데요	-9.98082
▁오지	-9.98095
▁저희에게	-9.98099
▁가질	-9.98195
▁말합니다	-9.98233
▁모아	-9.98241
▁유통	-9.98253
▁의심	-9.98258
▁셀	-9.98262
▁워	-9.98372
▁표면	-9.98436
물이	-9.98451
▁안되	-9.9848
▁청소년	-9.9851
트로	-9.98525
▁d	-9.98552
▁때문이	-9.9862
둥	-9.98641
▁상자	-9.98671
▁뭔	-9.98694
▁가까이	-9.98732
▁필요할	-9.98742
▁클럽	-9.98777
맥	-9.98785
까지는	-9.98796
▁생각하기	-9.98827
▁이제는	-9.98922
이소	-9.99001
▁선생님이	-9.99028
cm	-9.99159
▁중요하다	-9.99164
없는	-9.99179
▁모르겠	-9.99196
▁박물관	-9.99212
▁공개	-9.9934
▁다녀	-9.99377
▁실망	-9.99475
▁머물	-9.99477
▁보여줍니다	-9.99479
▁힘들었	-9.99531
▁보았습니다	-9.99753
▁건조	-9.9984
▁법을	-9.99899
▁들었어	-9.99965
▁판매자	-9.99991
ro	-10.0001
▁바라보	-10.0002
▁계시	-10.0005
▁양식	-10.0011
촉	-10.0011
▁지시	-10.0012
룰	-10.0013
▁설명해	-10.0013
▁병원에	-10.0018
▁놀라	-10.0021
암	-10.0028
풀	-10.0029
▁간호사	-10.0032
▁작년	-10.0037
되었고	-10.0041
사회	-10.0044
▁미치는	-10.0044
▁이루	-10.0052
십시오	-10.0052
▁한글	-10.0057
▁건강한	-10.0059
▁내에	-10.006
▁배송비	-10.0077
▁시내	-10.0081
▁등장	-10.0083
▁손가락	-10.0085
▁유일한	-10.0086
▁구매할	-10.0087
▁모릅니다	-10.0089
▁체계	-10.0092
▁왔는데	-10.0103
▁이해하고	-10.0108
▁아니지만	-10.0112
▁전망	-10.0113
▁유리	-10.0115
▁나은	-10.0117
▁선택한	-10.0117
▁구체적	-10.0131
▁생각할	-10.0133
▁가수	-10.0133
▁27	-10.0133
▁포함되어	-10.0139
끼리	-10.0144
▁배려	-10.0145
▁PO	-10.0152
소리	-10.0153
▁한복	-10.0156
몽	-10.0157
꾼	-10.0157
▁휴대폰	-10.0157
▁자격증	-10.0159
▁예쁘	-10.0159
ing	-10.0162
▁확보	-10.0163
▁세탁	-10.0163
▁요인	-10.0164
셔도	-10.0165
시킨	-10.0169
▁주셔서	-10.0172
▁물건이	-10.0173
빙	-10.0177
폭	-10.0177
학생	-10.0178
▁식물	-10.0188
▁달려	-10.0199
하셔야	-10.0199
▁거기에	-10.0203
게예	-10.0204
▁지난번	-10.021
▁부정	-10.0211
▁이름이	-10.0212
▁이후로	-10.0213
▁X	-10.0214
닌	-10.0214
▁인구	-10.0219
프라	-10.0221
드리겠습니다	-10.0224
됐습니다	-10.023
하네요	-10.023
▁부드러	-10.023
▁규모	-10.0231
▁떨어지	-10.0231
▁연주	-10.0233
▁아이디	-10.0235
▁가능한가요	-10.0237
▁불가	-10.0243
▁부착	-10.0246
묵	-10.025
5,000	-10.0251
▁사전	-10.0251
▁제외하고	-10.0254
푸	-10.0256
▁발라	-10.0256
▁기본적인	-10.0257
할때	-10.0258
▁봄	-10.0258
▁노동	-10.0273
▁상태로	-10.0278
운동	-10.0286
섭	-10.0299
해주실	-10.0301
▁계신	-10.0302
▁해수욕장	-10.0304
▁인원	-10.0305
과정	-10.0306
▁결론	-10.0307
▁좋아하지	-10.031
▁쓰지	-10.0312
▁생길	-10.032
▁주십시오	-10.0322
▁선박	-10.0322
같이	-10.0327
끄	-10.0328
▁경기장	-10.0332
이니	-10.034
▁마리	-10.0344
▁수영	-10.0354
라인	-10.0355
▁생각에는	-10.0358
센	-10.0359
▁몸에	-10.0362
▁부위	-10.0367
▁동료	-10.0367
▁재밌	-10.0369
혁	-10.0373
▁하루에	-10.0375
▁게스트하우스	-10.0378
▁결합	-10.0381
▁바쁘	-10.0381
▁엘	-10.0382
▁했을	-10.0387
▁굳	-10.0387
▁자녀	-10.0388
st	-10.039
▁자연스럽	-10.0395
11	-10.0398
▁크림	-10.0401
▁공부할	-10.0402
김	-10.0405
▁진실	-10.0408
▁발생할	-10.0409
▁발급	-10.041
▁가족이	-10.0415
▁센터	-10.0422
오는	-10.0427
▁음료	-10.0428
▁출하	-10.0429
텐	-10.0431
잖아요	-10.0433
▁모자	-10.0439
▁우수	-10.0441
il	-10.0442
촌	-10.0443
▁피자	-10.0445
게임	-10.0449
▁아들	-10.045
▁메이크업	-10.0453
▁의지	-10.0454
하시기	-10.046
▁반송	-10.046
▁쉬운	-10.046
▁여서	-10.0461
▁그랬	-10.0463
▁잡고	-10.0469
비용	-10.047
▁어데	-10.0478
▁효과적	-10.0485
▁때문	-10.0489
▁고급	-10.049
▁향해	-10.049
▁야구	-10.0493
만으로	-10.0496
셨습니다	-10.0497
▁수집	-10.0498
▁직원이	-10.0503
▁윤	-10.0503
el	-10.0503
▁따르	-10.0508
었을	-10.0516
▁비가	-10.0521
폴	-10.0527
▁넓은	-10.0528
▁모듈	-10.0528
▁블랙	-10.0528
▁충족	-10.0529
▁태국	-10.0535
▁나아	-10.0541
▁의자	-10.0551
▁항공사	-10.0555
▁증상	-10.0556
▁무리	-10.0556
▁신문	-10.0557
▁경우에	-10.056
▁가져다	-10.0562
진다	-10.0563
▁때가	-10.0566
라예	-10.0566
▁엄청	-10.0572
▁해석	-10.0573
▁콜	-10.0579
▁알아야	-10.0583
▁김치	-10.0583
▁방해	-10.0597
▁자유롭게	-10.0604
▁고마워	-10.0604
▁퇴근	-10.0604
▁습관	-10.0604
▁놀이	-10.0606
▁오면	-10.0606
▁당연	-10.0607
▁기다	-10.0607
▁데이트	-10.0611
▁숙제	-10.0613
▁고장	-10.0617
▁구입	-10.0628
▁의식	-10.0629
좀	-10.0637
▁단가	-10.0638
▁끌어	-10.0641
▁유행	-10.0648
▁거부	-10.0657
am	-10.0658
▁오래된	-10.066
▁위치한	-10.0662
략	-10.0663
준다	-10.0667
▁제외한	-10.0674
기간	-10.0678
▁증거	-10.0679
헌	-10.068
▁유튜브	-10.068
닉	-10.068
▁2014	-10.068
▁가볍	-10.068
해보세요	-10.0688
▁진출	-10.0689
▁도입	-10.069
▁무역	-10.069
▁리더	-10.0693
주실	-10.0694
▁혈	-10.0698
▁이용하는	-10.0699
▁하나님	-10.0703
▁기내	-10.0704
귀	-10.0704
▁괜찮아	-10.0706
▁만들었습니다	-10.0707
지게	-10.0711
▁똑같은	-10.0712
이므로	-10.0715
받아	-10.0716
▁칠	-10.0718
▁개인적으로	-10.0718
▁맞게	-10.0721
해보고	-10.0735
▁갑니다	-10.0739
▁조금만	-10.074
▁22	-10.0746
▁가격으로	-10.0746
▁효율적	-10.0747
리스	-10.0751
▁되어서	-10.0755
▁매니저	-10.0757
▁클릭	-10.0758
▁소년	-10.0758
▁표준	-10.0762
▁성능	-10.0763
▁보내주시면	-10.0765
▁무엇인가요	-10.0766
▁좋고	-10.0766
▁듣기	-10.0772
갑	-10.0776
존	-10.0778
▁일요일	-10.0778
▁커버	-10.0782
▁풀어	-10.0785
▁쪽으로	-10.0787
▁보지	-10.0794
▁싶다면	-10.0799
▁평화	-10.0802
▁솔	-10.0807
▁벌어	-10.0811
▁호텔에서	-10.0811
이자	-10.0817
▁말아	-10.0819
▁시청	-10.0819
▁찾으	-10.0824
으면서	-10.0827
자마자	-10.0831
▁센서	-10.0835
▁시에	-10.0838
으믄	-10.0841
▁척	-10.0841
▁연락이	-10.0843
▁보며	-10.0844
▁PC	-10.0849
짜리	-10.0854
▁건설	-10.0861
▁80	-10.0865
▁유저	-10.0867
▁신선	-10.0876
정보	-10.0882
▁분실	-10.0887
줘서	-10.0891
▁필요로	-10.0899
▁공항에	-10.09
관계	-10.0901
▁월요일에	-10.0904
▁만일	-10.0912
잇	-10.0912
▁맨날	-10.0915
▁관찰	-10.0915
▁스마트	-10.0916
▁않을까	-10.0917
▁존중	-10.0918
일로	-10.092
년대	-10.0921
▁좋게	-10.0924
심더	-10.0929
이라예	-10.0932
▁여름에	-10.0933
있다	-10.0944
▁끝까지	-10.0947
▁심각한	-10.0947
▁긴장	-10.0953
널	-10.0953
수는	-10.0956
▁음식이	-10.0956
▁짜	-10.0956
눈	-10.0958
▁제품과	-10.0965
▁몸이	-10.097
▁공항에서	-10.0973
▁금액이	-10.0974
▁준다	-10.0974
▁빨	-10.0976
▁생겨	-10.0976
▁들면	-10.0984
해질	-10.0985
칙	-10.0986
텔	-10.0987
춘	-10.099
▁초등학교	-10.0991
▁플랫폼	-10.0991
▁테이블	-10.0991
▁좌석	-10.0991
▁신용카드	-10.0991
▁바르	-10.0997
▁회계	-10.0999
▁쪽에서	-10.1
▁정확하게	-10.1005
▁책임감	-10.1008
▁수령	-10.1013
▁수분	-10.1018
▁진행하는	-10.1023
▁생각보다	-10.1027
보니	-10.1034
성에	-10.1037
으세요	-10.1044
▁시계	-10.1044
▁주이소	-10.1049
▁유용	-10.1056
▁못해	-10.1058
▁끌	-10.1064
▁본사	-10.1068
▁좋아해요	-10.1068
습니꺼	-10.107
▁어쩔	-10.1071
▁스티커	-10.1071
▁금융	-10.1071
▁처음에는	-10.1072
▁허락	-10.1075
▁감각	-10.1077
▁구독	-10.1079
▁실시	-10.108
▁나라에서	-10.1087
▁조립	-10.1087
트는	-10.1092
is	-10.1103
▁어디에	-10.1104
주시겠어요	-10.1104
▁이내에	-10.1104
▁결혼식	-10.1107
▁지루	-10.1109
▁데려	-10.111
▁조선	-10.1111
▁나갈	-10.1113
었으면	-10.1113
▁부정적	-10.1114
▁라면	-10.1131
념	-10.1133
▁되었어요	-10.1143
▁주면	-10.1149
긋	-10.1151
랭	-10.1151
▁케이크	-10.1151
▁채널	-10.1152
았어요	-10.116
▁오염	-10.1163
▁분명히	-10.117
▁우유	-10.117
▁Y	-10.1174
▁것들	-10.1174
▁지각	-10.1188
▁달성	-10.1188
된다면	-10.1194
공학	-10.1195
▁말씀해	-10.1197
▁배송이	-10.1199
▁의한	-10.1207
▁차가	-10.121
▁모르겠어	-10.1211
▁아니요	-10.1219
▁소중	-10.122
멜	-10.1231
큐	-10.1231
▁나타내	-10.1231
▁활발	-10.1234
▁뭘	-10.1237
▁평생	-10.124
▁사용되는	-10.124
슈	-10.1241
▁돕	-10.1246
▁분류	-10.1253
▁확	-10.1258
▁수요일	-10.1259
▁지금부터	-10.1259
년이	-10.1265
▁외에	-10.1268
▁지점	-10.1279
▁노력하고	-10.128
않	-10.1285
뜨	-10.1285
▁걸려	-10.129
▁앉아	-10.1304
상품	-10.1312
삭	-10.1312
▁멋있	-10.1312
▁컨셉	-10.1312
▁컨테이너	-10.1312
▁디저트	-10.1313
▁천천히	-10.1313
▁즐겨	-10.1313
▁카카오톡	-10.1313
60	-10.1313
▁뿐만	-10.1314
▁희생	-10.1315
▁양념	-10.1316
▁나쁘	-10.1317
▁없으	-10.132
▁재능	-10.1322
느냐	-10.1325
하여야	-10.1327
▁거주	-10.1328
금액	-10.1333
▁하러	-10.1348
했었	-10.1349
냐고	-10.1352
▁저한테	-10.1354
다믄	-10.1368
롤	-10.1369
▁책은	-10.1369
개가	-10.1371
방송	-10.1378
시키기	-10.138
했었습니다	-10.1385
▁고르	-10.1387
하겠다	-10.1387
▁체크아웃	-10.1394
▁페이팔	-10.1394
▁그것에	-10.1395
▁흐름	-10.1396
▁예쁜	-10.1397
▁그것들	-10.1398
▁자꾸	-10.14
▁자고	-10.1401
▁신제품	-10.1402
▁우편	-10.1403
▁통계	-10.1406
▁식품	-10.1407
▁금방	-10.1407
▁기도	-10.1411
▁신기	-10.1438
▁내도	-10.1444
허	-10.1452
▁대학생	-10.1459
스럽게	-10.146
▁드는	-10.146
하는거	-10.1465
▁제공할	-10.1467
▁믿	-10.1469
▁권한	-10.147
Z	-10.1477
▁됩니꺼	-10.1477
▁봅니다	-10.1477
껏	-10.1477
됨	-10.1477
▁기숙사	-10.1477
▁균형	-10.1477
▁시즌	-10.1481
▁회복	-10.1481
▁끝난	-10.1483
▁사진과	-10.1493
시믄	-10.1494
▁모여	-10.1497
▁채소	-10.15
▁보냈습니다	-10.1501
▁렌즈	-10.1502
▁것이며	-10.1503
움을	-10.1505
▁공사	-10.1507
▁전환	-10.1512
▁이하	-10.1517
▁가격에	-10.1519
▁방안	-10.1519
▁저렴	-10.152
ce	-10.1526
▁친구에게	-10.1535
▁걱정이	-10.1538
▁파리	-10.1538
▁찾아보	-10.1541
맛	-10.1542
▁해결하기	-10.1546
es	-10.155
▁노인	-10.1556
▁노력할	-10.1558
시킵니	-10.156
▁변호사	-10.156
▁가운데	-10.156
▁더불어	-10.1561
▁원활	-10.1565
▁어떨까요	-10.1566
▁믿음	-10.1572
▁처음에	-10.1578
la	-10.158
▁돼지	-10.1582
▁기름	-10.1583
▁격	-10.1595
▁해주세요	-10.1597
▁주목	-10.1599
로써	-10.1605
▁당신들	-10.1611
▁계기	-10.1611
▁놓고	-10.1615
혈	-10.1623
드리고	-10.1628
했다면	-10.1631
▁일본에서	-10.1642
▁수량이	-10.1642
튀	-10.1644
▁섭취	-10.1645
▁혜택	-10.1645
▁쿠폰	-10.1645
▁의뢰	-10.1646
▁새롭	-10.165
▁질병	-10.165
▁타는	-10.1652
▁같네요	-10.1656
▁구축	-10.1658
대에	-10.1659
▁연장	-10.1663
▁싸우	-10.1667
▁시작할	-10.1677
자로	-10.1678
▁실력이	-10.168
이기도	-10.1683
▁자금	-10.1688
▁닿	-10.1688
▁걱정하지	-10.1691
릅니다	-10.1693
버렸	-10.1705
▁하셨	-10.171
죄	-10.1712
방식	-10.1715
줘요	-10.1715
▁표기	-10.1716
▁얻기	-10.1718
냅니다	-10.1722
▁준비해	-10.1723
▁룸	-10.1724
흔	-10.1727
▁담아	-10.1729
▁애플리케이션	-10.1729
렛	-10.1729
▁끊임없	-10.1729
▁벗어나	-10.1729
▁혁신	-10.1729
▁설립	-10.1733
▁목요일	-10.1739
▁어때	-10.1741
▁필요하다고	-10.1741
▁인하여	-10.1742
▁요리를	-10.1743
혼	-10.1751
▁화려	-10.1751
▁전국	-10.1754
▁해변	-10.1754
▁바닥	-10.1756
▁가족과	-10.1758
▁따뜻	-10.1771
명은	-10.1771
사에	-10.1775
▁해결할	-10.1786
▁컵	-10.1796
▁기능이	-10.1798
▁한계	-10.1799
빈	-10.1799
▁붙여	-10.1803
▁만남	-10.1818
▁전화번호	-10.1821
▁차례	-10.1822
▁소개해	-10.183
▁통신	-10.1842
▁선수들	-10.1842
▁강력한	-10.1844
▁타임	-10.185
해져	-10.1852
▁결정을	-10.1854
▁적합한	-10.1855
▁주어	-10.1863
▁고생	-10.1874
▁선택할	-10.1876
에겐	-10.1878
▁아이들은	-10.1887
용으로	-10.1887
▁1,000	-10.1897
▁아쉽	-10.19
▁밝은	-10.1901
겄	-10.1901
▁일어났	-10.1901
▁심사	-10.1903
업자	-10.1908
▁홈	-10.1911
▁70	-10.1913
▁낳	-10.1919
▁작용	-10.1923
▁와인	-10.1923
▁보인다	-10.1924
▁나누어	-10.1926
검	-10.1928
▁보여주는	-10.193
▁읽어	-10.1931
▁대만	-10.1937
▁이익을	-10.1942
▁옥	-10.1945
마트	-10.1952
▁세계적으로	-10.196
▁싶고	-10.1967
▁시장에서	-10.1968
찌	-10.1972
▁동기	-10.1975
▁다니는	-10.1979
▁범	-10.1979
계획	-10.198
▁이상이	-10.1984
▁완벽한	-10.1985
낭	-10.1988
헬	-10.1988
묶	-10.1988
▁콘서트	-10.1988
▁바란다	-10.1988
▁지내고	-10.1989
▁샤워	-10.199
▁측면	-10.1997
▁시장에	-10.1997
▁사귀	-10.1997
▁천연	-10.1998
▁땐	-10.2007
▁이용해서	-10.2021
▁사장님	-10.2022
▁빌려	-10.2022
▁갑	-10.2029
스러워	-10.2032
져야	-10.204
▁소비자들	-10.2043
▁세상에	-10.2043
셨으면	-10.2046
▁유형	-10.2046
▁누나	-10.2046
▁중이에요	-10.2049
▁ᄏᄏ	-10.2053
꾸	-10.2055
▁가족들과	-10.2056
응	-10.2056
드렸습니다	-10.2057
▁오해	-10.2068
랍	-10.2072
▁로고	-10.2074
넷	-10.2076
▁깊이	-10.2076
▁엔지니어	-10.2076
놔	-10.2076
떼	-10.2076
▁흡연	-10.2076
▁알려주시기	-10.2078
▁영광	-10.2079
번에	-10.2081
▁지갑	-10.2085
해준	-10.2087
▁제공해	-10.2089
▁그라	-10.209
▁중독	-10.2099
▁좋아서	-10.2102
▁받게	-10.2113
▁재미있게	-10.2113
하나	-10.2116
라카	-10.212
▁되어야	-10.2128
▁관광지	-10.213
▁당일	-10.2133
ck	-10.2137
▁장애	-10.2145
▁아이를	-10.215
▁관련해서	-10.2151
▁초과	-10.2152
▁오전에	-10.2156
엘	-10.2159
홀	-10.2159
▁가스	-10.216
깔	-10.2163
▁디지털	-10.2164
▁많으	-10.2164
렉	-10.2164
▁상의	-10.2167
▁실례	-10.2168
▁해결책	-10.2169
작업	-10.2169
▁계절	-10.2171
▁통역	-10.2176
▁받아서	-10.2183
▁않다	-10.2184
▁자리에	-10.2187
▁형태로	-10.2188
▁공포	-10.2193
▁수용	-10.2195
▁제품으로	-10.2201
▁거절	-10.2206
▁경비	-10.2209
▁꼬	-10.2212
시길	-10.2216
▁없었다	-10.2234
▁그만	-10.2236
ow	-10.2236
▁잘하는	-10.2248
롱	-10.2253
▁오늘도	-10.2254
▁인물	-10.2256
호선	-10.2256
▁제어	-10.2256
▁논문	-10.2257
▁남았	-10.2257
▁그녀에게	-10.226
▁된다는	-10.2263
▁이곳에	-10.2264
▁만들어진	-10.2265
▁비밀	-10.2271
▁열리는	-10.2274
▁상호	-10.2277
▁전송	-10.2281
봐도	-10.2281
▁데에	-10.2282
▁먼	-10.2283
MS	-10.2283
▁이곳에서	-10.2285
▁까	-10.2286
▁하이	-10.2288
ST	-10.2288
함에	-10.229
▁실내	-10.2298
▁상관없	-10.2307
▁가졌	-10.2311
▁부모님이	-10.2313
▁IT	-10.2313
▁뭐가	-10.2316
▁입구	-10.2319
해라	-10.2321
스티	-10.2322
해주신	-10.233
봐요	-10.2331
ss	-10.2337
▁팩	-10.2338
쾌	-10.2339
▁살펴보	-10.2343
엠	-10.2343
▁협상	-10.2344
페이지	-10.2344
함이	-10.2345
이어서	-10.2351
▁한다	-10.2356
▁정상적으로	-10.2358
겠어	-10.2359
▁느꼈습니다	-10.2359
▁신호	-10.2369
▁출력	-10.2371
▁사용한	-10.2379
▁전해	-10.2389
▁심장	-10.2392
12	-10.241
되어있습니다	-10.241
▁분야에서	-10.241
부분	-10.2413
▁사이에서	-10.242
▁배워	-10.2421
▁날씨가	-10.2425
싸	-10.2429
래도	-10.2431
▁갔습니다	-10.2434
▁합격	-10.2438
▁기간이	-10.2439
▁이외에	-10.244
들입니다	-10.2441
▁동물들	-10.2441
▁코팅	-10.2442
▁편집	-10.2458
르고	-10.246
▁건너	-10.2461
▁논	-10.2461
▁공공	-10.2464
▁생물	-10.2465
▁건데	-10.2465
▁없었어요	-10.2466
▁나와서	-10.2467
박스	-10.2474
▁친한	-10.2486
려는	-10.249
하나요	-10.2496
되었는지	-10.2503
▁거죠	-10.2504
▁능력이	-10.2506
▁찾아가	-10.2509
좋	-10.251
▁부탁합니다	-10.251
▁회사와	-10.2513
▁만화	-10.2516
▁나아가	-10.2517
▁무대	-10.2524
해야만	-10.2525
▁봉	-10.2525
·	-10.2526
▁올바른	-10.2526
▁규제	-10.2526
나예	-10.2528
ed	-10.2529
▁인턴	-10.2531
▁없애	-10.2532
▁방법에	-10.2532
답니다	-10.2532
▁노출	-10.2533
▁종료	-10.2533
▁진학	-10.2543
년도	-10.2543
▁미션	-10.2544
▁모르겠어요	-10.2549
▁토요일에	-10.2549
▁기부	-10.255
법을	-10.2551
▁사망	-10.2552
▁말에	-10.2554
▁미국에	-10.2554
▁당신께	-10.2556
▁포기하지	-10.2556
▁이익	-10.2558
▁양해	-10.2559
▁늘어나	-10.256
▁지적	-10.2564
▁만나고	-10.2564
▁순수	-10.2565
▁성실	-10.2566
같	-10.2566
▁아니었	-10.2571
▁90	-10.2573
▁저렴한	-10.2575
▁들어간	-10.2584
쉽	-10.2589
우스	-10.2591
▁이루어져	-10.26
원으로	-10.2604
▁하거나	-10.2609
▁28	-10.2614
느	-10.2618
▁DHL	-10.2619
▁소프트웨어	-10.2619
▁흰색	-10.2619
▁협조	-10.2619
▁연예인	-10.2619
▁메인	-10.2619
▁쇼핑몰	-10.2619
▁응답	-10.262
▁흔들	-10.262
▁설탕	-10.2621
▁어깨	-10.2621
▁바퀴	-10.2621
▁아픈	-10.2622
▁스토리	-10.2623
▁돼서	-10.2625
▁출입	-10.2626
▁모르겠지만	-10.2628
▁말해요	-10.263
▁감기	-10.2634
▁이용한	-10.2636
▁말로	-10.2639
▁이상한	-10.2641
학적	-10.2647
토리	-10.2649
카드	-10.2649
▁정확	-10.265
간다	-10.265
워서	-10.2652
▁스파	-10.2652
▁거기서	-10.2654
▁웃음	-10.266
주셔서	-10.2674
▁적합	-10.2678
▁측에서	-10.2679
▁주시	-10.2681
▁세관	-10.2681
ct	-10.2682
ou	-10.2684
▁층	-10.2687
▁기반으로	-10.2687
▁줬	-10.269
빠	-10.2693
시키고	-10.2699
▁오후에	-10.2704
▁금요일에	-10.271
▁발명	-10.2711
j	-10.2712
(	-10.2712
▁면세점	-10.2712
▁활성화	-10.2712
▁마스크	-10.2712
▁귀찮	-10.2712
▁개최	-10.2713
▁아이폰	-10.2714
▁미안하지만	-10.2715
▁종합	-10.2716
▁있으시면	-10.2717
▁프리	-10.2717
▁강남	-10.2718
▁비싼	-10.2718
Q	-10.272
▁번째는	-10.2721
콜	-10.2722
▁합리적	-10.2724
▁출구	-10.2727
▁제외	-10.2728
▁있었으면	-10.273
▁때문이야	-10.2732
▁이뤄	-10.2738
해진	-10.2739
▁가자	-10.2741
▁10%	-10.2744
▁공간이	-10.2744
▁마찬가지로	-10.2744
▁팝	-10.2748
▁같다고	-10.2751
▁쥐	-10.2754
▁맹	-10.2754
▁쌍	-10.2756
▁새해	-10.2756
▁견적서	-10.2763
▁미안해	-10.2764
▁올림픽	-10.2772
▁저기	-10.2772
▁보조	-10.2778
나무	-10.2782
▁내내	-10.2785
▁들어서	-10.2791
▁알려줄	-10.2802
▁아이스크림	-10.2806
▁귀여운	-10.2807
▁묘사	-10.2807
▁뛰어난	-10.2809
▁않았어	-10.2812
▁세포	-10.2812
▁언제쯤	-10.2812
줬으면	-10.2817
▁일어나는	-10.2818
칼	-10.282
▁핀	-10.282
꽃	-10.2823
셨나요	-10.2835
▁대학에	-10.2835
▁갈등	-10.2837
▁날짜를	-10.2841
▁제목	-10.2845
▁신중	-10.2847
▁비판	-10.2847
머니	-10.2847
▁쉬는	-10.2848
▁내년	-10.2849
▁지난번에	-10.2857
▁채워	-10.2859
▁대형	-10.2863
▁결과는	-10.2866
▁가보	-10.287
해지고	-10.287
▁300	-10.287
▁궁금	-10.2873
▁내에서	-10.2888
▁대상으로	-10.289
▁궁금해	-10.2893
▁독특한	-10.2902
▁아름다움	-10.2902
▁우체국	-10.2902
▁명령	-10.291
▁함유	-10.2911
▁사기	-10.2911
▁아동	-10.2912
▁운임	-10.2913
▁연락처	-10.2914
▁관세	-10.292
입니데이	-10.2921
▁대처	-10.2922
▁원한다면	-10.2931
구요	-10.2932
▁폭력	-10.2933
▁알려져	-10.2933
▁원본	-10.2935
▁공장에서	-10.2937
▁중국의	-10.2941
▁감상	-10.2942
▁한국과	-10.2945
▁상태를	-10.2947
▁나라에	-10.2948
▁계획이	-10.2961
▁미소	-10.2974
▁물이	-10.2977
▁정해	-10.298
▁해소	-10.298
▁방문할	-10.2981
▁너도	-10.2982
▁열어	-10.2985
▁어렵다	-10.2987
▁지가	-10.2997
▁컨펌	-10.2998
▁눌러	-10.2998
능력	-10.2999
▁승객	-10.3
▁철저	-10.3003
▁도와줄	-10.3005
▁시선	-10.3005
▁산책	-10.3005
▁교류	-10.3007
▁입원	-10.3007
▁유효	-10.3008
▁이른	-10.301
▁나랑	-10.3014
섬	-10.3014
▁확대	-10.3014
▁받으면	-10.3023
▁키워	-10.3026
겁니더	-10.3028
▁거대	-10.303
▁이웃	-10.3032
주시면	-10.3033
▁뉴	-10.3042
▁여러분들	-10.3051
▁샘플은	-10.3055
▁있니	-10.3056
▁기억이	-10.3058
▁못합니다	-10.3059
어진	-10.306
▁식으로	-10.3062
▁대신에	-10.3064
▁영감	-10.3069
스의	-10.3072
▁샤	-10.3073
▁공부하고	-10.3076
▁분이	-10.3079
버스	-10.3082
자들에게	-10.3083
▁보니까	-10.3086
싼	-10.3089
옵니다	-10.3089
▁돈으로	-10.309
▁이틀	-10.3093
겹	-10.3094
봤습니다	-10.3094
룩	-10.3094
돋	-10.3095
+	-10.3095
윈	-10.3095
▁일어난	-10.3095
▁적당량	-10.3095
위원회	-10.3095
▁런던	-10.3096
▁있으신가요	-10.3096
지역	-10.3096
▁취득	-10.3098
하였으며	-10.3099
▁야채	-10.3101
▁승무원	-10.3101
못	-10.3102
▁욕구	-10.3104
▁건강에	-10.3105
▁계단	-10.3111
시설	-10.3111
▁핵	-10.3113
▁봤는데	-10.3114
달라고	-10.3115
▁하나로	-10.3119
으려고	-10.3122
▁불법	-10.3123
▁재미있는	-10.314
▁공동	-10.3144
▁차단	-10.3149
▁주식	-10.3155
▁살았	-10.3157
▁봤을	-10.3158
▁자산	-10.3164
▁빙	-10.3166
▁줘	-10.317
▁가시	-10.3173
▁집이	-10.3174
▁뿐이	-10.3184
▁아니다	-10.3186
▁빌리	-10.319
랩	-10.3193
셋	-10.3193
▁즐거움	-10.3193
▁할아버지	-10.3193
혔	-10.3193
▁확률	-10.3194
▁소셜	-10.3196
▁파괴	-10.3198
▁우승	-10.3199
▁취급	-10.3202
▁다릅니다	-10.3206
▁알지	-10.3213
▁로그인	-10.3214
▁자격	-10.3216
서비스	-10.3221
▁불리는	-10.3223
▁있데이	-10.3224
▁추적	-10.3237
었다고	-10.3238
시기	-10.3238
▁켜	-10.3239
▁아이들에게	-10.324
▁대금	-10.3247
▁딴	-10.325
해주이소	-10.325
▁똑같이	-10.3254
▁시작한	-10.3256
▁작년에	-10.3269
▁흑	-10.327
▁말했	-10.3273
▁폰	-10.3273
▁미니	-10.3279
버린	-10.3286
▁위에서	-10.3287
황	-10.3291
▁프로모션	-10.3292
▁바뀌었	-10.3292
▁피아노	-10.3292
80	-10.3295
▁점검	-10.3295
▁되도록	-10.33
▁조금씩	-10.3301
▁못해요	-10.3303
▁창문	-10.3303
분들	-10.3308
▁콘	-10.3309
▁그런지	-10.331
▁변동	-10.3314
▁수단	-10.3314
▁지금도	-10.3316
▁오기	-10.3318
▁싶다고	-10.3329
대회	-10.3332
▁집안	-10.3334
만이	-10.3335
▁동네	-10.3335
▁것인가	-10.3338
▁이때	-10.3339
▁내용에	-10.3342
▁표정	-10.3344
▁사정	-10.3348
▁뿐	-10.3355
▁머리가	-10.3359
▁십	-10.3362
▁관점	-10.3363
개발	-10.3365
▁시간과	-10.3368
▁배가	-10.337
▁도로	-10.3375
CC	-10.3383
▁얻은	-10.3386
▁보여주고	-10.3386
▁오르	-10.3386
▁하다	-10.3387
졸	-10.3392
▁업로드	-10.3392
▁촉촉	-10.3392
▁ABC	-10.3392
▁기쁨	-10.3393
PS	-10.3394
▁다섯	-10.3394
▁체결	-10.3397
▁가려고	-10.3398
▁100%	-10.3401
프로	-10.341
▁채용	-10.3412
▁헤드	-10.3415
나가는	-10.3416
프트	-10.3416
▁왔어요	-10.3417
렸다	-10.3418
살이	-10.3421
라스	-10.3425
▁주소로	-10.3431
▁만나기	-10.3432
▁단위	-10.3433
▁유학	-10.3434
▁엄	-10.344
▁초점	-10.3449
▁덕	-10.3454
▁파는	-10.3455
▁뒤로	-10.3456
▁그린	-10.3456
단계	-10.3456
▁심각	-10.3463
▁매주	-10.3466
닐	-10.3467
▁너랑	-10.3468
▁왔다	-10.347
주면	-10.3471
▁판매하는	-10.3478
▁29	-10.3484
▁중요성	-10.3484
▁음식점	-10.3485
칩	-10.349
했으니	-10.349
듬	-10.3491
▁대중교통	-10.3493
▁솔루션	-10.3493
▁인도네시아	-10.3493
벼	-10.3493
▁환승	-10.3494
▁블록	-10.3495
▁태양	-10.3499
▁자라	-10.3499
▁말도	-10.3499
▁출연	-10.3501
▁사용하기	-10.3503
▁예약이	-10.3505
▁학과	-10.3506
▁메모	-10.3506
시쯤	-10.3508
겠지	-10.3511
19	-10.3514
▁전원	-10.3514
▁들었는데	-10.3516
▁소매	-10.3524
ir	-10.3526
▁효과적인	-10.3526
솔	-10.3527
총	-10.3527
모델	-10.353
▁같았	-10.3533
▁생각해보	-10.3535
▁26	-10.3536
▁바라요	-10.354
▁누르	-10.3545
▁가구	-10.3545
▁청구서	-10.3546
▁확인을	-10.3554
▁보였	-10.3559
▁승리	-10.3566
▁도면	-10.3566
▁기원	-10.3566
▁나면	-10.3567
▁믿을	-10.3568
해지는	-10.3569
선수	-10.3574
▁서울에	-10.3575
▁이번에는	-10.358
▁에이전트	-10.3595
더라고요	-10.3596
▁안녕	-10.3596
▁때때로	-10.3596
▁특허	-10.3596
▁가르치	-10.3596
▁일할	-10.36
▁성취	-10.3601
▁사라지	-10.3603
▁커플	-10.3606
▁않는다고	-10.3611
▁연속	-10.3616
▁보내주실	-10.362
▁외모	-10.3621
▁전반적	-10.3622
▁인류	-10.3622
되면서	-10.3622
윤	-10.3626
▁중단	-10.3627
▁매체	-10.3629
둘	-10.3631
▁털	-10.3644
▁지배	-10.3645
▁징	-10.3647
▁해보고	-10.3652
▁봐야	-10.3657
▁손해	-10.3657
▁무엇입니	-10.3659
▁199	-10.366
▁요청하신	-10.3663
▁마주	-10.3664
▁이처럼	-10.3668
▁“	-10.3674
▁정말로	-10.3678
100	-10.3683
▁정식	-10.3689
▁허리	-10.369
▁빡	-10.3695
▁인생을	-10.3697
탱	-10.3698
터미널	-10.3698
▁도쿄	-10.3698
▁택배	-10.3698
▁의미합니다	-10.3698
▁배터리	-10.3698
▁편의점	-10.3699
▁경향이	-10.3699
▁특이	-10.3701
▁불가능한	-10.3701
▁연락해	-10.3703
▁세대	-10.3708
▁되었어	-10.3714
겠죠	-10.3717
▁기본적으로	-10.3718
▁소설	-10.3725
▁알려주실	-10.3725
해주셔서	-10.3726
▁이해하기	-10.3726
▁얻는	-10.3727
▁추진	-10.3727
OT	-10.3728
▁것이다	-10.3731
▁합의	-10.3736
기관	-10.3738
▁청년	-10.3739
▁지어	-10.3747
▁화장	-10.3748
▁원하지	-10.3751
▁탑	-10.3752
이었고	-10.3757
▁있기를	-10.3759
▁되는데	-10.3763
▁생각엔	-10.3764
▁신용	-10.3772
▁마음으로	-10.3777
▁다행이	-10.3789
▁맞다	-10.379
▁주차	-10.3801
▁배웠습니다	-10.3802
▁엘리베이터	-10.3802
▁텔레비전	-10.3802
▁을매나	-10.3802
해주시고	-10.3804
▁노력하는	-10.3807
▁필터	-10.3809
▁행운	-10.381
▁최신	-10.3817
▁다운	-10.382
▁보내드립니다	-10.382
▁누구보다	-10.3826
▁스키	-10.3826
졌어요	-10.3826
AR	-10.3838
▁대학교에	-10.3841
받았	-10.3847
▁메이	-10.3848
특	-10.3849
▁블	-10.385
환경	-10.3853
▁믿고	-10.3856
▁시민	-10.3856
▁보게	-10.3859
했으며	-10.3868
▁살아가	-10.3868
▁남들	-10.3871
▁쿠	-10.3877
활	-10.3881
▁고유	-10.3882
했었는데	-10.3884
▁하므로	-10.3893
▁만에	-10.3894
▁바보	-10.3894
▁다니고	-10.3898
▁상품은	-10.3899
▁수업이	-10.3902
▁뛰	-10.3904
빅	-10.3908
빗	-10.3908
뼈	-10.3908
펀	-10.3908
▁스크린	-10.3908
▁하하하	-10.3908
▁시리즈	-10.3908
▁유아	-10.3909
▁연휴	-10.3909
▁하자	-10.3911
▁깨달	-10.3913
▁나옵니다	-10.3917
▁살짝	-10.3917
▁먹지	-10.3918
▁실천	-10.3919
▁하나가	-10.3923
▁에어	-10.3924
▁죄	-10.3928
머리	-10.3932
▁전용	-10.3932
▁특수	-10.3935
▁상태에서	-10.3938
라믄	-10.3938
▁괜찮은	-10.3946
▁제도	-10.395
보기	-10.3951
몰	-10.3952
▁그렇지만	-10.3952
엄	-10.3954
넘	-10.3956
▁알려진	-10.3956
▁우정	-10.3967
된다고	-10.3968
▁지하	-10.3969
▁수영장	-10.3976
되었어요	-10.3977
였던	-10.3978
▁말이야	-10.3984
월부터	-10.3988
▁체력	-10.3993
끔	-10.4002
▁가지는	-10.4006
▁기존에	-10.4007
뱅	-10.4014
▁싱가포르	-10.4014
▁줄어들	-10.4014
▁에어컨	-10.4015
▁일상생활	-10.4015
▁됐어요	-10.4016
▁설득	-10.4016
▁구멍	-10.4016
▁생존	-10.4016
▁법률	-10.4018
▁어른	-10.402
▁위협	-10.4021
ᄏᄏᄏ	-10.4023
▁찌	-10.4027
▁않는다는	-10.403
▁간편	-10.403
▁묵고	-10.4032
▁드릴게요	-10.4034
▁언	-10.4036
▁세팅	-10.4039
▁참고로	-10.404
되었으면	-10.4042
끼다	-10.4044
해드리겠습니다	-10.4044
죽	-10.4048
▁한데	-10.4049
▁자본	-10.4052
▁환경에	-10.4055
벽	-10.4059
▁상관없이	-10.4062
▁제공하고	-10.4062
징	-10.4063
▁명시	-10.4065
▁개별	-10.4068
▁가기로	-10.4072
▁회화	-10.4072
▁지역에	-10.408
공원	-10.4084
▁알아보고	-10.4098
▁사인	-10.4104
▁했었	-10.4114
▁외에도	-10.4116
▁가지게	-10.4117
▁중심으로	-10.4119
왔던	-10.4119
캡	-10.4121
ᄒ	-10.4121
▁깊었	-10.4122
▁아프리카	-10.4122
▁칭찬	-10.4122
▁목적으로	-10.4122
▁다행히	-10.4122
되어서	-10.4122
▁타인	-10.4122
▁리뷰	-10.4123
▁향후	-10.4127
야겠다	-10.4131
▁연구는	-10.4133
▁맞나요	-10.4136
▁혼자서	-10.4139
▁좋아해서	-10.4141
▁믿어	-10.4143
▁f	-10.4153
▁소리가	-10.4153
▁들은	-10.4155
▁드리고	-10.4161
▁일주일에	-10.417
▁많아요	-10.4178
▁반대로	-10.4188
▁IP	-10.4191
▁추천합니다	-10.4197
▁경쟁력	-10.4203
▁물에	-10.4204
▁잡지	-10.4205
▁정당	-10.421
▁부모님께	-10.4214
▁세우	-10.4215
▁좋아해	-10.4216
십니까	-10.4217
▁역사를	-10.4217
▁실수로	-10.4218
▁여겨	-10.4221
▁일입니다	-10.4224
▁떡볶이	-10.423
▁애니메이션	-10.423
삐	-10.423
▁검은색	-10.423
▁블루	-10.4232
▁이해해	-10.4233
▁그다음	-10.4234
▁출판	-10.4237
▁아니에요	-10.4238
▁어울리는	-10.4238
▁다닐	-10.4242
▁떡	-10.4243
▁개봉	-10.4243
▁칸	-10.4243
▁무기	-10.4251
▁줄여	-10.4252
▁맞추어	-10.4257
▁행정	-10.4259
▁주어진	-10.4259
▁w	-10.426
▁쓰여	-10.4264
▁삶에	-10.4265
▁불행	-10.4269
▁대량	-10.4273
▁날에	-10.4275
▁방이	-10.428
리스트	-10.428
달라	-10.4286
털	-10.4288
벤	-10.4288
빵	-10.4288
▁교수	-10.4291
보단	-10.4293
▁일자리	-10.4294
▁알려줘	-10.4296
▁인력	-10.4296
us	-10.4304
음에도	-10.4307
▁더는	-10.4311
시나요	-10.4311
학자	-10.4316
▁용어	-10.4333
▁일정에	-10.4336
켜	-10.4338
빔	-10.434
▁여동생	-10.434
▁다운로드	-10.434
▁리포트	-10.434
▁장난	-10.434
▁흘러	-10.434
▁감사합니데이	-10.4346
▁연극	-10.4348
▁나이가	-10.4349
km	-10.4351
▁지난주에	-10.4353
하라	-10.4354
▁위기	-10.4356
▁않았지만	-10.4363
▁보습	-10.4368
▁있을까예	-10.4372
▁점수를	-10.4374
▁지나가	-10.4374
기업	-10.4377
▁진행해	-10.4383
▁않았고	-10.4384
▁늘어	-10.4387
▁학생들에게	-10.439
▁원해요	-10.4393
▁감자	-10.4397
빌	-10.4401
느라	-10.4402
또	-10.4402
팬	-10.4402
할라꼬	-10.4404
활동	-10.4406
▁콩	-10.4407
▁소금	-10.4411
▁책상	-10.4416
▁엄마는	-10.4418
▁발음	-10.4424
▁풍부	-10.4426
▁창업	-10.4428
▁일본어	-10.4429
▁하시는	-10.4432
용품	-10.4433
▁가공	-10.4441
▁승무원이	-10.4444
흘	-10.4448
픽	-10.445
멘	-10.4451
▁멋지	-10.4451
▁슨생님	-10.4451
듀	-10.4451
▁백화점	-10.4451
▁태어나	-10.4451
▁바쁜	-10.4457
▁도망	-10.4458
▁민감	-10.446
▁도착하면	-10.4461
▁도중	-10.4465
▁요약	-10.4466
▁정해진	-10.4467
▁없나요	-10.4467
▁연출	-10.4468
▁이끌	-10.4476
▁의미가	-10.4477
▁느낀	-10.4477
▁여기는	-10.4478
▁휴일	-10.4478
▁희	-10.448
스턴	-10.4481
▁겸	-10.4484
▁기기	-10.4489
▁있으니까	-10.4489
▁행동이	-10.4491
▁찾았	-10.4493
500	-10.4495
▁임시	-10.4496
▁재산	-10.45
▁다름	-10.4503
▁그러니	-10.4504
▁IS	-10.4504
▁않았을	-10.4504
▁느끼게	-10.4505
▁긴급	-10.4506
▁내년에	-10.4512
▁없음	-10.4515
▁주문할	-10.4516
▁사람도	-10.4517
▁나만	-10.4519
봄	-10.4521
▁목적지	-10.4522
▁들려	-10.4526
▁어디로	-10.4526
▁이민	-10.4527
럴	-10.4527
하시나요	-10.4534
▁45	-10.4537
▁프로그램에	-10.4549
▁손에	-10.4554
▁상기	-10.4555
▁에이	-10.4559
▁최소한	-10.4561
▁남기	-10.4563
튜	-10.4563
띠	-10.4564
짱	-10.4564
덩	-10.4564
▁뿌듯	-10.4564
▁첨부파일	-10.4564
▁압력	-10.4565
ad	-10.4566
▁멀	-10.4567
▁레벨	-10.4567
▁무조건	-10.4567
▁같십니더	-10.4568
AP	-10.4569
▁송부	-10.4575
주시겠습니까	-10.4575
▁외출	-10.4577
▁보내기	-10.4577
▁받았다	-10.4578
▁편견	-10.4579
▁자식	-10.458
▁테러	-10.4584
▁공감	-10.4585
▁같지	-10.4586
▁문서를	-10.4586
▁포함된	-10.4589
▁고향	-10.4592
▁임대	-10.4592
▁보유하고	-10.4594
▁$1	-10.4596
되어있는	-10.4598
te	-10.4602
▁애들	-10.4602
▁그러니까	-10.4602
▁안나	-10.4604
▁인재	-10.4604
▁중국에서	-10.4607
▁이루기	-10.4609
▁싫어하는	-10.461
▁해당하는	-10.4611
주신	-10.4613
MP	-10.4628
딱	-10.4633
▁시스템에	-10.4643
▁하던	-10.4643
▁맞이	-10.4649
▁시스템은	-10.4651
40	-10.4656
쁜	-10.466
▁이래	-10.4667
▁제기	-10.4668
해주시	-10.4673
▁전달해	-10.4674
멸	-10.4677
▁깊게	-10.4677
▁밖으로	-10.4677
쉴	-10.4677
흙	-10.4677
▁멈추	-10.4677
▁화이트	-10.4679
년부터	-10.4682
▁프레임	-10.4683
▁골프	-10.4685
▁보완	-10.4688
▁급여	-10.4689
▁길거리	-10.469
▁농구	-10.4692
뿐이에요	-10.4693
▁전문점	-10.4698
▁경계	-10.4701
15	-10.4702
▁위반	-10.4702
▁묵을	-10.4704
▁상태가	-10.4707
▁신속	-10.4708
sh	-10.4709
▁겨울에	-10.4712
▁행복해	-10.4719
▁보유	-10.472
▁시청자	-10.4725
▁소문	-10.4725
▁베이	-10.4732
학교	-10.4736
▁궁금하	-10.4737
▁법적	-10.4737
▁우려	-10.4737
▁없게	-10.4744
▁내야	-10.4746
겁	-10.4748
옷	-10.4751
▁중국인	-10.4754
▁차이점	-10.4755
▁싶어예	-10.4757
▁ᅲᅲ	-10.476
하이소	-10.476
▁사진으로	-10.4767
그래	-10.4777
▁경력	-10.478
되었다고	-10.4785
▁주시고	-10.4785
▁간식	-10.4787
▁구매한	-10.4792
붕	-10.4792
▁매뉴얼	-10.4792
갓	-10.4792
▁태권도	-10.4792
▁모른다	-10.4794
▁2018	-10.4795
▁보내주시기	-10.4797
▁추후	-10.4799
▁월급	-10.4799
▁x	-10.4801
▁보존	-10.4802
▁젖	-10.4804
평가	-10.4804
▁세워	-10.4807
▁조합	-10.4807
시죠	-10.4807
▁같데이	-10.4809
거같	-10.4809
하십니까	-10.4813
▁콜라	-10.4817
▁안전한	-10.4819
으예	-10.4823
▁흑인	-10.4824
▁주방	-10.4825
70	-10.4826
▁매운	-10.4827
▁전체적으로	-10.4829
거래	-10.4831
▁상점	-10.4842
▁변화가	-10.4846
▁입국	-10.4849
▁해주는	-10.4856
▁손으로	-10.4857
▁장점은	-10.4859
셀	-10.4865
▁넘는	-10.487
겠네요	-10.487
▁지진	-10.4872
▁할까요	-10.4872
▁숲	-10.4878
▁깨끗한	-10.4879
▁역량	-10.4879
▁적절	-10.4884
있는데	-10.4887
드릴까요	-10.4888
▁요즘은	-10.489
▁순서	-10.4891
▁깔끔	-10.4895
▁들어왔	-10.4902
옵	-10.4906
ur	-10.4907
묘	-10.4908
▁똑똑	-10.4908
▁말레이시아	-10.4908
▁애완동물	-10.4908
▁펌웨어	-10.4908
▁프린트	-10.4908
▁로봇	-10.4909
▁환영	-10.4912
▁뿌리	-10.4912
▁포스터	-10.4914
▁야외	-10.4919
▁과자	-10.4922
▁이해하는	-10.4922
▁시골	-10.4924
▁독자	-10.4927
▁예상됩니다	-10.4931
▁받습니다	-10.4933
▁OS	-10.4933
▁책임이	-10.4934
▁미친	-10.4934
▁배출	-10.4935
▁현상이	-10.4941
▁뿐입니다	-10.4942
▁있었지만	-10.4944
▁구성되어	-10.4951
▁인생에서	-10.4956
▁영향력	-10.4965
▁준비하고	-10.4965
▁예시	-10.4967
자료	-10.4978
▁거리에	-10.4983
▁싶기	-10.4983
▁조명	-10.4988
▁시스템이	-10.4989
▁장점이	-10.4993
▁않다고	-10.5
▁얻었	-10.5
▁친구들에게	-10.5003
▁드시	-10.5003
▁어려움이	-10.5006
계약	-10.5007
im	-10.501
▁커뮤니케이션	-10.5026
믹	-10.5026
▁라디오	-10.5026
▁나타났	-10.5026
▁후보	-10.5028
▁다소	-10.503
▁알려드리겠습니다	-10.5031
▁취향	-10.5031
▁투표	-10.5033
▁한정	-10.5038
▁창조	-10.504
▁계란	-10.5041
▁모임	-10.5042
▁곳입니다	-10.5045
▁야간	-10.5049
거에요	-10.5053
▁생선	-10.5053
▁들어갈	-10.5055
▁시트	-10.5056
▁안내해	-10.5056
▁진단	-10.5057
▁말하지	-10.5068
▁정치적	-10.507
▁거쳐	-10.5089
▁재물	-10.509
▁맞는지	-10.5095
▁시키	-10.5098
▁먹기	-10.5105
▁재정	-10.5106
하노	-10.511
▁걸렸	-10.5117
▁들어가는	-10.5118
▁사람입니다	-10.5122
▁제발	-10.5124
▁필수적	-10.5127
▁곰	-10.5128
델	-10.5137
▁고대	-10.5139
럭	-10.5144
텍	-10.5145
▁인스타그램	-10.5145
뇨	-10.5145
렁	-10.5145
샵	-10.5145
옹	-10.5145
잎	-10.5145
▁파란색	-10.5145
▁두려워	-10.5145
▁흔히	-10.5146
▁중간고사	-10.5146
▁사람으로	-10.5146
▁입사	-10.5147
▁환율	-10.5147
▁빌딩	-10.5147
▁기다릴	-10.5149
▁납기	-10.515
▁컴	-10.5151
하네	-10.5152
▁감성	-10.5152
▁파손	-10.5153
▁부분에서	-10.5153
▁도달	-10.5158
▁모르지만	-10.5161
▁애플	-10.5162
▁지났	-10.5163
▁신나	-10.5173
검사	-10.5173
▁있죠	-10.5175
겐	-10.5177
▁박사	-10.5178
해주기	-10.5178
▁생겨서	-10.5181
▁로비	-10.5183
▁보시면	-10.5187
▁살아가는	-10.519
▁준비할	-10.519
▁의문	-10.5196
▁골라	-10.52
▁팀원들	-10.5206
▁소화	-10.5208
해주면	-10.5211
▁문구	-10.5212
▁굽	-10.5218
인디	-10.5218
셨어요	-10.5221
▁만들어서	-10.5226
▁불편하	-10.5235
J	-10.5236
▁사이트에서	-10.5244
▁의상	-10.5247
▁뛰어나	-10.5251
하신다면	-10.5252
말고	-10.5255
▁않겠	-10.5257
▁예약한	-10.526
해준다	-10.5261
▁사물	-10.5262
으신	-10.5263
크림	-10.5264
▁보여줄	-10.5265
▁잊어	-10.5266
▁기독교	-10.5266
꼽	-10.5266
▁디즈니	-10.5266
▁드디어	-10.5266
▁차라리	-10.5266
▁가까워	-10.5266
▁빨간색	-10.5267
▁전부터	-10.5269
▁나가서	-10.5269
▁들어가서	-10.527
▁아이돌	-10.5274
▁남녀	-10.5275
▁결심	-10.5277
▁걸립니다	-10.5278
▁무엇	-10.5278
▁용서	-10.5279
▁추구	-10.5284
▁걸리는	-10.5287
▁출신	-10.5287
▁복용	-10.5287
▁나오지	-10.5288
▁가격과	-10.5291
▁정원	-10.5294
▁프로젝트에	-10.5294
▁예매	-10.5295
▁추정	-10.5308
▁엄청나	-10.5315
▁연인	-10.5319
▁등급	-10.532
▁주름	-10.5323
TS	-10.5323
▁물어봐	-10.5326
▁유발	-10.5327
▁허가	-10.5328
▁사전에	-10.5329
▁맛있게	-10.5332
▁쭉	-10.5332
▁읽는	-10.5347
▁판매하고	-10.535
▁가져가	-10.5352
▁진로	-10.5355
to	-10.5358
▁일요일에	-10.5364
하셨습니다	-10.5372
브라	-10.5377
흡	-10.5385
▁스테이크	-10.5388
겟	-10.5388
놈	-10.5388
▁롯데	-10.5388
▁깨닫	-10.5388
▁가능할까요	-10.539
▁의존	-10.5394
▁추석	-10.5398
▁실현	-10.5399
▁장난감	-10.5406
▁진료	-10.5407
다아이가	-10.5408
▁관광객	-10.541
▁바라며	-10.5411
▁매달	-10.5411
▁불편함	-10.5413
▁강도	-10.5415
▁장르	-10.5417
돼서	-10.5418
ap	-10.5418
▁마치고	-10.542
▁오른쪽으로	-10.542
▁열린	-10.5422
▁사항은	-10.5422
▁주택	-10.5425
▁통보	-10.5426
▁말해주	-10.5428
▁이루어진	-10.543
물질	-10.5433
학기	-10.5435
▁상관	-10.5436
▁여행자	-10.5436
▁놓치	-10.5437
쳐서	-10.5439
▁당신한테	-10.5444
▁다수	-10.5444
▁화제	-10.5445
▁받아들이	-10.5451
되었던	-10.5452
▁귀사에서	-10.5454
▁강제	-10.5459
▁관점에서	-10.5464
하였는데	-10.5471
▁싶지만	-10.5472
사진	-10.5473
▁아니라고	-10.5474
▁침해	-10.5475
므로	-10.548
▁손님들	-10.5481
lo	-10.5482
▁크고	-10.549
떨	-10.5491
▁살인	-10.5492
▁무엇인가	-10.5498
▁대리	-10.55
▁돌아왔	-10.5501
▁구할	-10.5503
륙	-10.551
캠	-10.5511
냄	-10.5511
▁그렇군요	-10.5511
▁액세서리	-10.5511
놨	-10.5511
잭	-10.5511
잼	-10.5511
톰	-10.5511
▁마침내	-10.5511
▁우연히	-10.5511
▁유치원	-10.5511
▁압박	-10.5511
▁떨어진	-10.5512
▁xx	-10.5512
▁끝났	-10.5514
▁드린	-10.5515
▁파스타	-10.5517
▁검증	-10.552
▁성향	-10.552
▁사용됩니다	-10.5521
▁얼음	-10.5527
▁싶데이	-10.553
▁니한테	-10.5532
으므로	-10.5537
▁다가오	-10.5538
▁가는데	-10.5539
▁졸업식	-10.5539
문제	-10.5546
▁확실한	-10.5547
▁예술가	-10.5548
▁재생	-10.5549
니께	-10.5549
▁그러고	-10.5553
▁손실	-10.5558
▁없었어	-10.5569
▁밖에서	-10.5575
▁지난주	-10.5577
▁얻어	-10.5579
???	-10.5584
▁쌀	-10.5587
▁사용하면	-10.5588
me	-10.5595
▁갖추	-10.5602
콘	-10.5612
▁문제없	-10.5615
잘	-10.5616
▁진심	-10.5619
▁얻고	-10.5626
▁관리자	-10.5628
▁자신들	-10.5631
템	-10.5634
▁깁니더	-10.5636
▁많기	-10.5636
▁카테고리	-10.5636
쿤	-10.5636
▁두려움	-10.5636
▁일어날	-10.5636
▁죄송한데	-10.5637
▁그래픽	-10.5638
▁스킨	-10.5644
▁누락	-10.5645
▁기간에	-10.5653
▁설비	-10.5655
▁친구들이랑	-10.5659
먼트	-10.5664
▁버튼	-10.5665
했으나	-10.5669
▁회전	-10.5669
▁로마	-10.5671
▁앉아서	-10.5672
마리	-10.5674
▁조회	-10.5683
▁분야에	-10.5686
▁권력	-10.5687
▁살면서	-10.5692
▁끈	-10.5692
▁이름으로	-10.5694
▁아파	-10.5695
▁요금이	-10.5695
▁말하기	-10.5699
▁구체적으로	-10.5707
▁무엇보다	-10.5708
▁시작하는	-10.5712
▁마법	-10.5714
▁복잡한	-10.5716
▁제품입니다	-10.5718
▁착한	-10.5727
25	-10.5729
▁조리	-10.5731
넣	-10.5742
핀	-10.5745
▁환불해	-10.5748
뚝	-10.5763
▁납품	-10.5763
▁낭비	-10.5763
▁좌우	-10.5763
▁물고기	-10.5768
주시고	-10.5768
▁원칙	-10.5771
▁갈아	-10.5772
▁찍고	-10.5772
▁측면에서	-10.578
▁없는지	-10.5784
았어	-10.5792
▁보자	-10.5794
세계	-10.5794
▁파워	-10.5795
▁성형	-10.5795
▁찍는	-10.5796
▁부부	-10.5798
▁보수	-10.58
▁슈	-10.5803
▁증명서	-10.5803
▁이쁘	-10.5804
했는디	-10.5809
▁믿는	-10.5812
▁명세	-10.5813
▁풍부한	-10.5814
▁부인	-10.5814
하오니	-10.5817
▁가려	-10.5821
웃	-10.5821
▁기다리는	-10.5824
▁보드	-10.5826
▁사회에서	-10.5834
▁통일	-10.5837
▁일치	-10.5845
▁구워	-10.5859
▁이것들	-10.5863
▁알려준	-10.5869
▁친구랑	-10.5872
떡	-10.5875
▁겁	-10.5875
빨	-10.5882
▁과거에	-10.5884
렴	-10.5884
▁될지	-10.5889
엉	-10.5891
곱	-10.5891
롬	-10.5891
▁옮겨	-10.5891
▁싱글	-10.5891
▁프로세스	-10.5891
▁무릎	-10.5891
▁리더십	-10.5892
▁처벌	-10.5893
▁짜증	-10.5895
레이션	-10.5897
▁무척	-10.59
▁통증	-10.5905
▁서울에서	-10.5906
▁중점	-10.5915
코드	-10.5917
▁부스	-10.5926
▁노력하겠습니다	-10.5928
겠습니까	-10.5928
▁인권	-10.5932
▁매번	-10.5934
이었던	-10.5947
▁복지	-10.5955
▁사양	-10.5969
▁크리스	-10.5971
칩니다	-10.5973
있어요	-10.5974
▁끄	-10.5976
겠십니더	-10.5976
▁어떠	-10.5978
두고	-10.5984
▁선거	-10.5993
▁가능하다	-10.5997
▁주제로	-10.6
▁가보고	-10.6003
끈	-10.6009
un	-10.601
▁살기	-10.6011
AN	-10.6011
▁로그	-10.6015
▁그녀와	-10.6017
▁밝혀	-10.6021
턱	-10.6021
▁가벼운	-10.6021
▁스트리머	-10.6021
▁휴대전화	-10.6021
▁교통사고	-10.6021
▁적당한	-10.6021
▁노트북	-10.6021
▁귀엽	-10.6022
▁프로필	-10.6023
▁학업	-10.6029
였고	-10.6032
▁취직	-10.6033
▁않나요	-10.6036
▁그쪽	-10.6036
▁도서	-10.604
▁철학	-10.6043
▁학부	-10.6048
▁먹방	-10.6048
▁교실	-10.6052
▁찬성	-10.6052
▁요구하는	-10.6055
▁인정받	-10.6056
▁알겠습니다	-10.6059
▁소속	-10.6059
▁니랑	-10.6063
▁고객들에게	-10.6069
겠다는	-10.6073
▁제주	-10.6075
▁31	-10.6078
▁변수	-10.6082
▁목표로	-10.6085
해줬	-10.6087
사업	-10.61
th	-10.6108
▁발생하지	-10.6108
▁시대에	-10.6111
▁가시면	-10.6119
▁신부	-10.6119
▁들여	-10.6121
▁이끌어	-10.6132
▁수요일에	-10.6138
▁강력	-10.6138
▁인해서	-10.6138
였다	-10.6145
헤	-10.6148
▁단순한	-10.6148
nd	-10.6149
읍	-10.615
▁갔었	-10.6152
햄	-10.6152
▁커뮤니티	-10.6152
▁평범한	-10.6152
▁리조트	-10.6152
▁플라스틱	-10.6152
▁밴드	-10.6153
파운드	-10.6153
▁영웅	-10.6153
▁민족	-10.6156
주십시오	-10.6158
▁응급	-10.6159
▁절약	-10.616
▁출석	-10.616
▁동화	-10.6161
▁알지만	-10.6162
▁땀	-10.6169
▁보충	-10.6169
▁문화적	-10.617
▁번씩	-10.6173
▁구현	-10.6174
▁알기	-10.6175
돼요	-10.6181
▁않았기	-10.6185
▁패드	-10.6185
▁기후	-10.6188
▁장애인	-10.6193
▁탄력	-10.6194
▁실시간	-10.6196
합시다	-10.6202
▁희망합니다	-10.6204
▁생기면	-10.6204
보드	-10.6206
놀이	-10.621
▁처음부터	-10.6214
▁사랑하고	-10.6216
▁내려가	-10.6218
정책	-10.6224
▁못했던	-10.6231
됐다	-10.6232
▁하더라도	-10.6234
▁오일	-10.6234
▁유사	-10.6245
▁문화와	-10.6257
▁바닥에	-10.6258
라이트	-10.6261
▁상해	-10.6263
어질	-10.6268
▁걸어가	-10.6275
잠	-10.6282
▁프레	-10.6282
졌어	-10.6285
밴	-10.6285
닙	-10.6286
▁샐러드	-10.6286
▁태어났	-10.6286
썰	-10.6286
탔	-10.6286
틸	-10.6286
▁댓글	-10.6286
▁비밀번호	-10.6287
▁호흡	-10.6288
▁당황	-10.6288
▁바꾸고	-10.631
▁있으신	-10.6313
▁건축물	-10.6315
▁사용해요	-10.6315
▁문법	-10.6319
쳤습니다	-10.6319
받았습니다	-10.6319
as	-10.6323
▁재밌게	-10.6327
▁아니예	-10.6334
▁보증	-10.6336
보내	-10.6338
▁사용해야	-10.6342
▁고소	-10.6343
았는데	-10.635
▁지는	-10.6358
시대	-10.6359
18	-10.636
75	-10.6362
▁복사	-10.6367
▁시일	-10.6371
▁여성들	-10.6383
아니	-10.6385
▁조화	-10.6396
▁한편	-10.6396
▁나오면	-10.6404
▁도착해서	-10.6408
산업	-10.6411
▁어울리	-10.6412
▁대구	-10.6413
셜	-10.6416
렵	-10.6417
▁팀원	-10.6418
▁캘리포니아	-10.6421
▁큽니다	-10.6421
▁프린터	-10.6421
푹	-10.6421
▁셋째	-10.6421
▁브라질	-10.6421
춤	-10.6421
▁챙기	-10.6422
▁스캔	-10.6422
▁용돈	-10.6424
▁교복	-10.6429
▁탄생	-10.643
▁알려드립니다	-10.6431
▁데리고	-10.6437
▁올릴	-10.6437
▁환상	-10.6445
▁그만큼	-10.6445
▁쏘	-10.6446
▁모르겠습니다	-10.6448
▁내부적으로	-10.6449
▁"""	-10.6454
▁리그	-10.6456
▁법인	-10.646
▁알아봐	-10.6461
▁쉬고	-10.6462
▁한잔	-10.6464
▁보석	-10.6475
오니	-10.6478
▁날아	-10.6483
▁포함해서	-10.6489
▁제약	-10.6491
99	-10.6496
▁맵	-10.6519
▁부상	-10.6519
▁마크	-10.6523
▁목요일에	-10.6543
▁안쪽	-10.655
천원	-10.6551
▁둘러	-10.6553
▁드렸	-10.6554
▁눈물	-10.6556
공간	-10.6557
앗	-10.6557
▁제공해요	-10.6557
햇	-10.6558
넥	-10.6558
▁엑셀	-10.6558
▁펼쳐	-10.6558
팁	-10.6558
▁ᄒᄒ	-10.6558
▁에이전시	-10.6558
드렸	-10.6559
▁영혼	-10.656
하였으나	-10.656
▁답답	-10.656
▁엄격	-10.656
▁갑작	-10.6561
갈비	-10.6562
▁돌아올	-10.6563
님께서	-10.6567
▁절반	-10.6567
▁타면	-10.657
▁엑스	-10.6571
▁과연	-10.6572
▁재밌는	-10.6573
▁시작합니다	-10.6575
pe	-10.6576
하라는	-10.6578
▁받았어요	-10.6578
▁간격	-10.6583
▁물리적	-10.6583
▁사진들	-10.6584
▁아닐까	-10.6588
▁안경	-10.6593
▁노트	-10.6595
드려요	-10.6596
하느라	-10.6598
하긴	-10.6599
▁붙이	-10.6604
▁열차	-10.6609
▁조건으로	-10.661
▁방문해	-10.6611
써	-10.6611
▁문학	-10.6617
▁파트	-10.6617
▁들지	-10.6621
▁상위	-10.6622
버릴	-10.6628
줄게요	-10.6631
놀	-10.6634
▁캔	-10.6641
▁똥	-10.6645
▁즐기는	-10.6658
▁에러	-10.6662
▁지하철역	-10.6665
▁지역에서	-10.6665
▁부르는	-10.6674
▁앤	-10.6676
든데	-10.6677
▁말씀드리	-10.6686
▁용량	-10.6686
▁일들이	-10.6692
▁Control	-10.6697
▁인테리어	-10.6697
틈	-10.6697
▁단백질	-10.6697
▁뜨거운	-10.6697
▁캠프	-10.6697
▁오렌지	-10.6697
▁슬픔	-10.6697
▁요소들	-10.6697
▁액체	-10.6697
▁쉽고	-10.6698
▁놀랐	-10.6699
▁해외여행	-10.67
입니꺼	-10.6703
팩	-10.6704
젤	-10.6705
▁드리도록	-10.6705
▁슬프	-10.6706
▁감사합니더	-10.6707
▁위험한	-10.6715
▁없으니	-10.6721
▁아이라	-10.6723
▁동반	-10.6727
▁주문서	-10.6749
▁동료들	-10.675
▁소모	-10.676
▁참여할	-10.6762
▁여행용	-10.6763
▁오리	-10.6765
▁이혼	-10.6772
▁혼란	-10.6773
▁있어가꼬	-10.6777
▁마시는	-10.6783
▁포함하여	-10.6796
▁Ma	-10.68
▁쓰면	-10.6803
▁줄일	-10.6804
▁한식	-10.6813
▁위해선	-10.682
쪼	-10.6837
▁즐거웠	-10.6837
▁캠페인	-10.6837
샷	-10.6837
섰	-10.6837
▁블로그	-10.6837
▁캠핑	-10.6837
▁빨간	-10.6841
▁반죽	-10.6842
▁결코	-10.6848
▁요새	-10.6848
밤	-10.6848
▁반납	-10.6849
▁마스터	-10.6852
▁불평	-10.6853
▁씹	-10.6855
▁싸움	-10.6868
니아	-10.6868
▁다녀왔	-10.687
건가요	-10.687
▁재판	-10.687
▁간단히	-10.6873
AC	-10.6876
▁빠르고	-10.6879
▁가져오	-10.6879
▁누군가에게	-10.6884
▁자신에게	-10.6887
▁써야	-10.689
겠네	-10.689
▁안심	-10.6896
▁하나만	-10.6904
▁빠진	-10.6905
▁버려	-10.6906
쁘	-10.6917
▁물어	-10.6933
▁예비	-10.6937
▁같고	-10.6939
해달라고	-10.6945
▁말아야	-10.6949
▁빛나	-10.6952
▁돕는	-10.696
ent	-10.6963
▁사원	-10.6964
▁되길	-10.6966
▁이용하면	-10.6966
▁힘들게	-10.6967
였는데	-10.6968
▁마실	-10.6972
▁피해자	-10.6972
95	-10.6974
▁향수	-10.6977
얘	-10.6978
뮤	-10.698
줌	-10.698
_	-10.698
▁트렌드	-10.698
찜	-10.698
혐	-10.698
▁부동산	-10.698
▁협업	-10.698
▁유전자	-10.6981
▁스펙	-10.6981
▁슈퍼	-10.6982
▁쿠키	-10.6983
▁말했듯이	-10.6985
▁하우스	-10.6989
▁창출	-10.6989
."""	-10.6993
▁곡선	-10.6993
흐	-10.6997
▁믿습니다	-10.7
▁거니	-10.7
▁원하시는	-10.7002
▁연말	-10.7003
▁올린	-10.7006
▁가능하게	-10.7006
▁증가하고	-10.7007
지라도	-10.7008
▁어디에서	-10.701
▁서양	-10.7018
▁급한	-10.7018
▁단계에서	-10.702
▁모드	-10.703
▁몰라서	-10.704
▁지출	-10.7042
▁향기	-10.7051
미터	-10.7056
▁의미해요	-10.7058
ot	-10.7061
길래	-10.7067
▁만나면	-10.7074
▁유래	-10.7076
ie	-10.7077
600	-10.7081
▁멀어	-10.7093
▁읽기	-10.7101
▁교정	-10.7104
급하게	-10.7107
▁출발하는	-10.7109
하진	-10.711
획	-10.7115
줍	-10.7123
릅	-10.7123
드립니더	-10.7124
웅	-10.7124
뚜	-10.7125
▁꼼꼼	-10.7125
▁머리카락	-10.7125
아메리카	-10.7125
핏	-10.7125
q	-10.7125
▁사소한	-10.7126
▁교훈	-10.7129
▁돌아다니	-10.713
▁발효	-10.7134
▁아웃	-10.7135
▁보증금	-10.7135
▁토대로	-10.7137
▁표본	-10.7138
▁직무	-10.7145
▁존재하는	-10.7159
▁동양	-10.7161
▁되게	-10.7164
▁역사적	-10.7167
▁사장	-10.7171
▁만들어졌	-10.7174
▁타이어	-10.7177
하겠다고	-10.7177
▁점차	-10.7183
▁죄송합니다만	-10.7191
▁늘리	-10.7197
▁모두에게	-10.72
▁35	-10.7201
기능	-10.7208
▁무엇이든	-10.7214
▁외국어	-10.7215
▁대여	-10.7218
▁시작하기	-10.7221
▁다가가	-10.7222
스코	-10.723
▁쓰기	-10.7239
▁존재하지	-10.724
▁소수	-10.7248
▁감지	-10.7267
ᄋ	-10.7272
▁노란색	-10.7272
넬	-10.7272
▁냉장고	-10.7272
▁필요하다면	-10.7272
▁삼촌	-10.7275
▁관객	-10.7277
▁학교생활	-10.7281
▁어쩌면	-10.7282
▁흉	-10.7283
▁처방	-10.7283
▁미스터	-10.7285
들로부터	-10.7285
▁나빠	-10.7285
▁꺼내	-10.7286
▁소득	-10.7287
▁창의적인	-10.7289
▁독점	-10.7289
되도록	-10.729
▁겁나	-10.7291
▁순위	-10.7295
▁보아	-10.7305
▁연두	-10.7306
▁뭐라고	-10.7306
됐어요	-10.7311
자로서	-10.7321
▁인수	-10.7326
▁연동	-10.7331
▁왔어	-10.7334
▁잠시만	-10.7336
▁운영하는	-10.7341
▁자살	-10.7344
▁대학원	-10.735
▁연구소	-10.7353
▁지불해야	-10.7355
▁직면	-10.7364
하므로	-10.7364
▁빠르	-10.7368
▁은행에서	-10.7377
▁걸쳐	-10.7378
음식	-10.7393
▁빼고	-10.7403
상태	-10.7404
님께	-10.7405
▁진행되는	-10.7406
▁위대	-10.7407
▁줄이기	-10.7415
▁모르고	-10.7419
엽	-10.742
랙	-10.7421
▁뮤지컬	-10.7422
▁숨겨	-10.7422
렐	-10.7422
룬	-10.7422
핫	-10.7422
흠	-10.7422
▁달콤한	-10.7422
▁LED	-10.7422
▁공무원	-10.7422
▁화이팅	-10.7422
▁댄스	-10.7422
▁스카이	-10.7423
▁떠났	-10.7423
▁열쇠	-10.7424
▁친척	-10.7424
▁추측	-10.7425
▁염색	-10.7427
▁개성	-10.7428
▁나눌	-10.7428
▁제휴	-10.7431
▁비닐	-10.7431
▁Mr	-10.7431
▁재활용	-10.7438
▁아닌가요	-10.7438
▁맛집	-10.7439
▁명절	-10.7445
폰	-10.7446
깨	-10.7447
▁미치	-10.7451
샤	-10.7451
▁팬들	-10.7453
▁알림	-10.7455
▁몰라요	-10.7456
▁선배	-10.7459
▁조용한	-10.7462
체제	-10.7467
▁갖추고	-10.7472
ip	-10.7473
▁생각하면	-10.7475
▁게스트	-10.7476
더라면	-10.7485
▁진행되고	-10.7486
▁넘치	-10.7494
▁주차장	-10.7496
▁면에서	-10.7498
조건	-10.7504
▁재질	-10.7504
▁확실	-10.7513
▁덜어	-10.7515
▁대안	-10.7519
▁알려주면	-10.7522
▁최적	-10.7525
▁알아요	-10.7529
▁중이며	-10.7543
일간	-10.7546
▁진행될	-10.7549
▁상업	-10.7551
▁아닐	-10.7552
▁글자	-10.7559
해줘서	-10.7563
댕	-10.7572
흰	-10.7573
▁앨범	-10.7573
▁헬스장	-10.7573
탭	-10.7573
팽	-10.7573
▁고등학생	-10.7573
▁컨트롤	-10.7573
퓨	-10.7573
▁일으키	-10.7573
▁획득	-10.7573
▁떠오르	-10.7573
▁액션	-10.7573
▁아이콘	-10.7576
사운드	-10.7576
▁꽉	-10.7584
▁운행	-10.7584
인데요	-10.7584
▁비전	-10.7592
하곤	-10.7598
▁20%	-10.76
▁생겼습니다	-10.7601
펜	-10.7605
뉴	-10.7606
▁다치	-10.7606
컵	-10.7607
▁Co	-10.7608
▁좋아하기	-10.761
앞	-10.761
▁휴대	-10.7611
▁정비	-10.7613
▁가능하며	-10.7616
▁운전자	-10.762
했십니더	-10.7621
▁좋았습니다	-10.7627
▁공주	-10.7632
▁확인해주세요	-10.7661
▁매력적인	-10.7662
▁결함	-10.7663
▁베이스	-10.7664
▁진행하기	-10.7669
nt	-10.767
요금	-10.7672
▁힘들고	-10.7678
▁내용물	-10.7683
마저	-10.7689
▁상사	-10.7695
▁언급한	-10.7696
if	-10.7698
대학	-10.7701
톱	-10.7725
삽	-10.7727
샘	-10.7727
▁느낍니다	-10.7727
▁많지만	-10.7727
▁미세먼지	-10.7727
▁햄버거	-10.7727
밟	-10.7727
밭	-10.7727
▁이슬람	-10.7727
▁트위터	-10.7727
▁어차피	-10.7727
▁드레스	-10.7727
▁메세지	-10.7727
▁가난한	-10.7727
▁트럭	-10.7728
▁갖춘	-10.7729
▁접촉	-10.773
▁갈아타	-10.7731
▁잠재적	-10.7735
▁사용될	-10.7735
▁50%	-10.7736
▁찾아볼	-10.7739
개씩	-10.7739
▁연령	-10.774
▁멤버들	-10.7741
▁끝날	-10.7743
▁지닌	-10.7744
▁기구	-10.7745
▁소송	-10.7745
▁지낼	-10.7751
▁변형	-10.7754
▁조작	-10.7762
▁궁금해요	-10.7763
CA	-10.7767
▁노력해야	-10.7772
▁간주	-10.7772
▁골드	-10.7797
ha	-10.7802
▁효율적인	-10.7804
▁입장에서	-10.7809
▁지표	-10.7809
주시기	-10.7814
▁거품	-10.7816
▁병원에서	-10.7828
▁구성원	-10.7836
▁내일까지	-10.7844
65	-10.785
▁부자	-10.7864
ma	-10.7869
▁불편한	-10.7871
즌	-10.7875
▁모니터	-10.7882
▁낯선	-10.7883
▁비트코인	-10.7883
▁스튜디오	-10.7883
닛	-10.7883
▁늦었	-10.7883
▁트위치	-10.7883
▁스트랩	-10.7883
신다면	-10.7887
▁종목	-10.789
mp	-10.789
▁놀라운	-10.7891
▁격려	-10.7891
16	-10.7894
▁연애	-10.7896
▁들리	-10.7898
▁무례	-10.7898
▁출국	-10.79
▁조율	-10.7902
▁강림	-10.7905
▁브레	-10.7913
▁추세	-10.7913
▁가치관	-10.7915
자너	-10.7917
▁미루	-10.7922
▁무상	-10.7922
▁기다려야	-10.7923
ab	-10.7926
▁들어온	-10.7927
▁끝나면	-10.7927
포인트	-10.7933
▁비교적	-10.7933
▁소포	-10.7936
하자면	-10.7937
▁느껴지	-10.794
▁이해하지	-10.7942
▁간단하게	-10.7944
▁잡았	-10.7945
▁모형	-10.7962
▁비롯	-10.7967
보이소	-10.7968
피트	-10.7976
▁이루고	-10.7978
▁유산	-10.8007
▁들었다	-10.8014
▁최적화	-10.8022
▁시공	-10.8022
쇄	-10.8038
▁가리	-10.8038
즘	-10.8039
뵙	-10.804
▁낮아	-10.8042
▁멕시코	-10.8042
▁저작권	-10.8042
▁텍스트	-10.8042
라운드	-10.8043
▁친환경	-10.8044
▁프라이	-10.805
▁변환	-10.8052
▁손목	-10.8055
▁항공권	-10.8056
▁있었기	-10.8057
▁힘내	-10.8057
▁영문	-10.8062
▁같노	-10.8062
▁싶으면	-10.8066
▁놀았	-10.8066
▁개수	-10.8067
▁아파서	-10.8072
▁고쳐	-10.8079
시겠어요	-10.808
▁채우	-10.808
▁연간	-10.8085
▁학점	-10.8089
▁오른	-10.809
▁좋아하는데	-10.8096
하시길	-10.8099
▁물체	-10.8105
▁일자	-10.8111
▁두께	-10.8118
▁언제까지	-10.8126
▁사본	-10.8127
▁기다렸	-10.8146
▁생각하세요	-10.8148
ell	-10.8151
▁믿지	-10.8152
▁필요하면	-10.8164
베리	-10.8199
껍	-10.8203
▁클라이언트	-10.8203
▁프레젠테이션	-10.8203
▁와이파이	-10.8203
▁장학금	-10.8203
▁현황	-10.8204
▁부탁드려요	-10.8205
그램	-10.8205
▁언론	-10.8206
▁죄송합니더	-10.8207
▁흥미롭	-10.8208
▁김밥	-10.821
▁늘려	-10.821
▁초밥	-10.8211
24	-10.8212
▁있듯이	-10.8212
담긴	-10.8213
▁관절	-10.8215
▁싶습니더	-10.8218
구조	-10.8218
▁금속	-10.8219
▁학문	-10.8221
EX	-10.8221
▁하나씩	-10.8223
▁현장에서	-10.8231
▁환자들	-10.824
▁때문이라	-10.8241
▁초래	-10.8241
▁화재	-10.8241
▁효율성	-10.8244
▁조종	-10.8244
▁직원에게	-10.8248
▁대출	-10.825
▁로드	-10.8253
▁저런	-10.8254
▁열려	-10.8255
▁그만두	-10.8258
힘	-10.8258
▁널리	-10.8259
▁유사한	-10.8259
그룹	-10.826
▁원료	-10.8268
▁전투	-10.8281
▁법원	-10.8284
렸어요	-10.8288
▁재배	-10.8298
되거나	-10.8298
▁고려하여	-10.8298
텐데	-10.8304
▁훌륭	-10.8323
▁우아	-10.834
ut	-10.8355
▁합쳐	-10.8356
쇠	-10.8364
ᅲ	-10.8367
▁인천공항	-10.8367
탬	-10.8367
▁케이팝	-10.8367
헐	-10.8367
▁햇빛	-10.8367
▁스위스	-10.8367
▁스위치	-10.8367
▁협회	-10.8367
▁해산물	-10.8367
▁논쟁	-10.8368
▁겨우	-10.8369
▁교환학생	-10.8369
▁나타냅니	-10.8369
▁무서워	-10.837
▁거래처	-10.8376
▁섬유	-10.8378
▁사냥	-10.8389
▁없습니더	-10.8392
▁식단	-10.8393
▁않으며	-10.8399
▁봤어요	-10.8399
영화	-10.8401
▁연료	-10.8402
쉽습니다	-10.8403
되었으며	-10.8404
▁딸기	-10.8406
백만	-10.8408
놓았	-10.8413
ᅲᅲ	-10.8414
휴	-10.8414
때마다	-10.8421
▁재무	-10.8421
▁것만으로	-10.8424
▁새우	-10.8424
농	-10.8428
몸	-10.8428
큰	-10.8428
콩	-10.8432
▁알바	-10.8452
▁알려드리	-10.8455
▁150	-10.8473
▁마찬가지	-10.8477
세포	-10.8487
뤄	-10.8488
ho	-10.8492
▁살려	-10.8519
▁추출	-10.8529
슐	-10.8534
윗	-10.8534
▁스타트업	-10.8534
▁카탈로그	-10.8534
▁플러그	-10.8534
꽂	-10.8534
셈	-10.8534
컷	-10.8534
▁남동생	-10.8534
▁API	-10.8534
▁스탠	-10.8534
▁이태원	-10.8534
▁업계	-10.8535
▁책자	-10.8536
art	-10.8539
▁개인정보	-10.8539
▁감염	-10.8539
▁공동체	-10.854
ard	-10.8541
▁영원히	-10.8543
▁탈출	-10.8544
▁분쟁	-10.8545
배송	-10.8545
▁설문	-10.8546
▁경쟁사	-10.855
▁장착	-10.855
▁확실하게	-10.8552
▁서울시	-10.8552
▁약물	-10.8556
▁30%	-10.8559
▁입술	-10.8559
▁사생활	-10.856
▁테마	-10.856
▁조용	-10.8561
▁감명	-10.8569
ate	-10.8572
▁부합	-10.8573
▁지능	-10.8579
세트	-10.858
▁CD	-10.858
▁준비되어	-10.8582
▁최소화	-10.8586
▁보내겠습니다	-10.8588
붙	-10.8597
해드릴	-10.8599
쌀	-10.8599
▁만나러	-10.86
시스템	-10.86
▁양산	-10.8603
▁모터	-10.8612
▁무엇보다도	-10.8614
▁결과적으로	-10.8617
▁모래	-10.8618
▁운명	-10.8619
▁명소	-10.8622
▁거울	-10.8629
90	-10.864
▁먹습니다	-10.8641
스톤	-10.8642
▁끈기	-10.8642
내용	-10.866
▁물량	-10.8675
▁작아	-10.8679
▁움직	-10.8693
갈수록	-10.8698
▁빠졌	-10.8702
껴	-10.8703
▁기쁩니다	-10.8703
▁스타벅스	-10.8703
륨	-10.8703
툴	-10.8703
폼	-10.8703
▁민주주의	-10.8703
▁태어난	-10.8703
뒀	-10.8703
싹	-10.8703
짤	-10.8703
▁클래식	-10.8703
▁조만간	-10.8703
▁아시안	-10.8703
▁촉진	-10.8704
먹으러	-10.8704
▁봉사활동	-10.8704
▁빌릴	-10.8709
▁특유	-10.8715
▁돌아갈	-10.8716
▁바빠서	-10.8721
▁응용	-10.8722
▁경찰관	-10.8723
▁지혜	-10.8723
▁금연	-10.8723
▁받으실	-10.8724
피아	-10.8724
▁서술	-10.8725
▁녹음	-10.8726
▁권장	-10.8727
▁반환	-10.8727
▁됐어	-10.8728
▁그리워	-10.8728
▁진입	-10.8732
▁자율	-10.8734
▁알았는데	-10.8736
▁없네요	-10.8744
▁인종	-10.8745
▁물류	-10.8746
▁물어봤	-10.8748
▁완료된	-10.875
▁구두	-10.876
▁절감	-10.8764
01	-10.8769
호텔	-10.8781
▁준수	-10.8789
▁먼지	-10.8796
▁가능하면	-10.8799
▁써서	-10.8811
▁없어예	-10.8821
▁물건들	-10.8823
and	-10.8825
▁국물	-10.8826
▁관광객들	-10.8847
보호	-10.8851
13	-10.8853
▁도장	-10.8866
엇	-10.8871
▁들어있	-10.8873
ᄌ	-10.8876
▁겪었	-10.8876
▁챔피언	-10.8876
▁바닷가	-10.8876
▁윽시	-10.8876
▁헌신	-10.8876
▁퇴원	-10.8877
▁이어폰	-10.8877
▁하얀	-10.8877
▁알다시피	-10.8879
▁혼합	-10.888
해지기	-10.888
MI	-10.8882
▁반갑	-10.8884
▁좋을까요	-10.8889
▁넘버	-10.8893
▁비누	-10.8893
▁있으믄	-10.8894
▁즐겁고	-10.8897
▁경영진	-10.8898
▁돌리	-10.8903
▁바른	-10.8921
▁CS	-10.8923
▁진동	-10.8927
▁눈치	-10.8928
▁결과물	-10.8939
▁않았다면	-10.8945
▁사정으로	-10.8948
▁형제	-10.8948
뒤	-10.8953
▁트수	-10.8958
▁감사해요	-10.8962
▁개방	-10.8962
▁교수님께	-10.8963
▁피우	-10.8964
▁외국인들	-10.8974
ex	-10.8977
▁하단	-10.8983
▁힘들다	-10.8988
▁간다고	-10.899
재료	-10.8996
해보겠습니다	-10.9008
▁예정이니	-10.9011
48	-10.9034
경제	-10.9044
융	-10.905
▁매트	-10.905
뚫	-10.9051
쉐	-10.9051
푼	-10.9051
▁토마토	-10.9051
▁기말고사	-10.9051
▁호기심	-10.9051
▁곤란	-10.9052
▁이집트	-10.9052
▁흥분	-10.9052
▁빼앗	-10.9052
▁UPS	-10.9053
▁아부지	-10.9054
▁축복	-10.9056
▁터키	-10.9058
▁기업들	-10.9063
직원	-10.9063
▁투입	-10.9064
▁간접	-10.9065
▁호환	-10.9066
▁당사자	-10.907
▁출산	-10.9072
▁싶었던	-10.908
▁외교	-10.908
▁않았던	-10.9091
▁받았는데	-10.9094
▁예정인데	-10.9097
▁편안하게	-10.9099
▁갈색	-10.9103
▁있거나	-10.9104
▁비난	-10.9106
▁성함	-10.911
▁나름	-10.9112
▁못하지만	-10.9113
▁지나면	-10.9117
▁폐기	-10.9117
▁단단	-10.9118
탑	-10.9135
때문에	-10.9137
디자인	-10.9137
▁대행	-10.9144
▁미세	-10.9153
▁나누고	-10.9168
▁있잖아	-10.9172
▁늦어지	-10.9187
▁보내드릴	-10.9192
방법	-10.9203
뷰	-10.9227
▁샌드위치	-10.923
▁캠퍼스	-10.923
덴	-10.923
럿	-10.923
▁코멘트	-10.923
▁공휴일	-10.923
▁왜냐면	-10.923
▁일러스트	-10.923
▁세미나	-10.923
▁슬픈	-10.923
▁퍼뜩	-10.923
▁혁명	-10.9231
▁떨어졌	-10.9233
▁엔진	-10.9233
▁꿈꾸	-10.9233
▁간호	-10.9234
▁근본적	-10.9234
▁게이트	-10.9238
▁토끼	-10.9238
▁필요성	-10.9238
▁IC	-10.9238
▁불렀	-10.924
▁봤어	-10.924
▁폭발	-10.9244
▁같습니더	-10.9246
▁글씨	-10.9246
▁사랑한다	-10.9248
▁도울	-10.9249
▁초반	-10.9255
▁임신	-10.9258
▁어때요	-10.9259
▁물어볼	-10.926
센트	-10.9261
▁보냈던	-10.9262
▁임금	-10.9262
▁공통	-10.9262
▁연설	-10.9262
▁지침	-10.927
▁저항	-10.9278
▁알아볼	-10.9284
타운	-10.9291
▁합성	-10.9313
▁찍어서	-10.9321
▁있으나	-10.9327
학습	-10.9341
800	-10.9358
상황	-10.9359
▁CO	-10.9391
요청	-10.9392
슴	-10.94
▁갔어요	-10.9411
▁뚜렷	-10.9411
▁벚꽃	-10.9411
돔	-10.9411
▁디테일	-10.9412
▁어우러	-10.9412
▁삽입	-10.9412
▁무서운	-10.9412
▁원산지	-10.9412
▁붙어있	-10.9413
▁최악	-10.9415
▁혈액	-10.9415
▁얼른	-10.9416
▁착각	-10.9417
▁욕심	-10.942
▁같네예	-10.9423
▁의학	-10.9426
▁마음속	-10.9429
▁체중	-10.9433
▁온천	-10.9436
▁싶었는데	-10.9445
▁읽었	-10.9449
▁필요하신	-10.9449
▁소음	-10.9453
▁트레	-10.9453
▁Ch	-10.9457
RP	-10.946
ON	-10.9466
▁유출	-10.9471
▁먹었습니다	-10.9475
하더라도	-10.948
▁쉬워	-10.9498
찍	-10.9499
듣	-10.95
▁누르면	-10.9514
땅	-10.9514
되었기	-10.9516
따라	-10.9518
▁강점	-10.9545
좋아	-10.9563
차원	-10.9585
▁먹어보	-10.9591
병원	-10.9592
▁10,000	-10.9594
갱	-10.9597
덱	-10.9597
퀸	-10.9597
▁깜짝	-10.9597
▁마케터	-10.9597
▁나타난	-10.9597
▁도대체	-10.9597
▁받아들여	-10.9597
▁오프라인	-10.9597
▁한마디	-10.9597
▁도덕적	-10.9597
▁2013	-10.96
▁충돌	-10.96
▁필름	-10.9601
▁정신적	-10.9602
▁멀티	-10.9602
▁형상	-10.9602
▁2012	-10.9603
▁걸린다	-10.9604
▁불쾌	-10.9604
▁어찌	-10.9605
▁떠날	-10.9605
▁주민들	-10.9607
▁결석	-10.9608
▁조용히	-10.9609
▁알맞	-10.9609
▁무섭	-10.9609
▁아끼	-10.9612
▁태그	-10.9613
▁가져야	-10.9615
▁자르	-10.9616
▁정기적	-10.9619
▁키즈	-10.9621
▁제조업	-10.9628
▁없도록	-10.9629
▁주고받	-10.9629
▁볼거리	-10.963
▁집중력	-10.9631
▁터치	-10.9631
▁간절	-10.9637
▁모르겠다	-10.9642
▁어데서	-10.9656
ig	-10.9676
▁상단	-10.9677
▁나왔습니다	-10.9684
스틱	-10.9692
맹	-10.9698
쥐	-10.9702
홍	-10.9702
▁LC	-10.9703
DI	-10.9749
해주십시오	-10.9756
임에도	-10.9757
▁어떨까	-10.9772
되나요	-10.9776
눌	-10.9777
▁프린팅	-10.9785
깅	-10.9785
꼴	-10.9785
▁인터페이스	-10.9785
렘	-10.9785
뱀	-10.9785
▁자외선	-10.9785
▁밀가루	-10.9786
▁적혀있	-10.9786
▁댕기	-10.9787
▁올랐	-10.979
▁주최	-10.9791
▁반대편	-10.9791
▁논란	-10.9792
200	-10.9793
▁말하자면	-10.9793
▁하나하나	-10.9793
▁은퇴	-10.9794
▁매칭	-10.9796
▁실습	-10.9803
▁현명	-10.9805
▁예능	-10.9807
▁야경	-10.9816
▁완화	-10.9818
▁출전	-10.982
▁사용자들	-10.9821
▁두번째	-10.9824
▁123	-10.9824
▁모션	-10.9828
▁실무	-10.9829
▁왕자	-10.9829
▁원격	-10.9835
▁괜찮습니다	-10.9842
▁의류	-10.9845
▁듣게	-10.9849
▁사람한테	-10.9852
▁분노	-10.9853
겠어예	-10.986
▁인체	-10.9864
하셔	-10.9865
▁고려해야	-10.9869
▁복제	-10.9883
끝	-10.9895
빼	-10.9898
▁않다면	-10.9904
▁음성	-10.9913
분들께	-10.9916
▁행성	-10.9923
업무	-10.9935
▁들어보	-10.9964
▁기르	-10.9967
했었다	-10.9969
퀴	-10.9972
▁안타깝	-10.9978
▁낍니더	-10.9978
▁뚜껑	-10.9978
▁알레르기	-10.9978
됬	-10.9978
엣	-10.9978
▁뽀로로	-10.9978
▁안드로이드	-10.9978
톨	-10.9978
▁떠올리	-10.9978
▁어두운	-10.9978
▁신분증	-10.9978
▁펌프	-10.9978
▁습득	-10.9978
▁플랜	-10.9978
▁납부	-10.9978
▁정거장	-10.9979
▁부탁드립니더	-10.998
▁이베이	-10.9981
▁이끄는	-10.9982
▁화폐	-10.9984
▁회장님	-10.9985
▁대리점	-10.9987
▁확산	-10.9988
▁목격	-10.9989
▁가능합니더	-10.999
▁생각하나요	-10.9992
▁평등	-10.9994
▁심플	-11.0011
하였지만	-11.0011
▁배워야	-11.0011
▁보냈는데	-11.0017
▁보였어요	-11.0018
▁최종적으로	-11.0019
▁복구	-11.0023
▁영원	-11.0026
▁마약	-11.0029
▁재발	-11.0033
▁인연	-11.0037
▁친해지	-11.0042
▁점프	-11.0056
틱	-11.0073
▁돌보	-11.0104
▁찍었	-11.0104
▁줄이는	-11.0105
▁어린이들	-11.0144
▁꾸준	-11.0169
▁바랍니더	-11.0174
▁어쨌든	-11.0174
탓	-11.0174
헨	-11.0174
▁오사카	-11.0174
▁안타깝게도	-11.0174
▁게시판	-11.0174
▁데스크	-11.0174
▁오피스	-11.0174
야말로	-11.0176
▁키보드	-11.0176
▁목걸이	-11.0178
▁살아남	-11.0179
▁확인해보니	-11.018
▁환급	-11.018
67	-11.0181
▁황금	-11.0182
▁있습니데이	-11.0183
▁초청	-11.0186
▁베스트	-11.0187
▁왜곡	-11.0188
▁기라예	-11.0191
▁여행객	-11.0193
▁사촌	-11.0196
▁롤러	-11.0197
▁보람	-11.0201
▁조항	-11.0203
▁기념품	-11.0205
▁적립	-11.0209
▁성경	-11.021
▁양쪽	-11.0211
▁구별	-11.022
▁월드	-11.0223
▁되었는데	-11.0226
▁우산	-11.0238
▁음료수	-11.0255
하겠어요	-11.0263
▁읽어보	-11.0265
▁동물원	-11.0272
▁올렸	-11.0284
▁패치	-11.0287
▁플라	-11.0296
▁느낀다	-11.0328
88	-11.0329
닦	-11.0373
▁핸드	-11.0374
숭	-11.0374
ᄉ	-11.0374
▁Jackal	-11.0374
▁머릿속	-11.0374
▁우선순위	-11.0374
▁윈도우	-11.0374
▁즐거워	-11.0374
▁퀄리티	-11.0374
곽	-11.0374
쌈	-11.0374
첩	-11.0374
▁나타납니다	-11.0374
툰	-11.0374
▁골고루	-11.0374
▁아티스트	-11.0374
▁월드컵	-11.0374
▁그란데	-11.0374
▁최상의	-11.0374
▁버섯	-11.0374
▁지니고	-11.0375
▁바이오	-11.0376
▁식탁	-11.0378
▁빨라	-11.038
▁드론	-11.039
▁마켓	-11.0392
▁몰래	-11.0392
▁움직일	-11.0392
▁명백	-11.0394
▁가죽	-11.0396
▁벌레	-11.0396
이라가꼬	-11.0399
▁싶었어요	-11.0402
▁없으며	-11.0411
▁있겠지만	-11.0411
▁어색	-11.0425
▁사막	-11.0425
▁복장	-11.0427
▁인공	-11.0431
▁둘러보	-11.0436
▁벌금	-11.0442
▁꼬리	-11.0468
▁국민들	-11.0475
시켜주	-11.048
하겠지만	-11.0486
▁과학자들	-11.0488
버렸습니다	-11.0501
▁받으시	-11.0508
▁좋아한다	-11.0522
ry	-11.0541
멍	-11.0573
땡	-11.0578
뽀	-11.0578
▁CCTV	-11.0578
▁에어비앤비	-11.0578
▁오토바이	-11.0578
걔	-11.0578
찹	-11.0578
▁실리콘	-11.0578
▁초록색	-11.0578
▁당분간	-11.0578
▁에센스	-11.0578
▁머무르	-11.0578
▁진지하	-11.0578
▁정체성	-11.0579
▁모니터링	-11.058
▁식감	-11.0581
▁신념	-11.0588
▁성숙	-11.0588
방울	-11.0597
▁대접	-11.06
▁지도자	-11.0612
▁확인하시고	-11.0613
▁뽑아	-11.0622
ᄏ	-11.0623
ft	-11.063
드릴까예	-11.0648
▁추워	-11.0649
▁놀랍	-11.0652
▁그래프	-11.0677
쿨	-11.0715
뜻	-11.0723
렌즈	-11.0734
▁악화	-11.0736
▁한국인들	-11.0757
▁극장	-11.0758
▁똑같	-11.0777
▁멈춰	-11.0786
▁바이러스	-11.0786
▁생깁니다	-11.0786
▁엉덩이	-11.0786
▁카운터	-11.0786
▁튼튼	-11.0786
▁눈썹	-11.0786
▁사로잡	-11.0786
▁테이프	-11.0787
▁도둑	-11.0788
▁여섯	-11.0788
▁흔적	-11.0788
▁재킷	-11.0789
▁의논	-11.079
▁인간관계	-11.0792
▁이루어집니다	-11.0793
▁기다려주세요	-11.0793
▁일회용	-11.0793
▁말씀드리겠습니다	-11.0794
▁장갑	-11.0795
▁쓰레기통	-11.0795
▁요구사항	-11.0795
▁농업	-11.0795
▁리얼	-11.0795
▁연락드리겠습니다	-11.0796
▁공통점	-11.0798
▁여왕	-11.0803
▁있십니다	-11.0804
▁실용적	-11.0808
▁사라졌	-11.0811
▁의향	-11.0815
▁양말	-11.0822
▁마술	-11.0825
▁해낼	-11.0826
▁반입	-11.0848
▁준다면	-11.0849
▁아니냐	-11.0852
▁농장	-11.0852
▁불가능하다	-11.0869
47	-11.0877
▁전형적	-11.0884
▁사항들	-11.0892
되었지만	-11.0916
랍니다	-11.0926
▁처음이라	-11.0941
ᄏᄏ	-11.0941
TO	-11.0952
큼	-11.0961
▁어쩌	-11.0985
▁경복궁	-11.0999
▁셔틀버스	-11.0999
▁저렇게	-11.0999
▁칵테일	-11.0999
▁클라우드	-11.0999
꿨	-11.0999
뜬	-11.0999
▁끔찍	-11.0999
▁미끄러	-11.0999
▁하루하루	-11.0999
▁도메인	-11.0999
▁사회복지	-11.0999
▁손잡이	-11.0999
킴	-11.1216
핵	-11.139
땐	-11.139
킷	-11.1435
둡	-11.1439
웬	-11.1439
갚	-11.1439
랗	-11.1439
딸	-11.1623
랫	-11.1659
챙	-11.1664
긍	-11.1666
젝	-11.1666
ᄂ	-11.1666
릉	-11.1666
팡	-11.1666
쓸	-11.1861
엑	-11.1876
욱	-11.1877
둑	-11.1897
둬	-11.1898
룡	-11.1898
앵	-11.1898
멈	-11.2136
밸	-11.2136
췄	-11.2136
똘	-11.2136
펠	-11.2136
논	-11.235
댄	-11.238
ᅡ	-11.238
붐	-11.238
붓	-11.238
썩	-11.238
챠	-11.238
켄	-11.238
낀	-11.2618
꿔	-11.2625
닷	-11.263
퀘	-11.263
ᄇ	-11.263
굿	-11.263
뭇	-11.263
샌	-11.263
윙	-11.263
퉁	-11.263
닭	-11.2872
컴	-11.2874
흑	-11.2874
냅	-11.2884
칫	-11.2887
풋	-11.2887
랬	-11.3113
픈	-11.3134
똑	-11.315
웰	-11.315
콕	-11.315
°	-11.315
맷	-11.342
윌	-11.342
쥬	-11.342
켈	-11.342
뢰	-11.369
떤	-11.3694
걍	-11.3698
덥	-11.3698
솜	-11.3698
짠	-11.3698
멀	-11.3707
빡	-11.3707
뇌	-11.3708
뜩	-11.3983
ᄅ	-11.3984
씬	-11.3984
즙	-11.3984
짬	-11.3984
찡	-11.3984
콧	-11.3984
툼	-11.3984
팟	-11.3984
젓	-11.3984
앱	-11.4003
옛	-11.4278
깄	-11.4278
댁	-11.4278
숍	-11.4278
쏠	-11.4278
찐	-11.4278
찼	-11.4278
첼	-11.4278
펄	-11.4278
룹	-11.4541
깐	-11.4552
윽	-11.458
섹	-11.458
딘	-11.4581
깜	-11.4581
앰	-11.4581
엿	-11.4581
찔	-11.4581
흩	-11.4581
찾	-11.4604
롯	-11.4887
둠	-11.4889
댓	-11.4893
캘	-11.4893
껄	-11.4893
삿	-11.4893
챗	-11.4893
휠	-11.4893
앤	-11.4939
곰	-11.4939
램	-11.521
ᅩ	-11.5216
넛	-11.5216
눕	-11.5216
뿟	-11.5216
읐	-11.5216
츄	-11.5216
핍	-11.5216
므	-11.5449
깎	-11.5548
*	-11.5549
ᅣ	-11.5549
캣	-11.5549
벡	-11.5549
쭈	-11.5549
낙	-11.5618
덧	-11.5894
빤	-11.5894
얌	-11.5894
솥	-11.5894
“	-11.5975
$	-11.5981
핸	-11.6248
봇	-11.625
땜	-11.6251
켠	-11.6251
밋	-11.6251
ᄆ	-11.6251
깡	-11.6251
멧	-11.6251
뺄	-11.6251
썸	-11.6251
옴	-11.6251
챔	-11.6251
켔	-11.6251
숲	-11.6345
ᄃ	-11.6621
눴	-11.6622
렙	-11.6622
몹	-11.6622
쨩	-11.6622
텀	-11.6622
쑤	-11.6622
펫	-11.6622
최	-11.6714
맵	-11.673
탐	-11.6731
훔	-11.7006
ᄊ	-11.7006
ᄎ	-11.7006
ᄐ	-11.7006
긁	-11.7006
뿔	-11.7006
윾	-11.7006
뜰	-11.7006
륜	-11.7006
얽	-11.7006
낌	-11.7406
셰	-11.7406
ᅵ	-11.7406
찝	-11.7406
ᅭ	-11.7406
늄	-11.7406
댈	-11.7406
뚱	-11.7406
얏	-11.7406
쩍	-11.7406
챕	-11.7406
훗	-11.7406
늑	-11.7406
떠	-11.7543
냉	-11.7545
즉	-11.7547
녕	-11.7807
킥	-11.7823
>	-11.7823
ᄁ	-11.7823
ᄑ	-11.7823
껌	-11.7823
꽁	-11.7823
딥	-11.7823
뭄	-11.7823
볕	-11.7823
뿜	-11.7823
왓	-11.7823
잣	-11.7823
똥	-11.7981
넌	-11.7982
잖	-11.8247
낄	-11.8257
ᅮ	-11.8258
ᄄ	-11.8258
ᅤ	-11.8258
ᅥ	-11.8258
ᅧ	-11.8258
ᅨ	-11.8258
눔	-11.8258
쑥	-11.8258
쓱	-11.8258
젼	-11.8258
캤	-11.8258
밧	-11.8258
솟	-11.8258
캔	-11.8432
굽	-11.8436
섯	-11.8695
튬	-11.8712
딴	-11.8912
뛰	-11.8912
뷔	-11.9184
펌	-11.9188
ᅳ	-11.9188
;	-11.9188
딕	-11.9188
뤘	-11.9188
셸	-11.9188
쟈	-11.9188
짖	-11.9188
쭉	-11.9412
픔	-11.9679
쿵	-11.9688
ᄀ	-11.9688
멕	-11.9688
뽕	-11.9688
쉼	-11.9688
쐬	-11.9688
짚	-11.9688
웍	-11.9688
챌	-11.9688
닿	-11.9939
갖	-11.9939
왜	-11.994
펙	-12.0211
찮	-12.0213
씌	-12.0215
엎	-12.0215
갤	-12.0215
곶	-12.0215
궐	-12.0215
궤	-12.0215
깼	-12.0215
댔	-12.0215
벙	-12.0215
벳	-12.0215
샬	-12.0215
젯	-12.0215
칬	-12.0215
펐	-12.0215
훨	-12.0215
쭐	-12.0215
뭐	-12.0495
씀	-12.0764
촬	-12.077
@	-12.077
댐	-12.077
뵈	-12.077
춧	-12.077
칵	-12.077
돗	-12.077
얄	-12.077
텅	-12.077
쌍	-12.1078
쓴	-12.1083
깬	-12.1358
껀	-12.1358
꼼	-12.1358
얍	-12.1358
끌	-12.2326
맘	-12.2369
꿈	-12.237
벗	-12.237
곧	-12.2375
렷	-12.265
팝	-12.3088
맙	-12.3357
찢	-12.336
녹	-12.3858
숫	-12.4044
갯	-12.4134
읽	-12.4683
샀	-12.4689
옆	-12.4691
꼭	-12.4692
얀	-12.4962
힙	-12.5316
겸	-12.56
팠	-12.5868
끗	-12.5875
훼	-12.5876
캄	-12.5876
밑	-12.6597
믿	-12.6599
쎄	-12.6874
꼈	-12.6875
닫	-12.771
뽑	-12.7711
쩌	-12.7983
쿄	-12.7986
낫	-12.8959
낳	-12.8961
싫	-12.8961
첫	-12.8962
쁨	-12.9231
콥	-12.9237
몇	-13.0386
쏘	-13.0389
탠	-13.0662
뎌	-13.0666
딧	-13.0666
큘	-13.0666
끊	-13.2057
삶	-13.2057
댑	-13.2332
씹	-13.4056
땀	-13.4056
홈	-13.4057
굳	-13.4057
슷	-13.4326
밌	-13.4329
슘	-13.4332
퀄	-13.4332
젖	-13.6557
걷	-13.6558
‘	-13.6558
쥴	-13.6832
꽉	-13.989
흉	-13.989
얻	-13.9891
뭘	-13.9891
뀔	-14.016
넉	-14.0166
룻	-14.0166
뭔	-14.4889
돕	-14.4894
짧	-14.4895
및	-14.4895
릎	-14.5161
썹	-14.5163
륭	-14.5166
귤	-15.4966
컫	-15.4967
썬	-15.4968
뗄	-15.4969
뎁	-15.497
꿋	-15.4971
꾀	-15.4972
귈	-15.4973
헝	-15.4974
캅	-15.4975
숯	-15.4976
깍	-15.4977
픕	-15.4978
툭	-15.4979
얗	-15.498
뾰	-15.4981
뵐	-15.4982
꾹	-15.4983
ᅴ	-15.4984
ᅱ	-15.4985
ᅰ	-15.4986
ᅯ	-15.4987
ᅬ	-15.4988
ᅫ	-15.4989
ᅪ	-15.499
ᅢ	-15.4991
헹	-15.4992
떴	-15.4993
땠	-15.4994
휩	-15.4995
홋	-15.4996
텝	-15.4997
촘	-15.4998
엮	-15.4999
덟	-15.5
ᅦ	-15.5001
<	-15.5002
뭡	-15.5003
낡	-15.5004
숟	-15.5005
뺀	-15.5006
ᄍ	-15.5007
ᄈ	-15.5008
촛	-15.5009
짙	-15.501
핼	-15.5011
펭	-15.5012
굵	-15.5013
팥	-15.5014
찻	-15.5015
쫀	-15.5016
싰	-15.5017
뿍	-15.5018
뱉	-15.5019
몫	-15.502
팸	-15.5021
뻗	-15.5022
펩	-15.5023
빴	-15.5024
풉	-15.5025
앓	-15.5026
컸	-15.5027
뮬	-15.5028
꺾	-15.5029
횡	-15.503
뺏	-15.5031
뱃	-15.5032
엌	-15.5033
굶	-15.5034
헛	-15.5035
샴	-15.5036
갇	-15.5037
헷	-15.5038
갸	-15.5039
뻤	-15.504
뀐	-15.5041
횟	-15.5042
쌉	-15.5043
빚	-15.5044
쫄	-15.5045
귄	-15.5046
잤	-15.5047
왠	-15.5048
뭉	-15.5049
맴	-15.505
늬	-15.5051
잦	-15.5052
쨌	-15.5053
껑	-15.5054
벚	-15.5055
뉘	-15.5056
늙	-15.5057
붉	-15.5058
깥	-15.5059
씁	-15.506
쁠	-15.5061
낚	-15.5062
춥	-15.5063
걀	-15.5064
쏟	-15.5065
얹	-15.5066
뜯	-15.5067
딪	-15.5068
쁩	-15.5069
큽	-15.507
쭤	-15.5071
웁	-15.5072
쫓	-15.5073
맑	-15.5074
좁	-15.5075
뻔	-15.5076
괄	-15.5077
얇	-15.5078
쿼	-15.5079
샐	-15.508
덤	-15.5081
낯	-15.5082
릇	-15.5083
쫌	-15.5084
닮	-15.5085
씻	-15.5086
벅	-15.5087
녔	-15.5088
옳	-15.5089
띄	-15.509
끓	-15.5091
쩔	-15.5092
맺	-15.5093
앨	-15.5094
덮	-15.5095
곁	-15.5096
겉	-15.5097
듈	-15.5098
펼	-15.5099
썼	-15.51
섞	-15.5101
셉	-15.5102
눠	-15.5103
킵	-15.5104
낍	-15.5105
꽤	-15.5106
뒷	-15.5107
묻	-15.5108
옮	-15.5109
젊	-15.511
켰	-15.5111
깝	-15.5112
멤	-15.5113
휘	-15.5114
왼	-15.5115
훌	-15.5116
볶	-15.5117
뀌	-15.5118
쌓	-15.5119
깁	-15.512
봅	-15.5121
펴	-15.5122
듭	-15.5123
겪	-15.5124
넓	-15.5125
굉	-15.5126
잃	-15.5127
앉	-15.5128
숨	-15.5129
밝	-15.513
웹	-15.5131
춰	-15.5132
잊	-15.5133
겼	-15.5134
맡	-15.5135
뻐	-15.5136
웨	-15.5137
멋	-15.5138
깊	-15.5139
녁	-15.514
낮	-15.5141
괜	-15.5142
걱	-15.5143
냈	-15.5144
밖	-15.5145
웠	-15.5146
늦	-15.5147
첨	-15.5148
갔	-15.5149
높	-15.515
떻	-15.5151
렇	-15.5152
됩	-15.5153
험	-15.5154
많	-15.5155
볍	-15.5155
